[PAD]
[UNK]
[CLS]
[SEP]
[MASK]
s
##en
##er
##ar
d
##an
##in
##et
f
m
o
a
##ll
h
v
##tt
t
b
k
##ör
##är
p
##ch
##st
##om
##ig
och
##ag
##or
i
l
##de
n
##ing
g
att
för
##on
##ed
j
##at
det
##ka
en
in
u
##än
##ill
##ra
är
##na
på
##el
som
##ck
r
##is
##te
##kt
jag
med
e
till
vi
av
st
##pp
##al
##år
de
##ning
##ss
var
##am
##ter
##lig
##ån
##der
##un
##re
har
##it
an
om
##il
den
så
inte
##id
##ver
##ro
##sk
sk
##ett
##ade
##äl
ut
##as
##ad
du
##ol
##iv
##and
##em
fr
##ta
##ion
kan
##ätt
bl
ett
##ur
##ller
##are
kom
##ot
all
##es
##åg
men
##ik
##äg
##ande
##ut
ö
ska
upp
-
##ens
1
##itt
man
be
##ort
##het
##för
c
##ång
##sta
##da
##mer
un
sp
##ans
##äll
##ma
##ent
när
##yck
##la
2
##og
min
##us
tr
##fter
eller
sam
se
##äm
##inn
någ
från
##um
##igt
bar
##art
##ul
(
##ligt
##sa
##ull
hel
här
där
re
gr
##li
##ation
##ell
li
##den
han
##ri
##ker
sv
å
nu
##bb
##äng
ha
pro
fa
efter
sig
##äv
##..
##dag
under
##isk
##ram
##ir
gör
##ff
##yg
än
##ju
mig
##att
fl
##ster
över
kon
##arna
##ste
ny
##sp
kommer
##jäl
##sl
år
"
##bet
##ick
ar
vill
##os
##ats
ta
##ft
##je
allt
vara
då
alla
##ska
##und
hon
ju
väl
sl
##så
##ers
##ak
må
kv
##änn
##ock
##ne
w
##ger
tid
##od
dag
kr
##del
##dra
få
br
##ok
##se
##ycket
vad
##ev
lite
##era
##cka
##liga
##all
finn
##dr
##...
kl
##vän
bra
bara
##ud
hur
##00
mycket
vid
##ass
##erna
del
får
finns
##opp
tv
##edan
##iska
##ön
##sam
##iga
##ingen
##ist
##im
dig
kun
beh
vis
##ina
pl
er
##ningen
bil
fram
##bl
gen
##ligen
##ja
ock
äv
##ov
##ga
mer
##ikt
hem
ver
pr
hö
ex
##orm
or
##kl
även
också
vil
skull
hade
ann
mot
##yr
##kar
##var
##org
##ant
sen
##ost
##jt
stor
##pa
skulle
bör
detta
##ser
andra
##ek
##gen
##mar
##eck
##ställ
sex
vär
##ningar
jo
3
##åll
##ic
##ök
##ekt
arbet
vår
##yn
blir
##oll
##ling
20
##ber
dess
##op
##ord
.
##est
##öj
al
##ånga
##erson
sm
##tal
själ
ser
##äst
##öd
använ
ig
spel
##sen
genom
utan
##bil
själv
komm
ber
##ket
##ott
##per
förs
någon
##ukt
bet
ty
##ilj
lä
##itet
din
person
samt
##åt
göra
ch
res
##vis
sedan
##som
oss
vet
många
##rå
ni
något
##iskt
sn
##ci
##ds
##ress
verk
##gi
sin
##pl
th
mat
##gr
##öl
barn
säg
##fr
##upp
##ann
##jting
##str
##ken
ra
ing
##ygg
##öm
går
##jer
mar
bli
##ce
##riv
##äd
sa
##ät
hand
fin
##orr
två
fick
ma
##äck
helt
##br
behö
gå
201
##ier
##ägg
##kom
sätt
dem
##nings
##ug
idag
gång
hitt
##ende
el
bes
##ack
5
##eg
y
##aren
tän
gj
rätt
4
##vär
##men
denna
##ia
##öp
##av
hela
##atis
blev
läng
måste
##lika
##ästa
##ighet
##lar
pre
##ef
##enska
liv
jobb
##ske
olika
börj
kän
##kr
inne
först
pa
gl
##ets
##man
##ara
int
##verig
sitt
sy
hög
##ult
några
##hol
fort
bå
##alt
dat
mo
sverig
fun
per
första
##ex
##lighet
##ala
dejting
lag
vän
##sätt
gratis
rikt
nya
##det
hjäl
##ie
on
inn
##ts
sä
##ang
kanske
##des
tro
varit
tre
igen
hen
fil
##eras
##nad
vä
##digt
##form
##ellan
##ys
ro
##ida
känn
vå
of
ja
läg
inom
reg
##sb
##me
fråg
par
led
åt
##etag
##håll
möj
le
äl
##dre
str
tyck
mass
##).
mellan
di
##orn
##tern
##va
##orde
##holm
##yd
##age
ner
##nas
mitt
eg
dessa
##erade
so
##ym
dom
##ej
##kon
slut
##lin
19
##veck
##nar
,
##kel
##ering
##land
vin
innan
ka
##ella
vikt
ly
sö
##ativ
##orna
vilket
sverige
dr
behöver
##ika
##ust
6
annat
akt
##ien
stör
lång
##sm
##le
##gar
kommun
hos
##ål
väg
ans
lär
##utom
stock
##sson
##dukt
##ött
##jän
for
sju
##else
fär
##skap
både
##ba
männ
bland
##atur
bo
ingen
hän
##tro
fakt
stockholm
porr
just
##kv
##verk
##pt
stora
##unt
##ip
nog
ur
kn
säger
våra
##anska
sina
företag
sna
##uv
van
bästa
tar
##sten
fast
pass
:
föl
alltid
håll
##sh
##if
##äller
##pel
##jär
varje
##io
##ytt
kunna
ord
lig
##ingar
##uk
kvinn
åter
##be
su
ger
##atten
svenska
pol
tje
##ld
##ös
gick
##ow
eftersom
samma
##äk
##arbet
skol
milj
tag
best
fall
säker
##bju
plats
##igare
##akt
##erad
väldigt
nät
land
riktigt
god
##gång
##skar
##fil
##borg
##met
##iken
##lägg
fy
utveck
##ast
pen
val
7
##ote
tycker
##sv
##bild
##samhet
gam
##erar
tror
människ
we
##slag
##takt
mina
flera
ge
ställ
tra
mål
##ämn
##olk
bok
honom
hopp
si
hör
bätt
skriv
##tra
##sc
##derna
##ades
##led
##äff
##par
lätt
bättre
##fatt
##pro
lo
##eter
##amn
koll
##dom
##lass
##nade
snabb
##mans
##åller
plan
##rekt
verkligen
##iss
##tr
dock
##drig
##bo
##ke
8
##lag
ofta
komma
enda
##min
mö
enligt
kall
aldrig
##formation
fot
##dan
hus
bak
bort
##bar
##stem
##tag
##ellt
kunde
##sid
hal
im
hans
##äder
##fl
spe
##ha
veck
##går
trän
te
##ionen
intress
exem
red
kör
lå
##orgon
pris
##vet
10
200
mest
produkt
kra
em
grund
&
ditt
tim
fått
##ensk
##blem
använd
kontakt
##äkt
län
##rum
*
the
##ioner
redan
##ars
##baka
runt
köp
##pr
tog
##äs
gäller
öpp
erbju
##eri
deras
##kte
skall
##jekt
##iten
##tera
tillbaka
änd
##tid
9
##uss
0
##gram
##far
##väg
människor
enkel
##uvud
kvinnor
##mat
##erat
sol
##sammans
##kade
##skil
po
ligger
kli
full
information
lika
ung
gjort
speci
sak
exempel
##ings
annan
|
vide
gjorde
##cent
tiden
berätt
lik
tillsammans
blog
dina
##med
##från
hitta
gra
tidigare
fler
##lek
##årt
##öst
##anta
##ationer
sid
läm
##änd
##ung
hjälp
##hus
##ektiv
små
##hand
kö
natur
me
z
##ubb
x
bygg
därför
bor
kost
##ås
form
lin
ad
##rätt
sh
##tar
eu
jul
##sn
hemma
kro
kort
he
träff
##".
tur
mark
##berg
problem
henne
##gifter
kväll
stad
##nes
mus
förb
ab
lever
fam
huvud
direkt
pla
##red
##gör
ändå
##mär
##ors
##cis
##dagen
folk
konst
##lut
##ten
kar
##nader
18
känner
ind
syn
ute
svar
esc
##amp
##aste
ca
##lem
##by
ih
##ata
by
säga
möjlighet
kvar
##ående
titt
##illa
saker
intern
tjän
spr
to
##ppa
##line
star
##andet
försö
##unkt
##nu
##fall
inget
##plats
faktiskt
##anden
##talet
typ
varför
egen
nytt
##rar
##-1
bilder
##rott
rör
##alen
##iker
precis
##skol
##giv
##åd
dessutom
häl
##bland
##uter
tan
komp
##spel
rel
##bär
##stad
dagen
ä
##ultat
näst
##illar
##olag
bild
##rakt
##öv
hy
##nen
före
##amma
fel
tack
webb
jäm
ste
##000
väx
mindre
and
##öte
va
verksamhet
känns
go
##idigt
fi
ban
rum
##sy
svensk
##),
tjejer
liten
sjuk
##las
vatten
öv
##naden
##satt
använda
enkelt
##hör
pengar
##istor
la
##ivit
15
escort
kär
##!!
ol
ganska
ev
står
##net
##rat
massage
familj
##olog
namn
##elsen
##van
styr
##orter
##ationen
online
länge
##rev
##slut
gär
##heten
mal
beslut
hår
##rist
längre
##inna
sj
dagar
##skriv
haft
soci
##river
lan
##lev
sommar
vilken
##dat
börjar
##ester
##iver
##edag
match
##drar
tal
##ny
områ
lu
inför
part
stud
tha
art
hoppas
dra
##ian
##bart
film
kul
större
män
##iva
nästan
knull
köpa
##ct
##ob
##stället
ytt
sär
eng
##asin
samtidigt
##sf
stort
fre
utbild
såg
tel
förl
inv
##jus
pu
blivit
##bli
jätt
hennes
medlem
##ard
behand
##eta
##jur
##köp
##farande
##heter
bestäm
vissa
vårt
personer
ned
##spl
hund
resultat
##ider
senaste
istället
kropp
##yl
porn
##alitet
##anis
##kommen
##sför
ön
fem
##du
alltså
sov
##res
##drag
##pen
##ister
låt
12
kont
följ
##stån
##sin
start
##enter
värl
vidare
##konom
##han
##ition
gärna
nästa
##kor
##fin
[
innebär
##son
eff
läs
##lla
ännu
##lingen
##ler
##fekt
##vs
klass
igår
mag
##sikt
skön
far
ibland
via
äg
fortfarande
org
extra
vilka
app
ba
håller
började
##sida
fortsätt
vack
##omm
förm
gott
bel
##nat
sista
bi
##0-
##ips
bru
##öt
##gon
funger
##häll
disk
snart
##älj
##ostad
trots
låg
senare
##ligare
bad
gamla
##öteborg
svårt
loka
betal
visar
##ydd
##inner
##iet
stat
lö
:)
##ekn
grupp
ville
särskil
off
##ice
ant
##nads
göteborg
##antast
program
##ått
äldre
##yt
##eln
ekonom
mär
kron
##uta
ren
hittar
tex
ansvar
projekt
fantast
hjär
##pe
##icka
##qu
satt
dejtingsa
##ecka
##klar
fina
värld
gre
mamma
##efon
##ften
##eb
##raf
bed
klar
id
samman
bill
histor
##ygga
tekn
euro
##yrk
sådan
thai
##gär
##fäll
co
kur
/
##män
##otell
##äns
##20
ihop
##ux
framför
kred
##igheter
sc
##els
##andra
stöd
endast
sett
flytt
##esta
##istr
##äpp
borde
##lad
##fär
sitter
##rik
gar
hålla
##ternativ
mon
##kring
her
##ument
mil
stan
nej
finans
läsa
ring
spela
helst
am
cent
##unn
sag
##ore
besök
##dar
lev
morgon
ok
ob
tills
egent
trev
gillar
förut
inga
ben
gånger
##fe
##änner
samhäll
ne
börja
halv
polit
tyd
dating
##ari
##for
möjligt
##elser
ytter
gu
##ner
mis
##sch
##gre
##iner
frågor
ener
bety
##ps
##bara
procent
##erial
snabbt
blogg
övr
världen
klart
vem
##ever
##ära
ga
aktiv
fyra
kat
sma
lycka
timmar
själva
is
##ifrån
17
##iter
vecka
största
##spro
hotell
behov
tot
met
11
##oner
flyg
fören
##stånd
ljus
##cept
flesta
handlar
fann
##under
mobil
minuter
##äss
##förs
skolan
##its
visa
ens
##....
egentligen
älskar
viktigt
minst
täv
##ställning
yo
tu
##band
##dejting
video
perfekt
förän
kna
16
##dera
arbets
året
skr
sidan
rik
30
##ons
glad
##cker
##tta
...
sw
##ren
nära
malm
##mark
anal
rad
cy
skriva
##",
##cess
kredit
##ultur
funkt
räk
arbete
pat
##sig
##klart
##sats
##över
förv
##ynd
gången
##ädd
dam
##ral
kontro
egna
##lade
##one
använder
allmän
##ater
gått
ide
##fråg
utt
lug
skapa
##bin
lilla
dej
jämför
tem
alternativ
åka
föräl
##fri
##ite
##port
färg
söker
verkar
14
främ
##etter
##ffär
##ppar
emot
##sst
##itu
##ond
långt
vanligt
##omen
##mt
esk
##ummer
kor
lju
##ift
välja
ang
tänka
brukar
lägga
ör
pos
veckan
livet
free
100
##bel
sön
tjej
##grupp
##sättning
system
inter
ovan
medan
mid
kap
död
ham
##vid
##bygg
miljö
dan
bostad
##full
telefon
##ograf
##gift
##derar
##ivå
inlägg
##pass
##uella
fråga
##int
mode
tänker
13
maj
casin
organis
jan
båda
trans
heller
nätet
ögon
hjälpa
erf
do
##ont
massa
##fik
##vä
samarbet
fran
##håller
tom
mor
##dern
tips
upplev
antal
25
mör
##up
bäst
##mäl
bid
kring
forsk
##ännande
utveckling
prat
##orer
##kra
lov
##val
lad
##unda
erbjuder
träd
##varande
fanns
##ivet
skicka
##mal
gener
##vor
dags
##-0
början
gud
##okus
##rikt
##ert
skriver
häm
##ember
priv
sida
et
serv
##pan
super
pop
tillg
fli
##verka
miss
erot
sch
delar
passar
kopp
##unden
veta
dejta
sagt
##ide
##sidor
##ogen
##saker
##andel
kronor
##nande
##råk
##yss
nätdejting
##sol
but
##ivt
varandra
##ine
lös
##lingar
tillfäll
##jag
##dags
kommit
nor
bas
topp
##ban
##bud
vux
##oc
förra
ter
rö
polis
##of
känna
internet
##ård
kvalitet
utanför
häls
##enskap
bred
kultur
gol
##ong
otro
##sett
##örer
kvinna
händer
##ille
##tre
roligt
särskilt
äta
##he
vänner
##åk
tänkte
50
##ningarna
rapp
produkter
erfaren
musik
häst
insp
titta
##film
##sök
##medel
##juk
##reg
sem
haha
tor
vägen
kraft
ål
resp
djur
##kort
##kla
mån
(1
##ins
slag
säkert
##tan
##ko
ton
fokus
kräv
alls
car
##kväll
##ersätt
lägen
##alis
nak
viktiga
ac
fri
arbetar
säkerhet
nöj
vård
åkte
sveriges
kolla
skatt
##pper
gem
igenom
lyss
bolag
tagit
##uld
krav
test
##edel
pe
post
annars
rekommen
##tem
##ns
##dant
beställ
kal
affär
nov
##spr
risk
##anter
norr
utr
genomför
##kur
stu
##ivers
##ret
##ind
imorgon
lör
##ies
artik
##len
kam
trött
förslag
svart
knapp
##splats
hot
utför
bon
elever
##ron
dit
##ium
häng
##uari
nån
##fer
unga
##alog
skönt
##iz
##ate
råd
##oende
desig
träning
##ity
fint
bal
##mass
sök
##una
försöka
ko
000
sing
##dde
;
lån
öka
pri
bö
##snitt
fix
säng
##ölj
visst
framtid
##jter
energi
##egor
fredag
läk
vak
him
kons
stra
klock
material
sätta
skill
nord
##ring
dri
ytterligare
##co
barnen
reger
malmö
##boll
jobbet
##ena
##ssk
favor
##staur
##ht
webbplats
##värr
##cer
##rag
försök
##lat
spelar
##strukt
##och
eskort
##jo
##köping
kund
%
##kn
kunskap
fe
##ström
fungerar
##mera
bef
log
anled
ifrån
bakom
##ator
##ösa
fördel
betala
veckor
steg
at
dy
##änk
##ension
##ca
lugn
##märk
##bok
##usk
filmer
sån
lyck
innehåll
tyvärr
kärlek
##fy
jord
##llen
träffa
##plan
##samma
2018
chans
gym
##sidan
månader
posit
tryck
vart
glöm
fisk
ungdom
popul
skär
avs
##batt
##ita
##30
event
norm
##ph
##emang
prakt
##hl
medel
vanliga
registr
##önster
social
nation
##jut
no
dö
roll
oav
##rade
##ält
nag
##stid
lära
försöker
##ge
liksom
fyll
univers
omfatt
##dig
##jör
cir
sli
dro
##öka
da
inspir
##älla
##unch
tänk
##kän
##com
dör
heter
##skin
restaur
mäng
kök
anmäl
presen
##,5
spännande
ersätt
##skott
förstå
lek
uppgifter
rå
utbildning
utl
pappa
näm
nedan
ej
##als
prov
##mo
används
jobba
##rad
uppdrag
##ran
matt
indiv
san
johan
##eller
grön
låter
##verket
##atan
##gräns
usa
kompl
##kat
funktion
##äcker
följa
##ump
stund
##ämp
kvällen
säll
boken
hjälper
effektiv
##ders
rep
2017
karl
##väl
utom
##ish
innehåller
goda
skap
bud
högre
##delse
säson
värde
max
casino
tillgäng
##tat
ek
##ash
dröm
##efter
##-2
my
uppt
recept
beskriv
mys
gav
inst
förstår
speciellt
##ugg
natt
##po
lämna
##okrat
sexiga
internation
fo
##bruk
förbätt
igång
##ry
vit
tyckte
upps
knulla
jun
amat
##efär
mm
våg
säl
blå
spar
##uell
menar
dagens
it
dec
prata
hej
mi
##iella
fatt
förändr
##jö
##vik
situ
stäm
##edje
kläder
förh
##alla
känsl
##bund
väljer
avslut
förhåll
##otter
##mare
fastighet
frågan
aktivitet
bilen
##till
dejtingsajt
##ras
bro
##kta
års
jäv
##itter
hit
##sak
##massage
##ital
teck
oavsett
jobbar
sta
##arnas
lön
rom
##uppgifter
lägg
nåt
anställ
199
##väx
psy
##sent
##ey
##punkt
åtgär
stå
amer
##emot
##entar
månad
##äcka
driv
ungefär
iväg
##terna
##ffe
otroligt
helgen
##mor
##mi
bju
##skatt
as
ho
eget
bilden
åker
24
berg
uppdat
krist
##skr
##öts
na
tvätt
åren
kroppen
släpp
personal
klockan
resa
##ark
fan
detal
##ärt
sten
sim
ass
dju
vilja
gemens
##uck
kol
förvän
##ryck
inkl
##på
son
vackra
##stol
##ive
tredje
service
##itut
sker
käns
##lands
betyder
##läg
förutom
fö
##äster
##deles
området
##skolan
##ystem
trädgår
möte
absol
effekt
com
xx
ry
plac
##aket
date
rän
bit
##fo
##kan
världens
sport
dans
landet
ske
##äver
kunder
fest
engel
##aga
##10
väst
lokal
försv
försä
##bör
##pla
##ven
stol
klubb
##bolag
##ovis
1.
kön
##områ
publi
vatt
##fa
väster
öppna
övriga
förr
##skan
##allt
blod
##stan
alldeles
##ork
##verkar
##ffa
sek
kombin
os
köpte
##ansch
tillgång
bär
söder
##bord
nämn
miljoner
stod
stäng
skick
snygg
##part
glas
data
privat
##ukost
oftast
##komm
föd
nöd
sal
totalt
##utt
##dition
##styr
buss
utman
naturligt
##bi
##tering
hittade
arbeta
ag
##inne
trodde
gammal
skrev
defin
arbetet
##vin
dok
lunch
##jen
gro
flick
kände
deltag
##juta
behövs
årets
slutet
##yndighet
2.
##öna
##betal
##följ
##ög
oro
ingår
hall
nå
##ions
##ocka
##uellt
prin
##end
21
svår
ensam
kontakta
##book
dejtingsidor
skydd
##50
##vi
behandling
dejtingsajter
text
port
##jöl
kri
öster
##any
##tjän
ändra
##duc
sitta
sil
##öter
dejt
##räck
därmed
skog
kyrk
intressant
##äft
tjänster
favorit
ikväll
bek
40
##but
##otten
##järn
tio
berättar
berätta
poj
##tligen
frukt
följande
spelare
sky
wid
spring
köra
##ativa
##lös
användas
##vara
juni
2016
ämn
dubb
krävs
2015
invester
##stor
höra
erfarenhet
poäng
utmär
##ure
##sav
fortsätta
public
##her
aug
##otek
okej
ris
ed
ram
##ub
##skade
psyk
und
däremot
beroende
##utveck
##ink
##sdag
##kten
samband
promen
##ferens
nämligen
##nam
rädd
##kläder
frukost
erbjud
thaimassage
klara
##itta
låta
22
huset
##ly
##företag
kompis
##ustr
kommentar
äntligen
bank
##enn
absolut
##ansk
##grund
stark
sur
stil
lägger
##gra
allvar
##tor
universitet
##back
fred
qu
besk
##kas
yn
xxx
självklart
anpass
cm
exempelvis
filmen
fys
nivå
massor
##tes
##sområ
ansök
swed
brott
författ
##link
höj
design
##gå
viss
därefter
##terar
följer
trygg
sådana
face
okt
apr
fotboll
finnas
con
sova
tänkt
bygga
behöva
##äker
##ativt
bröst
bedöm
##ho
vänster
##agen
##do
sep
##stans
##ikation
liknande
mog
##bes
hud
##handling
##ktyg
##komst
sommaren
luft
##pet
skad
##utbild
od
##ernas
skra
'
medic
##agn
##tade
##syn
sjukdom
regel
väntar
##get
meter
pot
stopp
hum
##samt
klicka
##person
ume
välj
##sel
semester
sort
##splan
vänta
trafik
press
företaget
familjen
meddel
##ton
##iden
##skri
##zny
böcker
behöv
förlor
föräldrar
dla
utred
personliga
2014
middag
##anych
##fte
##åga
zalog
##owanych
widoc
widoczny
zalogowanych
##huset
##ober
fortsatt
båt
vol
let
##skor
uppe
jon
##förande
##igen
betyd
##filmer
historia
höst
gal
ph
new
##201
tillräck
storlek
stand
fullt
plus
börjat
##fess
stället
delen
består
hemsida
uppsala
##hem
fortsätter
höll
##dem
process
fas
språk
##mid
##unnit
långa
can
nöjd
amerik
##när
skit
krit
dist
##lo
##bas
##står
förklar
##ting
##af
present
ont
##iat
leva
##vänd
##pol
visade
misst
lördag
##bur
litet
##hi
löp
tidigt
facebook
server
avl
##jan
dåligt
##dering
konkur
gäll
dal
##ören
##ändigt
##ake
marknads
interv
mots
försälj
##cke
undersök
##verkan
offent
medlemmar
kamp
ljud
katt
intresse
##.00
högt
omkring
;)
##enten
samtliga
välkommen
##mål
##ifier
lärare
pan
mars
enskil
##arm
rull
##arbete
##enden
borta
##sd
##pris
##seende
##."
##åta
engelska
chef
vare
kontroller
##rör
samtal
##teck
viktig
kommunen
##sättningar
lund
##erande
dela
##tember
scen
länder
björ
tus
drag
##fs
##lapp
utifrån
vinter
##ith
staden
kung
23
insta
främst
##iel
uppmärk
##sing
dejtingsida
röd
##ligheten
cirka
##nytt
##//
##irl
helg
sådant
visste
##ism
hälsa
ir
kille
bu
##ach
tanke
##so
avtal
august
önskar
joh
##skola
##iera
september
profess
höga
spår
ul
##ige
oper
kval
exakt
##enting
stress
##jor
inled
sluta
cykel
##värd
europa
##län
##stående
dis
##ike
tradition
rut
drog
tors
ålder
##öll
ena
##ipp
begräns
sidor
exp
kräver
trevligt
fotograf
teknik
ång
byg
punkt
back
sock
region
tävling
je
mej
##rummet
föres
##san
##ila
##ämt
november
special
##blad
minska
icke
gläd
##eder
##://
framgång
solen
dokument
##ve
##post
fj
såsom
villkor
allra
avgör
läser
himla
krig
##ue
söndag
såväl
oktober
skapar
antalet
fjär
sälj
elekt
##amm
utveckla
##program
ingenting
engag
##ica
##ierna
##skon
##vent
trevlig
jävla
bord
ställa
##vård
sven
sym
kompet
januari
höger
samarbete
kändes
##2.
kontroll
beror
exper
sist
kategor
resten
hård
##lunda
förel
närma
april
##ycken
insats
##ycka
vitt
vardag
bod
förek
sociala
fart
sand
möjligheter
mera
bloggen
parker
redovis
##za
sän
##ix
amatör
ident
reda
##produkt
skola
tråk
you
mår
nakna
##cy
sätter
tåg
väder
ros
##aler
dator
mogna
##serv
dels
sats
kuk
tillhör
##ägen
ses
##garna
##råd
leg
##delning
områden
jär
##sorg
bonus
##sex
##likt
forskning
##yp
##edd
motor
natten
##ständ
plöts
##sg
anna
ret
##still
sann
##ordon
märk
mun
nyhet
ark
##verksamhet
senast
kaffe
kallas
leder
hårt
##let
söka
lyssna
anledning
##ottag
##cens
skillnad
##tas
htt
underhåll
out
tj
##oo
##uren
##we
fantastiskt
fol
orsa
autom
##1.
(2
varmt
##ädda
2013
extre
##ställa
##lande
övrigt
##bol
jätte
umeå
ak
någonsin
anser
smak
##terade
påverka
trä
tas
##ställningar
dotter
hin
saknar
60
tol
##grepp
vir
tum
individ
äter
skrivit
##bon
läst
princi
##ations
erbjuda
lättare
avsnitt
priser
kött
fal
träna
##cc
lämp
framtiden
färger
december
##urs
beräk
##use
guld
bekv
förber
##ningss
fantastisk
lyckas
roliga
##system
typer
utrust
##derat
regler
skyd
uppskatt
reser
wh
enbart
sjun
rev
slå
##onser
##ement
##ektive
undrar
platser
##ykt
##föring
##peratur
röst
3.
rent
respektive
byta
##ank
dusch
helsing
tonår
spelet
njuta
försvar
lat
##emål
användning
ap
känsla
##wa
videos
avsl
ökar
##kvens
förstås
##star
##urna
grann
##iti
km
pratar
les
mjöl
erik
--
##tv
ändr
##orge
sjukt
stockholms
dryg
##larna
seg
lokala
kart
##ckar
##ärer
##00-
vers
drar
kara
##fritt
verksamheten
##dels
##läggning
tillräckligt
prova
butik
testa
dagarna
!
##öja
sånt
porrfilm
##tet
högsta
infl
##hav
lägre
frit
##over
vore
bidrag
ihåg
grän
utmärkt
seri
##yta
medvet
juli
imp
##oppet
##stå
lager
##ningsvis
förvalt
snö
##inal
resultatet
##marna
verktyg
syft
tis
anslut
drabb
skån
##th
skri
yngre
##fören
##lan
plötsligt
gymnas
boende
##anda
osv
handla
regeringen
yrk
##!!!
lagen
hu
kunnat
cam
profil
klipp
öppen
gemensam
##orlunda
opt
##klag
live
varm
##skra
##brott
##iod
lägenhet
rapport
sund
ordent
medicin
snygga
givet
namnet
##klam
idrott
##här
tankar
##igg
tit
##ungen
pension
gay
kass
##vist
vuxna
leverant
våld
##bor
bur
enkla
vann
värme
##ägare
hom
önsk
knappt
produc
##gående
ax
brand
##bilder
26
girl
band
hämta
##lare
##fyll
##itar
iaf
##endet
augusti
datum
ät
##jul
##nummer
kostnader
27
ligga
28
##ias
arg
damer
##iment
ström
sängen
##to
rid
inred
ital
hösten
publ
handel
##änning
##ight
##/1
##oklad
timme
##iteten
naturligtvis
mod
vinna
huvudet
##givare
bilar
##emedel
##ologi
##chef
ru
febr
flytta
neg
jack
skå
##iens
boll
fantastiska
någonting
team
såklart
dukt
marknaden
foto
modern
spen
##ror
##ogg
smart
spa
strax
ins
##oder
##isen
integr
blom
##ansen
tysk
närmare
område
försäkring
fir
##visning
##teras
##ette
eta
##ben
käll
1,
andel
karakt
##eringen
livs
##hy
mjuk
198
mesta
vattnet
soff
samhället
välkom
konkurr
vägg
valt
##ustri
##kad
polisen
vita
förbi
klimat
rabatt
uttryck
##uten
utgör
##demokrat
##ssa
nyck
centrum
ekonomiska
antingen
rapporter
kompetens
utnytt
##nämn
##vika
fru
##gn
rym
vacker
shopp
puss
##5.
betyg
digit
åtgärder
?
äkt
elev
framåt
##bundet
##utr
##spektiv
uppfatt
##stra
##sprung
antag
##klare
medarbet
passa
##kopp
##:1
kil
mannen
kommande
##lor
priset
##fiken
paket
ansökan
risker
artikel
##färg
##naderna
aktiviteter
tand
##lever
skor
sjö
##gren
måndag
satte
ordförande
mängd
##hel
utbud
##cep
förmod
klarar
bygger
stanna
##slan
promenad
lind
##ola
kontor
##minst
fixa
eftermid
skil
##ham
ursprung
mom
spelade
##istik
##eringar
##istiska
upptäck
nyheter
vanlig
erotisk
härligt
##erades
skäl
matchen
##-3
körde
##ab
smör
##mel
web
##aget
dålig
##ebro
tving
tittar
sväng
pal
lugnt
##skydd
##växt
kurs
hänt
finansiella
standard
##9.
kommuna
papp
##klass
central
##ial
minns
amb
nummer
kyl
##usive
triv
tjänst
##etr
datorn
myndighet
slä
chat
fitta
tanken
februari
blomm
choklad
##ills
killar
etc
gran
betydligt
##ckade
stre
##ktor
bus
målet
##ms
kostar
ekonomi
maten
chatt
vuxen
förening
##stav
ill
##sled
ansikt
känd
##ppen
hell
jur
##ula
ladda
bransch
säm
betydelse
viktigaste
##lic
##värt
förhopp
af
##ötter
prote
härlig
mask
riktig
intervju
projektet
##edagog
dubbel
herr
kre
mart
fönster
fritid
##skär
restaurang
##uts
läkemedel
platt
tydligt
##tryck
##dret
nr
gravid
sty
jes
##cha
organisation
ställer
##iljö
##40
hd
ända
gällande
##hall
billiga
snar
##ib
yrkes
##sor
förändra
europe
annorlunda
##isa
underbara
##ura
##ordning
frisk
automat
##ana
##där
bevis
tw
regl
##ioden
##skad
regn
pengarna
kommunikation
adress
hol
##skapet
färd
skratt
##anger
bakgrund
lämnar
##spekt
morgonen
mel
2012
intr
##vår
##atch
definit
köper
cit
transport
sms
tala
försökte
brev
29
lyckades
##kommer
tube
plocka
rygg
diskuss
##ligheter
ww
##kast
normalt
säsong
jämfört
glob
näring
våren
##åra
underbart
##fton
##delar
##slös
skul
ställe
##ots
spara
lock
finansier
städ
##inge
##leksaker
vind
begär
hittat
beställa
göras
##ändska
valde
##ec
##gård
##läng
örebro
låna
##hov
lagt
jön
##ube
sång
##isar
talar
finland
söt
förekom
##utveckling
konstigt
fordon
reklam
människa
läkare
anställda
maskin
##60
##minstone
mail
era
2010
anders
kalla
detaljer
##samling
intresserad
##bell
sko
entre
underkläder
uppgift
landst
##mm
föred
sat
hört
aut
##rip
197
##4.
##hamn
lust
john
svarta
batt
bilderna
studie
##kli
sent
syster
##fta
mä
500
värt
black
görs
starkt
##jar
veg
##ären
förhållande
räcker
bolaget
förutsättningar
öppet
alko
nödvän
##stat
musk
##resent
lesb
ges
##äget
rummet
ialla
slog
ox
tillämp
yr
##-)
söm
vars
grym
##srätt
##fred
##kning
stick
lar
ägg
##vad
godk
bom
konto
##pat
mång
åtta
rejäl
isl
accep
inl
)
budget
##inar
##rande
kontra
papper
utrym
ot
förmodligen
gif
period
visas
modell
##tim
ordning
mått
bev
analys
##klubb
köpt
##barn
tydligen
##inst
##igh
bri
dyg
pati
syd
kill
problemet
##tel
orkar
funkar
kram
sannol
porno
dest
utgång
numera
givetvis
programmet
dyr
marknad
etabl
drygt
fett
fing
fåg
##elat
berör
redo
järn
vinn
last
syfte
sum
##gården
##mäss
tillverk
leda
hat
##gruppen
www
ordentligt
inf
energ
ander
hållbar
varier
boka
with
gäng
dvs
##slagen
åtminstone
illa
##hang
##agg
grader
0,
iallafall
##ställd
##ander
bestämm
um
plast
##pack
förvär
ti
internationella
##go
hantera
##amin
relig
läge
##umär
naken
släng
##kret
##fest
säljer
alkohol
tyst
politik
##vers
slutade
sälja
singlar
##ologiska
delta
släkt
påverkar
mänsk
##ategi
konstat
balans
##stjän
högst
lang
##ager
##deras
##press
##uc
bem
tak
peter
sub
mogen
if
norge
##ansvar
##önstr
##orden
goog
##ektion
starta
populära
##8.
##klara
underbar
ringa
strukt
ku
undan
vinst
föresl
##vo
##satta
arm
rosa
personuppgifter
utöver
##splatsen
siff
personlig
[...
##anten
##amen
laget
konf
uppn
##add
31
##urser
skyld
##ald
säsongen
##anc
djup
##skaper
industri
nil
##rang
letar
##ugga
kvart
##6.
##häl
princip
##99
fika
sällan
uppen
gett
mottag
sade
##zz
andre
##ona
tillstånd
##vägen
helsingborg
##blick
sjukv
will
värm
##karna
ungdomar
utvecklas
brän
nat
partner
nack
##oga
media
röda
real
fant
2011
##ich
soffan
stabil
barnet
stär
kapital
detalj
##igur
södra
salt
ökad
christ
makt
hände
##ment
försäljning
kostnad
##entyr
profession
##skning
mr
journa
maria
##les
åsikt
vaknade
kem
doll
4.
bibli
möjligheten
starka
##handel
säkra
##ställningen
sexleksaker
undvika
http
vackert
fört
##derade
carl
##mot
institut
##3.
gäster
##ienter
##läs
svara
##bu
ersättning
##rala
##fors
springa
##rika
lösa
beg
växt
glädje
höjd
försikt
öl
finner
##fan
magen
behövde
utform
tunn
fyller
##stift
##behör
juster
cre
bilj
##:00
dil
bestämt
betalar
##året
tung
##ingarna
längs
##sma
##öker
mg
##öjd
##onen
mät
torsdag
varumär
##öllop
##server
##spol
##lund
##yter
funn
##ivare
lista
förmåga
aktie
föreningen
##ssystem
##.)
##ilt
##äda
##ysning
##har
bekr
80
##eran
nere
##delser
styrelsen
hamn
upprätt
situation
hål
pratade
temperatur
växer
kin
prest
##nan
flash
ladd
politiska
##pren
inköp
##ise
teor
ras
skåne
demokrat
##arens
sättet
total
milf
berättade
hotellet
city
konse
##ction
##ätta
##/2
admin
mitten
##gj
överra
godkän
skogen
skid
##åter
##??
bjuder
tun
bruk
##fi
sål
rem
faktum
allmänna
##xor
döda
rolig
utvecklingen
##7.
förtro
studier
##skv
##äde
täck
forum
##etten
rättigheter
##ks
konstnär
##givning
singel
omedel
varken
2,
snarare
##jöd
bete
medarbetare
char
##ep
slags
respekt
strå
förbättra
not
värd
##off
hav
are
gäst
##rapp
##shus
hinner
kallade
##tiden
chansen
##bak
inklu
hann
##ämm
##lov
##sr
genomsnitt
rim
hyp
vand
torr
utsikt
##ower
känslor
resan
##tekn
##igheten
kommuner
##aten
kända
##enskaper
leverans
skiv
besöka
90
möta
medborg
läste
##kraft
strand
synd
ager
stig
mysigt
närheten
jobbigt
grill
kyrkan
anses
sant
##ya
åh
##sprogram
sla
möjliga
supp
utvär
##sdagen
dörren
norra
##5,
färdig
fungera
##kam
platsen
##ern
kåta
bröllop
sikt
##öta
stycken
##börj
risken
rekommenderar
yout
serien
##frågan
lösningar
amerikanska
##kost
##ble
vetenskap
##pos
tvungen
info
##sterna
valet
tyg
sjön
##bro
##own
personen
##platsen
produktion
##di
span
tider
rakt
underl
härliga
skada
föreläs
nuvarande
##former
modeller
tår
flickor
oer
##kör
##emat
don
muse
manga
lyx
nyligen
nätverk
definitivt
inspiration
lill
##maskin
undant
cl
sweden
ideer
##tida
70
##dex
havet
slår
omöj
##resen
gift
toppen
##phone
##umenter
vari
##ctor
eleverna
behåll
##:-
socker
äger
sällskap
vila
brist
##skrivning
##ora
älskade
inklusive
relativt
övert
aktuella
innov
##sliv
älsk
##handa
orig
tillverka
köket
##föra
enklare
##ific
däck
framförallt
##hört
ständigt
onsdag
kommentarer
##vil
##utbildning
##iven
mats
##nivå
förstör
hundar
relation
kors
mik
##ament
##itteratur
jobbat
##rid
##fot
##gl
regering
objekt
mak
begrepp
##släpp
gruppen
världs
##ule
ringde
##2,
##ale
dav
takt
handling
op
botten
hunnit
hända
fräs
##uff
##yser
funktioner
##vikt
##agram
unders
enorm
##läggande
dollar
nä
##mon
inrikt
dricka
skjut
up
intens
stjärn
##svall
##ledare
borg
vädret
född
##betalning
fack
lyckats
ränta
tekniska
##erier
serie
fallet
tråkigt
alex
jorden
ug
##äkter
##liggör
äventyr
happ
mött
kak
##fint
lars
vardags
##imal
##giften
vd
frågade
##hets
bröd
slutar
gn
syss
dum
##vatten
gill
got
brun
perfekta
urs
##bler
##delningen
hjärta
oför
tillfälle
##ww
hamnar
35
hittills
##mode
student
studen
##stag
umg
##karen
samhälle
metod
hast
svens
##lik
brud
uts
rock
##ilje
svag
q
tju
pär
specif
gjor
livsmedel
kollade
straff
tapp
##träd
play
##slaget
##ess
struktur
tycka
site
fylla
känslan
lösning
mov
prior
erotiska
danmark
hälso
##kontakt
##80
sammanfatt
mol
##ama
##området
##?!
ämnen
ryss
##xt
##elsens
coll
fredrik
lämnade
##aden
förvar
personalen
##ikat
offic
##oss
##sstyr
riktiga
##yggen
##frågor
ordet
##gt
big
landsting
hjärt
billigt
jakt
##bjud
lans
leta
dog
##lats
glada
pet
##färd
tittade
samm
##värl
banan
visat
##dela
##varo
perspektiv
pedagog
##bra
stranden
##oden
andersson
kg
håret
kallar
sajt
comm
videor
karaktär
lant
##natt
grundläggande
överens
mening
enhet
gäv
ökat
billig
befolk
kampan
##entera
bost
extremt
knullar
funderar
kop
räkna
utomhus
häv
mönster
##gande
tillåt
äng
##ssan
##visa
radio
hänsyn
##räk
golf
diskuter
hörde
martin
korta
196
morm
exkl
##bum
snabbare
sämre
golv
kapit
förhoppningsvis
mad
##www
skilj
njut
moderna
västra
##ycke
flex
##hjäl
##låt
ögonen
##hög
urval
fång
stolt
tisdag
prem
##fulla
centrala
##katt
##issa
hushåll
2009
trädgård
tuff
youtube
grupper
##ood
sammanhang
blommor
bidra
startade
debatt
konferens
##försä
hed
befinner
olyck
ifall
förrän
##ox
##organis
##ätter
##iell
stann
potent
##4,
förändring
kontrollera
##annen
träffade
födels
avsug
angel
45
##ada
##ranger
##ics
oj
##namn
klä
aning
systemet
##.1
##hur
##shop
##dit
happy
ledare
##con
snyggt
tecken
##ii
tjock
vist
garanter
lämn
hoppa
tråd
misstän
gun
alli
##lle
##vakt
silver
huvudsak
ip
inkomst
tyskland
##värde
##oka
motsvarande
symbol
##bert
##nät
syftet
hyll
##jobb
omsorg
##skå
ätit
frakt
gröna
##arder
##funkt
sorter
närvarande
vanligtvis
col
förbund
tillgängliga
bir
skaffa
kollektiv
möter
konsekvens
omfattande
allmänt
sugen
patienter
##hund
ledsen
marker
pool
gävle
naturen
##70
park
känt
pga
kallt
##äning
##fria
##marknaden
bestämde
listan
svarar
smär
your
enskilda
förk
##spelare
kåt
arranger
levande
rund
träffar
##stöd
##hålla
box
bidrar
korrekt
hjärtat
sönder
##fel
lagom
sortiment
överallt
##centr
##polit
formul
akade
heta
rädda
mörk
avseende
kok
svåra
##valt
folket
##ytande
fukt
gräs
gemensamma
mjölk
skickar
##por
snabba
##list
någonstans
##gatan
skott
lond
former
vintern
hyres
##ometer
het
italien
renover
driver
förläng
lopp
##riär
bio
appar
erfarenheter
magn
japan
major
längtar
svenskt
sara
##pi
förhand
lid
##fisk
upplevelse
äm
separ
oerhört
##alet
nödvändigt
matcher
##oteket
##arbetet
##gången
sign
eventuella
##sbe
drift
bekräft
##/0
lott
värsta
förd
positivt
installer
privata
##fullt
this
##:)
användare
sel
##sköter
##ase
förändringar
mult
##lösa
##imul
längst
fakta
pul
##1,
försäkr
skuld
##ämpa
##mäkt
##kall
medier
huden
erotik
arbetsm
##!)
strategi
nytta
sens
lukt
jesus
##önstret
snäll
britt
##lit
fria
one
saken
kyr
##änder
##aktion
glass
##edda
##bergs
tillhanda
sover
nationella
refl
##kul
kunskaper
##juka
##ledning
obe
hundra
hälften
300
uppfy
sprid
uppleva
##ånd
unika
intressanta
##ältet
##eda
skydda
bre
wil
nerv
##3,
vända
mängder
fäng
camp
syns
##ea
cat
##smål
stall
##45
kombination
##resa
por
daniel
hun
##försälj
jönköping
##språk
föreg
##ården
förstär
fon
lägenheten
##yo
erbjudanden
##ugan
##uer
ep
##ökt
betrakt
revis
##ose
planer
nått
##25
lät
##jön
förutsättning
##ema
rök
resurser
##histor
##djur
övertyg
##liv
##material
garant
godis
##sträck
porrfilmer
##uro
stack
##laget
mam
##ekan
##ologisk
##olut
förklara
skrift
fet
hyr
besökare
parti
belopp
##ding
födelsedag
författare
värre
##häng
##start
häll
nyckel
nio
bredvid
##deringar
kontin
allting
administr
utav
##skyd
kursen
badrum
pågår
##världen
taget
tillägg
london
konser
##oris
varma
avanc
##hal
block
sjukhus
björn
##juter
##isch
ställen
##viken
webbplatser
följd
tusen
##df
##ius
##vill
wa
##deg
mäss
##itekt
domstol
undantag
tidningen
politiker
desto
hunden
bodde
potatis
milit
david
anges
sorg
grad
inlägget
initi
saknas
stämmer
osäker
ursäkt
avgift
motiver
##tok
välkomna
västerås
las
ryska
##ader
2008
stats
anledningen
##beroende
maste
gratt
avsugning
##cel
##enhet
##tjänst
##skrifter
##styrelsen
blanda
rek
tax
pil
länkar
stål
##gat
##imer
##iot
##rarna
vag
avgifter
##yld
beb
metoder
betalning
fjärde
onöd
5.
närmaste
tillväxt
värdering
elektron
##bilar
##ostadress
såå
arrang
##vete
flykt
##sport
bytt
tok
bedömning
ledande
##inder
funnits
bussen
attrakt
fantas
##6,
##ivitet
hänga
seger
tjänsten
sådär
frågar
sof
positiva
##lista
##bransch
laga
påsk
net
skickas
minsta
passade
##allen
wik
fyr
##isten
handen
klassiska
befint
##gress
beskriver
kära
flashback
##ior
##ändr
##ee
gemensamt
grunden
##dagar
uppfölj
dim
thail
##kande
##fart
grej
##projekt
intro
rätta
johansson
air
deltagare
öppnar
kyck
bror
moder
organisationer
framtida
##pon
##taget
texten
##amål
presid
särskilda
hänger
individer
##dena
bb
startar
##sar
##telefon
##--
effektivt
##box
fördelar
bag
statistik
matte
york
##bit
restauranger
möten
golvet
grå
bett
egenskaper
äkta
undersökning
uttal
##vide
skar
sömn
entrepren
version
##burg
röra
##inen
positiv
europeiska
tillgänglig
google
##institut
##sked
##qvist
digitala
##besök
julkla
##90
klin
##ris
ökade
genomföra
tillfällen
##entals
mobilen
relev
##strument
minskar
bön
duktig
söta
beskrivning
bestämmer
##skt
slipper
##rätten
utbildnings
instrukt
signa
resor
##löst
##set
##punkter
##-,
##oteborg
betalnings
##ebra
##tur
bloggar
långsikt
##rep
##bö
motiv
inre
##nor
anmälan
fritt
##tion
##angen
##ows
insatser
##spunkt
recens
använt
tyska
ledig
varav
##enda
mic
##grupper
##skl
##platser
brom
fira
##vand
vapen
##troll
marken
växa
anlägg
bekväm
##utera
besvär
månaden
##onom
verkligheten
varor
linköping
##kommande
fris
run
produkten
rengör
framgångs
grattis
antar
##ateg
kommunens
noll
##istisk
förvänt
släppa
##dens
logga
utrustning
##jung
alltför
samling
##huvud
slott
##hen
##9,
##indra
##lå
överlev
##anen
mormor
sprang
asiat
##tokoll
##ockey
##ikte
dåliga
stött
kommunal
##ile
rekr
lärt
iphone
civ
##pac
##terat
##usten
##sjuk
nyss
uppmärksamhet
artiklar
kostnads
syr
##skat
termin
butiker
ost
flicka
##eten
utföra
deb
speg
##ongen
##ängd
##byte
lämnat
og
##sprocess
install
familje
cert
##brik
artikeln
##rediens
##12
##använd
rena
naturliga
socialdemokrat
ii
förmån
motstånd
##prov
bestämma
##hon
goteborg
fattar
##sund
fundera
upplever
normal
villa
mikro
ägare
träffas
kunden
aktivt
##gångar
socialt
##staden
rörelse
populär
konsument
der
vinner
skyl
snälla
gas
miljön
diskutera
##elserna
annonser
vågar
förtroende
motsvar
##steg
##gas
##etta
påm
##yrå
##ningsdag
stads
national
##ledes
##sse
premi
ledar
##-4
hinna
make
represent
motion
längd
##ningens
dildo
##skost
mc
original
förskott
rot
##iff
pin
##delen
färgen
##gick
stannar
patient
##då
digital
kurser
kvinnan
##minister
utfor
äpp
rec
ställning
blick
sus
hästar
expl
##ckor
##ista
##säker
läget
satsa
195
##7,
##äcken
##mos
##varor
##ual
mötet
vent
sundsvall
##resultat
##ständigt
räknas
frankr
skåde
vänder
##må
inc
skador
##olja
##jejer
situationen
kä
##ival
aukt
##mus
eventuellt
når
bära
regi
perioden
ten
fuck
vall
##ivande
##bal
##vel
finansiering
##isera
stimul
##stiden
##bror
even
##sjö
teater
avgörande
registrering
piz
##yndigheter
storm
##jande
försökt
sammant
nöjda
ky
tillfället
ryggen
utbildningen
##umm
beslutet
samla
bjöd
aktiver
3,
uppmärksam
kompisar
gul
fla
återvän
nyfiken
##vak
grov
##matt
##upplev
spelat
##ikal
##central
arbetsplats
fortsatte
##intress
noga
klubben
tävlingen
est
##ordet
##stäm
kameran
missl
ringer
invån
helhet
göm
##eff
dekor
gifta
emma
##sprodukt
inner
##ögon
parkering
studenter
##sättningen
gräns
show
ingrediens
noggr
lyssnar
##komma
efteråt
hyra
lule
shopping
doft
aktiva
##stud
##ze
planen
##ttar
vas
##-5
jämn
svt
##sper
##sommar
grejer
diagn
##bladet
sträv
varv
utrymme
hypotek
unik
escorts
såhär
##8,
ange
##hop
pröv
##annonser
metall
sop
balkon
##iellt
behandlas
##lim
##fam
##inte
##sätter
återigen
fra
miljarder
1000
arbetat
bostäder
##föd
galler
##agra
registrera
wor
sägs
##sut
faller
halm
läsare
div
marknadsföring
##mail
avser
litteratur
##ktorn
mix
##lades
krön
##boken
##kro
luften
sekunder
staten
##uch
butiken
##11
automatiskt
swedish
länk
##byggnad
finna
franska
upptäcka
hard
händelser
##sbolag
offentliga
##ännen
##smäss
hotel
konstrukt
webbplatsen
trygghet
hjul
omöjligt
ali
hemmet
hypotekslan
koncentr
tydlig
tät
jonas
##skole
assist
##ners
skillnaden
behör
aktier
engagemang
informationen
represen
##döm
domin
språ
särskild
nik
bedriv
kalmar
sexig
toal
pack
##ela
omedelbart
stefan
troll
inser
avlö
sovrum
##lagt
##ands
isra
##briken
##kod
##pre
rost
eld
gransk
organ
##konto
döm
exklus
karlstad
##umer
##ställda
ryssland
invand
support
sträck
##ssätt
work
ledam
##utan
flyttade
tabell
##undersök
mätt
##ullar
erkän
väck
handlade
cancer
trevliga
##struktur
ansvarig
##ums
låtar
sannolikt
dos
##äsk
sticka
##orse
styrka
planering
förre
framöver
tränar
##lån
tillbehör
##kap
##bru
enlighet
låga
inse
forskare
dryck
häft
frankrike
##rom
kollar
top
thom
driva
##branschen
##porter
##terad
jättebra
tål
ansvarar
anslutning
jobbade
##vit
##drarna
miljon
holl
skade
##sområde
historien
guds
##ric
kry
relationer
##fort
kris
skolor
##partiet
dn
hellre
lämnas
36
halva
avfall
rätten
omfattar
anti
kla
karriär
omgiv
leka
##linjer
stoppa
##anal
lamp
omständ
##ordningen
skiljer
lokaler
kir
##andid
presentera
rejält
sköna
paris
##näs
således
##ty
nav
dyker
nagon
girls
##ladd
##sken
##träff
trapp
slit
micro
##botten
1:
gull
##uf
hant
totala
##vd
nilsson
##årig
kristen
##ivån
##icy
felakt
arkitekt
##verse
ci
kika
##grän
gat
##porr
##rådet
presentation
angående
därifrån
föremål
##ampa
resul
snitt
lagar
ekonomisk
##banan
##mö
önskemål
##mas
familjer
##delsen
egendom
dikt
fara
##postadress
##the
##bring
ocksa
arbetsgiv
intresserade
tonåring
kristna
pann
minne
100%
##cial
kasin
antagligen
trivs
myndigheter
troligen
förmed
2000
##isering
benen
center
##flytt
inträff
##rider
150
kortare
position
turk
ångest
jurid
##ini
##område
kina
posted
##olf
bryr
loss
##75
ämnet
romant
oxå
röv
korr
intill
##service
##igaste
32
svårare
##hag
situationer
klag
##15
##bef
svär
förekommer
##spart
uppm
annons
kj
##atet
mini
smar
##stru
##önt
hov
kärn
fastighets
##utrust
pigg
##bad
##lekar
##ange
that
planerar
jämt
knappast
##skväll
tränings
tall
överl
##eriet
skand
##yer
##ringar
paus
bostadsrätt
sug
##no
rens
träningen
förvå
wind
##mäktige
delvis
ert
ändamål
##mäst
##rit
förny
skapat
##fon
##my
svaret
erbjudande
##iller
beröm
öst
ämne
champ
##sträng
##eu
album
##örd
gö
##aska
paul
kompletter
närm
sd
servic
åsikter
svenskar
retur
fn
##serligen
##åriga
##ssen
##ire
##lu
undra
bedö
cafe
tjäna
##aning
slapp
barns
brett
##sätta
försvinner
##amer
poker
överväg
tant
kallad
lagstift
fro
##lagen
framgår
lekt
##iger
vägar
aust
leverantör
hemsidan
##ac
##behandling
##gu
ansiktet
planera
##ortt
publik
använde
vanligaste
löne
glömt
strateg
sall
guide
##landet
fäst
ekonomiskt
england
##kär
surf
figur
människan
##ley
inredning
närmast
##öld
##beskrivning
utomlands
ovanligt
##anser
visserligen
##stjärn
leverantörer
ron
##onger
##oppa
luleå
anord
##orget
##brit
##fre
inomhus
peppar
skatte
kamera
koppla
##ino
reag
kyckling
strid
flyttar
tolv
##sområdet
pyss
##ivill
##ämpar
##jun
innehållet
behandlingen
hamnade
ifråg
reserv
kontrakt
##andes
initiativ
##pas
##ked
frihet
annon
behålla
##way
förhållanden
mkt
##komp
##schef
##gubb
##-10
##astro
##stall
utmaningar
##sil
tycks
lördagen
##ligtvis
fjäll
##flykt
##verkade
banker
uppenbar
##ötterna
gi
eftermiddagen
nyår
##oth
observer
##platt
akadem
##öken
##sna
dram
mika
hatar
##änsla
400
allmänhet
landets
inkom
##örj
bott
##ega
##öva
rob
##onym
linje
##-6
neder
billigare
mac
pir
gräv
tomt
cro
##ere
##risk
överensk
följde
speciell
sval
instagram
bjuda
bol
##liggande
##rapport
svarade
##satser
hehe
6.
##anna
tusentals
##-12
eskorter
slippa
2007
##förbundet
förmid
still
träffat
vm
ort
konkurrens
##ni
stannade
##ortera
75
rit
##fakt
##dell
tolk
packa
order
##måga
dol
irri
uppl
##istan
göteborgs
eva
diskussion
krimin
ventil
trädgården
tyn
##tog
prost
##pten
olja
##ivalen
fruktans
##bolaget
jämföra
55
emellan
evenemang
uppnå
:-)
eftermiddag
avlöningsdag
gyn
193
grav
mysig
vardagen
##ign
kus
föra
fräsch
halmstad
fen
uppstår
speciella
##god
##produkter
##kant
##pot
prioriter
##bana
(3
skoj
främsta
##ssons
borås
byggnad
tvärt
glömma
mänskliga
betalas
2018.
##fit
utseende
missa
dar
påbörj
blogga
nom
194
##ståndet
brö
##ese
undersöka
repar
offentlig
##grunden
grymt
insåg
##blå
kritik
##nare
##inarie
intell
##britann
##18
medför
love
##95
##ningsk
##nämnden
pojk
ike
morse
axel
us
nagra
koncept
velat
städer
jäk
erbjuds
from
##ärare
rest
##slivet
växjö
spän
illustr
##meddel
forsknings
##försäkring
##ned
rekommendera
##dal
pers
beställning
umgås
##spolit
##ädde
meddelande
etik
##disk
##serien
##glas
inslag
norrköping
##ifiera
bevilj
begra
företr
mötesplatsen
summa
cool
lyfta
migr
set
##bryt
jam
lim
samverkan
storbritann
redig
##värk
slutligen
gla
viagra
##cken
henrik
##rim
##förvalt
sjukvård
kraftigt
tema
andas
thomas
##das
bekant
teen
magnus
styrelse
##24
dörr
fysiska
verksamheter
faktorer
sanningen
##äp
verklighet
isol
ting
bast
plugga
ansikte
ke
##böcker
emil
world
spra
##erats
##ams
hi
alternativt
avslöj
processen
verkade
##rare
undervis
##ance
##fast
##fir
##bby
ica
gren
..
rida
hinder
uppman
power
instrument
återf
förståelse
förpack
stift
##out
lediga
affärer
##21
##värm
avstånd
oberoende
##sfull
##can
cas
lyft
hämtade
traditionella
kalen
beteende
sked
ker
fry
kines
leksaker
texter
tillsyn
runda
gusta
fond
##yll
##hopp
vät
##inska
referens
foton
##bri
utsträck
fält
spanien
ögonblick
##sby
##blogg
lita
vr
##personer
##jon
##värme
##ripande
##ckerna
00
lovar
räck
flexi
marie
grönt
##pacitet
värmen
##ru
##värda
##iget
lågt
länsstyr
matemat
praktiskt
##jas
blond
##.000
##köpings
smid
##vok
yta
underlag
tåget
##berätt
ack
imorse
gymnasie
lille
##ången
##adress
##äkra
##tagen
president
##ap
östra
cykl
##ssam
riksdag
besl
minut
enheter
lut
aktuell
starkare
förskolan
gård
utgår
läsk
kört
##ängen
snur
lägenheter
varenda
over
jen
attack
##rimin
sutt
förresten
farligt
kata
låten
somnade
ansl
##ney
nick
spelas
ställde
##fli
omdöm
djupt
##oren
grönsaker
fågel
förlåt
diverse
föregående
##butik
gillade
personligt
plugg
fokusera
##edom
munnen
##kes
byn
väggen
##idrag
skulder
tip
suger
##ötet
##båt
utgångspunkt
aller
##een
dagligen
genast
förslaget
##mask
4,
linne
##mun
tacka
cell
##kal
##?)
bränsl
ledning
utnyttja
##ah
##uppl
generellt
springer
typen
##information
##isterna
##familj
ell
hemm
33
##fallet
##osex
status
##ionens
nagot
koka
##ulture
##ros
##hyr
jämförelse
primär
spins
##vag
våran
rekommenderas
##play
##istiskt
##ationerna
intäkter
##avtal
diam
##kna
gjord
knä
styra
mental
förtjän
kast
bubb
tydliga
killen
lärande
##irekt
##22
flertal
dia
##inter
##anmäl
grabb
##nej
utredning
hästen
komplett
apotek
##ävling
kontakter
bordet
aktörer
ordinarie
kapitel
##plar
städa
gården
expert
##ents
konflikt
minnen
ever
##skydds
civil
lesbisk
##issar
relat
kännas
miljöp
affärs
församling
##problem
israel
utsatt
avst
eleg
vik
##rikes
##kass
##sområden
##sal
##ända
regelbundet
händerna
linda
veckans
båten
besked
##stu
aldre
humör
roligare
upphov
tav
hjälpte
tunga
kreativ
##dustr
kärleken
##ares
##hr
##lösning
midsommar
besöker
##ekul
musiken
garder
medveten
sjukdomar
demon
bot
kontinuer
##års
klätt
ikea
eskil
##bered
baby
##oper
##raft
närings
suttit
lax
lätta
misstag
bibliotek
taket
biljetter
beskriva
##jord
smått
##byg
##vetenskap
##sbygg
##yndigheten
windows
räknar
händelse
kos
gjorts
##marknad
more
mörka
kilometer
##ear
smärt
afton
handlingar
årsm
rika
framme
storbritannien
2006
väntade
##aner
dygnet
nyhetsb
##utrym
smärta
##cia
andelen
##ls
riksdagen
sun
önska
favoriter
föll
##sprodukter
##gav
##asy
##sspel
möbler
blad
överenskomm
##äls
##sbyg
premiär
planerat
verkliga
släpper
förklarar
lycklig
svett
sjuksköter
utsträckning
##rek
skönhet
syssel
säkerställa
överg
dialog
kaff
måla
mötte
komplex
##umin
hantverk
bakt
avses
##innande
klassisk
brudar
deltar
##formen
sår
härom
kassa
följt
ledde
high
förändras
##gäng
##yk
tuttar
##best
micha
gubb
sorts
oh
##sprojekt
enormt
protokoll
synner
vibr
trycka
fredags
kommunic
tillför
sec
##valda
effekter
##itionen
hag
swing
##inns
##sas
##ml
mas
mobiltelefon
##ani
intressen
präg
aspekt
##ynt
##äds
denne
house
avslapp
##rali
nödvänd
leverera
bekym
legat
plock
arbetsgivare
##.30
förvand
suc
analyser
sammantr
##ene
färre
bryta
##ision
##gnos
anställning
##vagn
föreslår
##skog
stärka
##-11
##änkande
inspel
kyrka
##satsen
väsent
##tals
kryss
behovet
uppmunt
##områden
gjordes
innebära
faktur
charm
##artik
wal
praktiska
femin
gränsen
hockey
företagets
##ringen
til
##domar
##etiska
iv
orolig
##äx
rekry
sekund
##osof
föredrar
##xx
##skill
34
2:
##spar
ugnen
jordbruk
duktiga
byggnader
trosor
##älje
riktlinjer
movies
hårda
pra
##ismen
invånare
##ero
exister
##ele
victor
oblig
modellen
##ivna
lämplig
kniv
kandid
tillfred
##kter
vett
våga
andreas
##spe
sakta
äktenskap
65
##4)
konsumenter
kategorier
himmel
hanna
uppfattning
ovän
##6)
presenter
ull
åkt
vakna
##ination
##beln
##ikar
kompon
thailand
(19
avsluta
skaff
##ningsför
mand
märkt
bos
##35
somna
planet
motsvarar
##öde
personligen
ljuset
möjligen
1,5
hj
##rop
förf
verka
bandet
##örerna
temat
användar
skett
ansträng
anhör
gram
syftar
##förening
praktik
##stekn
##frika
miner
bestämmelser
samlar
##även
##mannen
äld
##core
##pu
krydd
fasc
försvann
##19
##gin
mord
elit
##äckar
organisationen
il
distri
##skåp
fördju
##ansvarig
tjänste
mall
gamm
##vall
hörs
arbetslös
##bordet
ater
uppåt
varierar
datorer
australi
uppdraget
pojkar
länken
shem
##ence
coach
befintliga
##ulle
cialis
sååå
##ologiskt
##bev
besikt
gälla
##skraft
##tälje
##sek
08
##tex
banken
utsläpp
placering
ken
föddes
pc
tillbring
##miljö
stycket
koncer
##paket
hundrat
##öjligheter
##ografi
kreditkort
##ämma
älska
blek
##väst
larsson
inställning
brut
gatan
jim
karin
negativa
ärenden
minnes
fängelse
arbetsför
märker
##skrift
down
fatta
##syl
fasta
cum
##istens
stam
hette
upplevelser
##inspekt
praktiken
##äger
fastigheten
intryck
historiska
##systemet
uppför
nordiska
langivare
##hämt
malmo
##kare
##?"
##-19
green
recensioner
##ullen
anger
behandlar
kollegor
riskerar
penis
förmåg
##iox
snön
rekord
likt
rekommend
##vå
gb
tränare
klassen
galet
inkluderar
avtalet
eme
bens
##äckande
##alisering
halsen
smidigt
anpassa
##teknik
rött
##lju
skogs
föräldra
##otika
##wood
tidning
##havare
##spelet
check
lösen
utmaning
pussy
mu
öppnade
helvete
levereras
behandla
fastställ
raka
cont
stadens
eventuell
anläggning
##js
advok
dygn
licens
drömmar
plåt
härifrån
master
garanti
förhindra
tids
utlaning
cla
war
##skottet
elin
akut
##mande
internationell
west
https
levererar
pren
siffror
frivill
löpande
sexuella
##dor
##/201
##lerna
##funktion
station
resultaten
jämställd
##kontor
klänning
lade
fysisk
impon
stänga
kvinnliga
bist
##skolor
angiv
##day
kvitt
smarta
##koll
##sförs
reflekt
bif
karlsson
kontant
mur
växter
löv
utvecklar
##llertid
specifika
07
bla
ler
fastigheter
spendera
##svensk
tvätta
bered
##atiska
##programmet
##skurs
##unskap
##skort
hörn
volym
##bs
inbland
materialet
undervisning
tvingas
appen
lördags
tjejerna
uppfyller
##ppet
fitt
hållet
##kval
insikt
##sli
hjärnan
osk
anmäla
drabbas
dagis
##koppling
sammans
##cm
stallet
##dustrin
vakt
##kommit
##yrån
##ira
baserat
hoppade
lack
##dt
##7)
diagnos
gustav
##mässigt
##värden
twitter
tvär
##kurs
wall
##slösa
tvärtom
språket
kant
skickade
emellertid
kanal
jättef
##!"
humor
##dör
lisa
express
##cir
farmor
rutiner
telefonen
mikael
##holmen
##65
jer
##sås
sjuka
7.
##äkare
##förbund
##stuna
söndagen
##casin
träng
##emed
mell
##gym
250
stilla
##cus
johanna
cha
##dsm
cor
informer
argument
förlag
##strand
storlekar
delas
identitet
hungr
islam
##spa
##skron
drivs
##eng
dricker
lou
riktning
##skande
##skam
##ids
38
##stern
##stolen
##oci
bengt
ifrågas
tabl
##innan
##ily
frågorna
orden
##sskydd
##stock
stav
##dagens
publiken
arab
veter
tävlingar
pratat
##osam
såna
skärm
##hjul
övre
kud
seriös
cup
inriktning
##ocker
##gått
försiktigt
fötter
järnväg
annonsen
##ness
religion
företagen
days
jap
näringsliv
landsbyg
kommunala
ud
bilaga
olof
tidig
tidiga
##etar
rapporten
##stör
##föreningen
##station
fjärr
##gol
##spris
fer
##mes
källa
mörd
människors
tillsätt
hastighet
list
get
##pri
förstod
eleven
blandning
pod
investering
##inlägg
reduc
pic
have
##chen
vo
jordgubb
certifier
ytan
möjliggör
vunnit
bry
##wn
värdet
cli
reglerna
webben
parad
##roid
##ioxid
näs
internationellt
beakt
##bröd
presenteras
melod
offer
utställning
##sser
phil
prenumer
body
##rig
dagliga
sprida
ändring
##stil
identifier
##hu
eskilstuna
liter
konsult
tera
vinster
mamm
verket
ideal
medans
finaste
smitt
ago
revolut
påverkas
småning
##bank
jos
##enhamn
byggt
##light
fonder
samlat
##sstil
##imin
vikten
scenen
final
##ones
##14
(200
fartyg
baka
förlorade
ändras
malin
##13
##ffs
##järna
naturlig
eric
pizza
##sål
##ect
##registr
kalas
##priset
lena
deltagarna
##sfören
bitar
ändringar
barnens
##ljus
sekt
tillverkar
begrav
sköter
##slån
jäkla
kraven
kategori
påstå
uppgifterna
format
##regler
##bla
##):
##sko
##16
älskling
##que
opp
skapade
kvad
##atu
märkte
landskap
##!!!!
mage
hammar
##bed
terror
mångf
minuters
index
kanon
##slin
vänd
##cake
badoo
mjuka
bomull
##trafik
##vårds
återställ
varann
skydds
##uppgift
håk
författaren
infekt
kristian
tacksam
##produktion
##-15
byggnads
yt
##efte
##che
##onn
delakt
priserna
värden
##öljer
store
studera
##resor
sinn
##åren
##elle
##shamn
##utrustning
trend
##yrkan
ordna
robert
moment
gränser
##aktioner
kim
uppfyll
liber
förväntningar
gymnasiet
småningom
skinn
allvarligt
tings
betalt
förväg
##fält
gitar
hantering
uppskattar
reha
##verkets
garderob
##byggd
##atiskt
åtgärd
optim
begränsad
förskola
##blog
uppdatera
tidpunkt
professor
##teckning
vaknar
testat
##svägen
##verktyg
effektiva
##mät
##strå
solna
pall
##hjälp
mängden
##-20
##usen
frid
märke
##ställer
tjejen
hamna
##omb
ball
julen
krönika
##morgon
formen
andras
trädgårds
##rog
fur
num
gustaf
förbju
kod
sör
nett
bebis
yoga
##spass
call
läggs
överst
##don
##sned
##sgatan
##ou
beräknas
förlora
konsekvenser
##orma
##äste
ränte
lung
190
##ssp
dyra
yttre
##arv
5,
##såt
##alternativ
##ano
soker
snacka
gymmet
##släget
hyresg
poly
bolagets
orsaken
hustr
industr
råder
väntat
uppst
fönstret
arkiv
transporter
långsamt
time
feber
separat
##ges
2005
600
belö
galen
göran
recension
##hantering
homosex
fyllt
detsamma
##uel
vacc
föreskrifter
osc
##zon
##hål
larm
pojke
##eterare
soldat
##aa
##redovis
gy
##inav
utgå
trav
agera
##trakt
avlopp
michael
betydande
partiet
sallad
bekvämt
tunnel
##mosfär
föräldrarna
observera
##kop
fly
julklapp
##grader
förlust
mill
##ax
ingredienser
##ändsk
spelautom
tillgod
kriget
rus
##lott
trett
nomin
avsikt
##känsla
sexfilm
##bba
skal
diskrimin
doktor
strump
##dy
stödja
misslycka
placera
##räff
##kyl
fynd
kasta
##höll
word
##storp
##fullmäktige
himlen
togs
gammalt
teknisk
läkar
##ikon
branschen
medlemskap
iden
##åring
uppvärm
fredagen
##23
ansåg
##17
##äderna
##tning
jak
påminner
skyldig
##format
danska
##hlm
presenterar
sänd
meningen
good
##tav
protein
moderat
integritet
yrke
##supp
##mod
##flyg
cur
##vention
##gärder
##ori
##göra
töm
##igar
gang
rutin
club
##lö
dalarna
##mån
##idan
chil
fril
##ards
dyrt
##pool
sjukhuset
##2)
besökte
skjuta
lett
höja
affären
eriksson
frans
sannolik
##ämnen
syskon
oliv
##llerna
beach
aw
ent
aktuellt
##vitt
sköt
##kamera
ledarskap
##hn
bollen
##made
byter
orsak
armen
berättelse
hålls
kvadrat
flyttat
hjärn
dj
##skrona
##stjänst
störst
intresset
##ame
##ski
kne
##rin
##stera
##lök
##ova
riv
shemale
reson
fat
livsstil
tekniken
dras
bang
uppföljning
hundarna
läder
sovit
##iserade
nö
(201
##jej
##jänst
finska
tillåter
cra
vision
klän
hållbarhet
underlätta
kvalific
##8)
vården
frist
##oppen
ovanför
##duk
##1)
##iness
talat
religi
hp
öppett
upptäckte
sed
##sem
mäster
persson
lärde
utbildningar
kommers
##lipp
suga
##meter
pojkvän
utländska
##läge
jula
(5
besviken
##försäljare
föreningens
bearbet
drack
påmin
ansvaret
veckorna
hemskt
locka
android
##irt
##unk
##issionen
##sklass
bredd
medborgare
dött
##ioder
atmosfär
förvir
deltog
missat
distrikt
komplic
meddela
katastro
klarade
allmänheten
investeringar
innehålla
köpenhamn
##hälsa
gilla
##uti
lys
insättning
patienten
amerikansk
tänder
förväntas
##båg
##rak
##cam
synpunkter
##ifi
##listan
fulla
sexy
##trän
##gjort
##iam
mörkt
norska
spanska
nivåer
kostnaden
37
##kät
aff
##derande
erkänna
para
fånga
fötterna
femte
kvalite
##sted
lärar
##enta
##angel
väll
##ws
enorma
home
karta
tillgänglighet
jeans
östersund
##papper
brister
regeringens
personlighet
tagg
##möte
pens
nåd
läck
plattform
##jet
##cykel
##sfall
stått
##biliter
bränn
håkan
upplag
trott
##log
##vatt
distans
sidorna
förbereda
gotland
kommentera
##ikationer
gum
infra
##rick
##ekonom
norden
##visningar
##skjut
##övning
##ättning
tillfreds
partier
röster
##iering
##slo
jac
specifik
avse
drott
kollat
##centrum
samlas
##33
ved
##ulär
avgöra
brittiska
##finans
njuter
##ios
ik
##smat
tröja
##sre
ställs
hug
##äta
utforska
spons
fruktansvärt
äldsta
lud
snack
minim
oroa
read
##ämmande
övningar
sofia
acceptera
120
krafter
##smed
##höj
##ydda
yog
upphör
vistelse
klo
##sföretag
##spir
cal
##atisk
stek
svamp
försen
rösta
samlade
##datum
##hult
arbetsuppgifter
apple
rich
uppdatering
vänlig
restaurangen
bakgrunden
rak
muskel
phot
taxi
journalist
maskiner
funktionsned
citron
##arium
##uggar
färdiga
kampanj
ansöka
obehag
island
inatt
föreningar
skam
lugna
von
krång
åk
pry
soll
äck
##gjor
människorna
skala
förvaring
filosof
48
anlän
##center
fiske
utredningen
##lä
övergripande
tviv
tungt
definition
sparar
ökning
##fen
##app
tävla
byggnaden
##skåd
skän
befolkningen
##-7
förvaltnings
##cell
##savgift
tjänar
##park
look
arena
##värdighet
sajten
budskap
##kers
beskrivs
variera
##skop
slot
##sbo
sonen
böckerna
berättelser
signal
##oped
telefonnummer
växte
##aterna
erk
##ool
##sbes
##inv
påverkan
omfattas
kategorin
byte
sträng
dress
##värdet
förvärv
##göt
tren
##kaka
knut
skapas
lider
##ionerna
götal
##"-
##ständig
1/2
##ute
:(
tram
inbju
färdigt
läpp
##bandet
länsstyrelsen
##öjor
impl
innovation
smink
ramen
ori
infor
8.
symt
vägbeskrivning
sir
videon
föran
his
##skrav
bron
kläd
##sjön
volvo
##byggda
rörelser
inspirerande
parall
innefatt
jenny
sthlm
maxim
uppehåll
##boende
##eteck
##åda
##rigt
väv
inb
##ki
##ited
veterin
huv
general
##tad
##soft
aud
skäm
##hydr
kämp
slots
krediter
tätt
kommunerna
loppet
gissa
##ati
gjorda
##efteå
##ianter
##olan
produ
påpe
vinden
ving
##shand
fyllde
överför
##jukt
skräck
godkänd
##hållanden
##lament
fäll
smaka
##visar
##betyg
ov
##ställt
kvarter
förekomm
skådespel
fullständigt
##medlem
pågående
##:30
löst
tjänstem
spin
##ifest
skyddar
hor
starten
petter
lämpligt
##ynda
ytterst
skum
lösningen
register
##räd
##stin
löser
skugg
kapacitet
begreppet
##-18
slänga
terr
rosen
agen
konsert
sköts
nätter
##urer
populärt
arv
##männ
tillämpas
asiatiska
lastbil
##alism
viktigare
##hö
##betes
##ikanska
##bt
katter
mp
förstått
ess
perman
##bidrag
##ission
arbetsmiljö
hyre
avkast
installation
satsar
bull
bada
betong
##sliga
##urg
öppettider
39
##ölja
our
släppte
orsaker
tidningar
##spår
##änt
anonym
präst
kämpar
faktura
gig
isa
##bott
bankl
##ländska
applic
tilldel
operation
##fram
minskat
batteri
##usse
##process
traditionell
tempo
bbw
ri
##data
negativt
##-8
##ye
##igheterna
simon
frida
räddning
sej
garanterat
sammanfattning
skål
blu
##belt
##eriod
arbetstag
politisk
##handlingar
rea
översikt
upphandling
spets
##uminium
fenomen
journali
escortt
rop
##skaff
slutat
##ome
företags
samord
fac
##kontroll
dop
sammanlagt
moln
konsum
##ografiska
pum
##staka
##icks
säljs
##temot
valp
torka
ask
slump
sprut
spelarna
spänning
förloss
elva
moms
uttag
harry
fungerande
skolans
återstår
växande
##änken
##ico
bis
##röst
(4
glömde
fysiskt
##olver
arbetade
##pad
färsk
skruv
överklag
bestående
identifiera
##bod
leds
hardcore
omständigheter
sanna
dröj
rod
ven
smuts
globala
mex
begag
unikt
konstant
##sajter
redovisning
##uppen
sjunga
##sty
##bilj
sci
fota
##duktion
hämtar
sambo
##stillstånd
utöka
politiskt
2017.
överhuvud
panik
smyg
##öder
##roll
yttrande
föredrag
sticker
bin
fixade
##skriget
##arn
lektion
##ime
kämpa
##pade
utvärdering
##text
pappers
kommenter
ombord
##skiv
##flöd
report
återkommer
smaken
roman
##oty
steget
##speriod
museum
##esh
carol
övervak
ulf
enstaka
minnas
klippa
##tain
pi
global
enskild
kombinera
##mak
dalig
bik
efterhand
##verksamheten
##zy
##följande
vinnare
##rot
smäl
lokalt
efterfrågan
##sprocessen
behag
##lie
cd
##3)
ställt
mäst
##mad
räd
##shem
##orp
avläg
##motor
fixar
förklaring
inflytande
utvalda
42
närhet
förvaltning
watch
tve
chatta
rand
praktisk
spot
obligator
jess
##iteter
körkort
belast
nätt
deltagande
##ttag
grek
los
menade
kunderna
knappen
##ställande
##rut
##ikapp
oslo
smal
minus
uppf
##itioner
livsl
kosta
missade
spont
hr
bondag
fungerade
arrangemang
##öden
tja
##ättar
sken
miljöer
öron
byxor
##:5
ledningen
posten
##iets
##anmärk
180
aluminium
##klipp
ljung
turist
komfort
anställd
lyfter
sakna
allvarliga
asyl
hals
vice
anton
foder
##emon
avbr
invig
halvtim
ärendet
nyhetsbrev
produkterna
##serie
##malm
##oten
horn
sökande
che
konstatera
kust
troligtvis
##undersökning
##dist
olsson
plant
meny
menyn
##varen
ärende
50-
generation
hängde
act
##draget
##profil
barndom
##seff
holm
japanska
textil
dansa
förvärva
jä
##enärer
##onerande
##su
informera
demonstr
grus
ärligt
frank
passion
##kvalitet
militär
glömmer
##betalningar
##ocken
##yft
flickvän
44
##smo
närmar
dun
grand
mäkt
##musik
rubriken
granska
rollen
life
##gam
gällde
grepp
##our
##landa
kulture
främja
##ugh
myst
varumärken
utflykt
##annes
tjo
uteslut
##:3
ukra
robin
prom
producera
värderingar
ida
byggdes
jättem
mick
##gel
männen
##unds
##edia
6,
nervös
##ägaren
redovisas
omfattning
2004
##ssjuk
avsnittet
##ämning
##iftet
tele
fokuserar
navig
mötesplats
##kakor
vegetar
biljett
lockar
##halt
##sw
studien
##tai
talas
##märken
fylld
gunnar
##sledare
amator
##byggande
kvinnorna
manad
lak
##sberg
utspel
lösenord
##förändr
##nast
##försvar
##itch
##:2
naz
gilt
utvecklats
firar
seriösa
undersökningen
cop
oft
utvecklat
business
fiber
skärmen
##oom
##km
element
professionell
##ava
what
##ckan
harmon
klickar
##bilden
##ikern
frustr
tenn
regionen
##ädsla
vandring
##ienska
##ener
databas
##frihet
##splanen
upprep
kontanter
tå
class
rester
korv
nyans
outfit
##inerande
talade
nödvändiga
åstad
800
bytte
##dröm
gula
##sakt
ki
##stand
centralt
schwe
cykla
omsättning
begäran
##uft
mos
##position
sekret
##unna
##9)
has
läkaren
matematik
dök
##elt
ultra
##kland
utgifter
antik
mobila
skara
game
vana
##mart
tillverkad
tankarna
##bildning
godkänt
relevant
##/10
ersätta
variant
##kons
kilo
utsatta
##bäck
smaker
delarna
##samlingen
billigaste
lass
gard
sjunger
verksamhets
##fråga
mattias
##pul
pump
väger
vanilj
##fet
##äma
##häst
party
svensson
##ffer
##öpp
styrels
##tage
anteck
uc
bea
avvik
hyfs
skell
serveras
##värld
##ai
nämna
##iserar
king
skatter
formulär
##rän
##vux
##brän
##ague
kontoret
julafton
varumärke
mem
dynam
##wh
grip
säkerhets
tapet
hallen
bondage
herre
fixat
access
tjugo
döden
##ningssystem
dubbla
##fol
möts
publiceras
timmars
koppar
sökte
våt
pred
lyser
##job
##test
skör
##blom
barnets
hoppar
titeln
day
torn
lagstiftning
##itten
flyga
##rass
##vården
rullar
##anpass
dre
försäm
##maskiner
biblioteket
##valla
märkligt
##styrelsens
gemenskap
täcker
##okument
##sperson
oänd
imponerande
utrikes
årliga
överhuvudtaget
handikapp
##uvida
koppling
trist
drick
banklan
like
premium
##design
statens
italienska
bryter
##konst
bind
##ontor
pant
ögat
##öda
kik
berlin
pdf
beslutade
vände
förtjänar
##dos
##erings
negativ
företagare
kontinuerligt
serier
sverigedemokrat
tantra
titel
förlorat
bul
dl
##peut
avslutade
##imeter
kontaktannonser
##atör
##frukt
sköta
flor
##aritet
##baks
kvant
speed
trycker
tvekan
##tän
friska
##meddelande
helger
huruvida
kredituppl
mäta
ked
enheten
##vägg
baserad
brygg
##skick
skämt
majoriteten
nic
alternativet
##ath
nar
gest
garn
roy
##däck
lägsta
##ipend
##beth
##vilket
##städ
bekymmer
sökt
kalender
orgas
skiva
##stam
väska
##bilitet
jud
schweiz
elektr
ämnes
##eman
tackar
##idens
diskussioner
liknar
halvt
onödigt
tvek
delade
##just
överenskommelse
varianter
wi
olje
planerade
tran
##träning
##igger
kaj
utförs
##analys
normala
debatten
##läsare
kortet
##si
anfall
lämpliga
mull
casinon
##rem
astr
tank
ledigt
falla
##ordin
ford
##hållare
##sverket
192
ursprungligen
ingå
orkade
bakåt
samarbetet
ml
använts
skedde
lyssnade
##panel
kommunicera
##tagna
##inga
##sfor
belysning
valuta
experter
förlorar
anklag
advent
killarna
##ege
##infl
3:
beredd
skratta
##cing
källor
##omsorg
beslutar
##porn
##ete
legen
##ript
utbr
##sban
flygplatsen
officiella
##vägar
grädde
##bile
invän
testade
funktionsh
tillfälligt
återupp
tör
alexander
##alj
förvånad
##pers
sorters
##tton
##85
pig
lärarna
##ces
nybörj
ekonomin
30-
oskar
kostnaderna
blank
kusin
kriter
##baserade
potential
##jakt
marcus
skillnader
investera
##enskapen
användes
##läkare
leende
gentemot
3-
kräm
talet
virus
tillslut
julia
riktar
skickat
väggar
ah
swe
##bre
oftare
hemliga
##orten
punkter
torg
##hållning
##ary
brasil
årskurs
statliga
host
##savtal
##entet
vänskap
månaderna
flertalet
majoritet
åldern
##ygien
uppfylla
norrland
hästarna
säkr
##årds
##styrka
##rätta
aik
australien
##villkor
uppenbart
##skomm
demokrati
uppenbarligen
lot
märks
action
70-
farliga
##regud
väntan
genomförs
närvaro
oscar
dyka
blyg
intensiv
##urar
##tider
damm
##upplevelse
##ced
##rätter
morfar
vardagsrum
white
##ago
prognos
användarna
##stillfäll
##-01
jämställdhet
##46
vild
kristianstad
galopp
konver
medlemmarna
dragit
##info
balkong
myndigheten
moral
##säg
##sfri
##visor
tipsa
rädsla
möjligheterna
tilltal
##mästare
##kg
99
temperaturen
breda
heltid
##xa
##resan
blått
christian
växel
pepp
vilda
beläget
toalett
##hotell
levde
stackars
hjälpmedel
ec
##planen
effekten
##ansök
hop
finansinstitut
##vig
vass
sköv
tappar
##nr
presenterade
linn
yng
1800-
line
##ikan
street
maken
##sajt
beställde
individuella
##ils
tekniker
##ads
##hallen
stjärnor
exemplar
##skom
arter
vardagsrummet
målen
cle
##ensen
muskler
##rörelsen
vaken
hundratals
beslutat
james
ekologisk
nark
ständ
måltid
inlogg
läcker
tagits
##läggningar
cyklar
##direkt
underteck
ensamstående
aftonbladet
missbruk
##klubben
debut
##äckt
interna
league
##kultur
fläkt
installera
##cancer
självför
09
nationell
domän
lånet
##kok
##stider
bing
besluta
##backen
add
vandra
slagit
innebar
jätteg
tri
##mann
usb
##ease
decenn
##byxor
ursprungliga
matlag
##gd
##kreterare
kräva
berättat
kolhydr
brå
##förslag
teg
##säkerhet
##ymp
##sätts
##stugan
professionella
##otta
group
josef
exklusiva
##dring
synnerhet
##itz
##rift
##svenska
strål
##veckan
##rater
kick
2,5
alt
välkän
smycken
granskning
kunn
förberedel
10.
##glad
##hd
sålde
##agne
hjälpt
kompens
skrädd
monster
##maren
##work
plån
workshop
ast
##-201
##:0
fattig
lova
##snämn
expon
omvand
resurs
klick
##sann
djupa
storleken
43
auto
##orts
typiskt
##laddning
orsaka
cap
arbetsmarknaden
högskolan
skin
rog
##sproblem
##itim
definier
##etch
radi
##sförsä
baksidan
##politik
koncern
tech
solid
jakob
##gg
pröva
##behov
turn
seriöst
servera
inuti
plagg
##sekonom
brukade
##ogör
återvin
##iderna
teori
hävdar
tappat
sanning
##mord
bredband
etn
flyger
godkännande
förkyl
förkn
trafiken
##opro
##arbeten
hanterar
processer
influ
frig
##centralen
involver
ekologiska
##video
she
björk
lapp
flagg
80-
manus
##rel
squ
åsa
stänger
##samtal
dansk
feb
##ous
musli
trum
kastr
##cal
##rycka
term
##tio
##bygga
foten
förbli
sakerna
rätteg
well
##syk
##partem
##-9
##oli
9.
bokstav
kemika
specialis
pekar
hungrig
läggas
missar
20-
##oppar
##ytan
smakar
deg
2016.
bero
##givande
arbetsgivaren
##äge
##fas
läsning
guid
specialist
##ison
lenn
årligen
återkommande
förvån
noggrann
##makt
ryck
##iler
##skärm
anl
dvd
##verkat
##"?
förmiddagen
hentai
##stjänster
kollega
##ätten
##unge
tryggt
sträcker
problemen
placeras
ts
försiktig
ljuv
gästerna
konsol
musikal
##fund
södertälje
bedöma
odling
bevar
##häm
##mjöl
råkar
##poäng
trygga
lök
latin
##sbok
associ
spekt
##/3
##känn
skepp
lam
högskole
bonusar
##jänster
undersökningar
vitlök
advokat
nödvändig
avslutar
hållbart
nils
##skare
brinner
önskan
samarbetar
##ämna
##terande
anmärk
##ädes
sjöng
lesbiska
entreprenör
##bunden
panel
##rock
##skal
tittat
##verige
portug
gitarr
##car
köpet
nämnda
46
tvång
international
##sket
symtom
mammas
leker
knep
uppgiften
##lock
afr
herregud
##jöt
ljusa
##kräm
uttrycka
##lopp
indik
##snivå
spelen
skift
avancerade
7,
försvinna
ärlig
summer
##/5
##fältet
tillhörande
enkät
ursäkta
##orth
tillgångar
ovanstående
bdsm
mejl
robot
2-
privatpersoner
jenn
##teringen
bekväma
ond
meta
bh
rehabiliter
flit
besvik
##kommun
märken
amanda
svårigheter
##ane
avslutas
##varon
##:4
ank
äga
##agare
produktionen
##ägna
gall
elegant
marin
förälder
85
parken
ledamöter
tomm
idiot
stream
##......
intervjuer
strålande
hihi
orka
##troller
##etts
##holms
ps
munt
flest
##ington
was
##eled
##old
hindra
satsning
##ersättning
kläderna
pick
tillverkning
##.[
analysera
badrummet
konstaterar
##iljön
festival
utställningen
varierande
frag
##anne
öppnas
blås
remiss
##gb
##ötande
extrem
##upen
tappade
upptäcker
nöje
middagen
##ädare
högtal
kommunstyrelsen
fristående
pay
##effekt
strö
täcka
omt
##bbe
##icin
tomas
##inister
bläd
##örjning
kabel
avdelning
(199
##uva
adam
##företaget
hållas
##fru
utbudet
dies
##mottag
##ify
mångfald
py
provat
##produc
##jk
rast
##sarbete
##bonus
opin
trötta
kallat
##inkar
längden
rekrytering
psykisk
psykolog
clar
kaos
soft
stugan
diabetes
omgående
##200
nude
skriven
samarbeta
shop
##esp
##sband
##inspektionen
söndags
katastrof
makten
tillgängligt
##ole
sevärd
sänka
besluts
##talets
fabrik
##ocke
tränat
ägna
##handeln
##barhet
åklag
##0,
betting
##everket
hustru
torra
relevanta
##industrin
division
förmågan
##ters
trump
##iser
tomten
flygplats
salu
##läggningen
sad
biverk
##lär
##bilen
berättelsen
##jäll
sites
2003
vilt
skellefteå
partners
dottern
##sfär
regnet
huvudvärk
materi
kreativa
vänligen
spräng
tårt
pek
rektor
flaska
##onten
upplevt
##/4
##elie
medelål
microsoft
##modellen
##omål
##anmälan
bostaden
versionen
human
kondom
cock
##syra
vattent
##leg
ther
tatu
##ilda
sympt
ytor
##istiken
sar
49
skrattade
ado
aren
##ical
camping
##entering
##ush
därav
0.
vax
marknadsför
dörrar
##-09
unge
##ulette
tillbaks
djuren
birg
##anskt
##stt
bun
föreläsning
medicinsk
långsiktigt
##ooth
ägaren
##platta
kaka
regionala
europas
may
##-16
kvm
##skador
95
inbjud
##ogs
funderat
##kanten
arbetsförmed
sinne
permanent
anledningar
depress
##,,
nyan
rummen
gbg
mega
tårta
##bundna
##ugor
uppdaterad
arbeten
open
cer
flykting
infrastruktur
##innor
hälsosam
tonåringar
##78
mjukt
ensamma
möjlig
kampen
##tips
##vetet
dokumenter
##förvaltningen
mora
helena
åke
pian
mysiga
kinesiska
##mör
##mn
förvis
##sters
förhandling
neut
studio
dubbelt
##butiker
reaktion
##ständiga
bedriva
inrednings
tull
vål
glasögon
60-
bedr
vaccin
historier
how
dumt
grat
tt
##sug
dagsläget
artister
usch
otill
##sprogrammet
förebyggande
jämna
sjukvården
aja
##ssn
kup
ish
tufft
hett
meddelanden
pancake
släpps
stunder
ore
behandlingar
medi
vänn
likaså
##länge
dagars
ff
##lamp
viktor
##ua
##jörn
##görande
##aljer
##ball
gur
närmsta
öga
indien
inställningar
##ymer
externa
##växten
varan
##denafil
anslag
miljövän
receptet
förord
##hot
hjärna
##skvällen
##..."
ljudet
räcka
patrik
duschen
diskriminering
världskriget
tillverkare
skylt
##ating
bestod
övertygad
länet
djupare
graviditet
skym
##fat
##vida
metoden
##sur
institutionen
;-)
##promen
jävligt
virt
grekland
##oms
ran
##usia
förordning
redakt
chefen
jas
ingång
blue
ansluta
tradit
behörighet
skilja
##ulen
stolta
fula
påst
olag
##kamer
##etiskt
##redning
shoppa
grundades
kold
fantasi
kore
##igenom
upplägg
notera
förväntar
därtill
##ove
upprör
##sväg
adult
ful
ök
ihjäl
passande
medicinska
##lagda
konstruktion
##board
luktar
åtal
##orerna
främmande
dokumentation
1-2
forskar
herren
##byn
upptäckt
succe
##stur
##given
##kostnader
distribut
##svill
explo
muslim
nice
##uth
week
bekanta
befolkning
##skolans
kasino
flickan
dyrare
##olen
knäpp
##celler
chanser
vans
##korg
skövde
byggde
rulla
lina
införa
##svar
##lines
extern
medborgar
##bek
immun
##blr
##rafik
##26
kvaliteten
##cl
##ages
horm
mekan
baseras
trag
kapten
tappa
47
##skriven
våldt
stuga
olj
nybörjare
snick
abonn
##chefen
##ffel
tron
bedöms
hållit
##tit
fjol
miljöm
citat
självklar
##inci
motorn
##organisation
försäkringska
mia
bokning
prop
##-02
representanter
anläggningar
mammor
apoteket
ugn
##stick
gråta
##glöm
bostads
kyss
odds
berörda
nedre
löf
skräddars
##stal
##sättnings
##ved
garage
anpassade
senior
##plikt
##ydde
##hållande
turkiet
jacka
glid
count
nackdelar
##lägga
anhöriga
manliga
inkomster
synas
nedanför
vandrar
("
högskola
drömmer
kiss
##elaterade
samtalet
##försäkr
släppt
kartan
damms
stånd
##marker
perioder
##iske
beteck
##genom
annika
tang
genomförande
##casino
ze
##junkt
uppger
katten
dick
trädgårdar
##tjänster
avancerad
vägrar
prestanda
sätts
klassiker
kraftig
grafik
komponenter
##ångt
falun
livets
lantbruk
##")
vy
##anny
omgivning
vuxit
startat
##rorna
beställt
##livet
noggrant
##spla
pon
beträff
##organ
jazz
läns
mässan
förekommande
redigera
väskan
##iviteter
rese
förfl
utbyte
90-
introduc
utse
jacob
justin
##ektionen
framgångsrika
##27
lednings
##läggare
egy
insidan
ola
stående
funderingar
##%.
labor
##ssystemet
##86
hemifrån
hamnat
färska
förbud
strävar
rådgivning
julklappar
skrivbord
##utna
tillkommer
kross
filter
sper
vagn
rengöring
väcka
##ng
torsdagen
vig
##skrivna
##häls
##rund
##parken
##äter
parter
nöt
##arch
##idrott
spelautomater
##cht
margar
##annat
##gro
programmer
##plom
sajter
videok
##rapporter
rytt
bana
skåp
trö
rank
hårdare
föreläsningar
##sbel
##journa
fördela
minsann
nike
##ualitet
blan
kontakten
rapporterar
2-3
semestern
udde
afrika
aspekter
kvällens
##tm
kokos
stel
##arbetare
##sall
##effektiv
skon
front
##handlare
##hämtning
måndagen
sandra
##dis
kid
chefer
förbättring
##skoll
##kött
##elly
##ywood
urin
##shandel
återförsäljare
gluten
diskret
sha
vagnen
##plac
varannan
##vert
vetenskapliga
böj
##ljud
exam
##amod
näsan
månads
##komsten
tumblr
smslån
##cos
enter
räkningar
rörande
win
landstinget
ande
finalen
misstänkt
pasta
sekretess
##-05
##mag
##opt
##stuga
##rister
kamer
nordic
seminar
inledning
##flöde
funktionen
mynt
hamnen
halvlek
##koping
fit
mörkret
##sland
bensin
##site
##byrå
sr
##repp
##-17
##match
##händer
kundtjänst
tilläg
gåva
##ubl
intyg
lyckad
stämning
asiatisk
##uppdrag
helsingfors
##hs
sexfilmer
undervisningen
begära
##typ
##våg
flygplan
##såldern
##öten
first
hobby
övning
filmerna
sjukdomen
##åringen
##stjänsten
##ulla
tjocka
##kvar
##kvalit
##ple
överleva
##buss
##skostnader
hahaha
instruktioner
häromdagen
fåglar
tam
johannes
##åå
ålders
prinse
farfar
##riga
##ligaste
skivor
pj
heder
##ituation
segr
##ningssätt
fax
förebygga
##stedt
##%)
##utbildningen
översättning
varning
##skatta
##stora
##cen
stjäl
bergen
ära
lokalen
##delningar
##chf
##utbildningar
feta
minskade
vindkraft
orätt
förflytt
1-
bond
fäl
bastu
##förbruk
wo
myr
examen
letade
producerar
##gjorde
ipad
tillverkade
##viker
plockade
försäljningen
medvetna
##stäver
##rans
innanför
användningen
firade
8,
##drom
export
victoria
kreditvärdighet
uppgick
##garant
orter
kampanjer
##.00.
##zer
underhållning
personerna
##häv
##aller
frien
ping
##skorna
##fång
polen
inneha
riks
likadan
kanaler
uppsäg
förverk
allvarlig
##speg
bevara
2015.
orsakar
lr
undrade
maskinen
bay
politiken
skådespelare
len
gigant
överläg
genomföras
##eden
arbetssätt
fien
policy
drottning
överdr
abb
##oar
filer
observ
rensa
ambul
tommy
aktiebolag
backen
william
downlo
##!?
ve
barcel
gala
betraktas
##kalen
koldioxid
elisa
mobb
värst
##höjd
kanada
##komligt
##säs
syri
##entuna
avdelningen
##dm
havs
##ägarna
kolon
tilltr
##slig
råkade
uthyr
##ji
##punkten
games
##.,
grannar
##keln
:-
kakor
hön
##umma
villkoren
hatt
efterfråg
underlättar
avsk
ht
nob
byggs
verkstad
hemlighet
##trans
##ätet
700
kvartalet
turen
##tagande
vanligen
manag
deklar
hörnet
ged
komment
##gister
ling
skandinav
comments
högkvalit
##ulin
blåser
ändrar
somras
strumpor
ombud
innefattar
##elin
ggr
finger
atl
fm
##smet
ons
litt
vegas
klarat
##ää
bränsle
##löp
mådde
ped
adressen
repl
##last
##cert
oral
förest
bedömer
##namnet
2002
hållbara
##ray
rimligt
##längd
idol
mellanrum
##gjorda
ye
anbud
tend
konkurrensk
##shuset
tålamod
auktoris
sexuellt
mkr
mandat
bråk
wild
bow
skytt
##lly
pur
vant
poolen
kompa
hallon
##isser
##bostad
avslöja
beund
födda
laddar
##idering
##sint
mich
##stationen
(1)
njöt
maila
borger
finansiell
way
introduktion
överraskning
specifikt
##date
rader
##eger
##gie
light
##underlag
##gjord
besvar
bat
##iseras
spelaren
registrerade
självförtro
undvik
##strategi
känneteck
gyllen
ski
släpptes
montering
varsin
hanteras
##utvecklingen
jessica
roller
##din
##utbud
lady
##jack
läger
teamet
tråkig
psykiat
konstru
##ican
stro
2001
ama
väggarna
prylar
fog
##ämmer
ifk
##ammation
erhåll
anne
##länderna
anpassad
##uster
##bete
##gårds
##byggnaden
ambass
night
alice
egenskap
administration
utö
##bout
##objekt
##...)
sams
saft
wifi
diskuterar
strategier
##pens
##varu
##iled
##affär
kungs
etablering
räknat
lotta
bilda
säljare
likadant
intellig
försäkringen
krets
##skrivningar
nut
put
##ströms
slutän
sud
##stopp
##ställe
##block
here
premier
jordgubbar
skött
lila
östergöt
bam
bryn
sovrummet
##jta
förhållandet
##föräl
##ente
plat
nivån
assistans
tänderna
##max
invandrare
##ights
kock
färgerna
upptr
frukosten
skur
ork
framtidens
##svenskan
noveller
skrattar
##cat
klev
##dotter
målar
##ild
##ware
##bruket
slappna
##ändare
räntor
narkotika
cirkul
##muse
onsdagen
halvtimme
fiskar
dahl
##märke
##28
##dras
sällsyn
bibeln
byrå
tyder
saknade
##anslut
64
tillverkas
##cle
äppel
##amet
hyresgäst
klaga
sexuell
programvara
studi
ljust
##ibla
ultim
nyheterna
##nuft
tränade
tävlar
tillåtet
nätverket
##vapen
telefoner
årsredovis
hekt
##tagare
##pump
museet
sprider
##nis
paketet
ängel
lennart
representerar
gli
##ttill
konsul
niklas
förvänta
wel
book
kandidat
##sbest
##berget
proffs
##handlingen
tekniskt
minskning
##esa
##modell
bokat
kvadratmeter
tillhandahåller
##steknik
konkret
magnet
buk
##enskaps
passager
##sloka
långvar
handled
##gna
samarbetspart
iron
missför
##ipedia
tummarna
##adels
ana
bedriver
festen
befri
hamburg
kontrollen
avkastning
besökt
skrivande
##71
huvudsakligen
must
smidig
skatteverket
##ämd
forn
##check
##pension
användaren
##iskop
glatt
personuppgift
onda
##enheter
medlemsst
bokstäver
##kreta
accepterar
buff
rumpa
studenten
##bul
mari
stry
bygglov
##iserad
##rah
lekte
låtsas
##plet
borr
önskade
tunna
hjärtan
escorter
vistas
belägen
esp
##ckad
2014.
flytande
##36
##nämnda
skriker
##ilia
commun
armar
övergrepp
##etterna
##ave
neuro
uppstå
##koden
##29
öde
utnyttjar
förklarade
uppgra
swingers
##;)
alternativa
förstöra
##iew
vie
##strar
lchf
##fattare
spekul
beton
fåtal
orange
räntan
reste
skorna
placerade
##såtgärder
titlar
skrämmande
verklig
kostade
nationellt
desp
presentkort
fans
##tvätt
anta
rättvis
åldrar
##vision
ordför
##öjan
anläggningen
handlat
##31
vinsten
måndags
lyd
##skläder
school
college
spet
länderna
##ford
linjer
cr
publicerat
underhållande
##ägge
modernt
nämnden
##pengar
blogginlägg
skivan
slåss
##stre
##åsar
scand
41
tjeck
missn
muslimer
reserver
##annons
chock
cykeln
##laren
##iro
båtar
##34
##astighet
konkreta
honung
insamling
##börd
karol
##/11
##ident
dödade
välfärd
1)
##räkning
##bis
##gränsa
story
uppre
ystad
långivare
##amerika
läraren
touch
stängt
kanten
pist
händelsen
grovt
prestation
10,
tvung
##''
bibe
bestämmelserna
##rike
long
##-06
allas
##idor
cash
implem
beloppet
begränsat
##ely
06
lex
##emedlem
fattas
berömda
roulette
any
skadade
rätter
märket
junior
engelsk
känslig
ansöker
##berga
##eland
stipend
lås
##ningsmedel
digitalt
öva
utnyttj
hölls
##arden
made
gruv
##användning
189
##ätte
samhälls
bröt
konstiga
kostnadsfritt
påstår
old
tä
casinot
sökning
degen
mestadels
56
övergång
04
komplet
genu
vackraste
##**
xn
katol
minor
##pg
who
##personal
bildar
paret
##ssel
##splatser
kryp
värda
meddelar
##dalen
celler
passerar
bryt
byggas
förmedla
filtr
##atik
rymd
54
##vc
videospel
regiss
blivande
##ima
mäl
ventilation
förändrats
afg
##hammar
redskap
##usion
sålt
expans
##satte
##seg
##tack
nyckeln
lav
kasinon
##usch
bänk
låne
##lier
domstolen
skrek
##39
bildas
##stig
kvällarna
##marknads
tour
svin
tuffa
##76
samtycke
kunskapen
arkitektur
jaja
##underna
##media
tillag
inspirerad
visby
redogör
##tagning
människans
##sång
##visas
tisdagen
individuellt
sväl
hälsar
##ipro
föreslag
##möjligheter
ending
##ansökan
beträffande
##jort
1900-
genomfört
fair
##äsen
oli
tydligare
##ilja
aggress
staff
kassan
mira
bägge
semin
##änge
pap
##trädande
tiot
##bag
förknipp
##klin
altan
värmland
minuten
charlott
united
##ierade
##omer
skilda
##sförbund
hå
förare
inblandade
##rings
rita
##osition
övrig
##index
spänn
konstig
##etisk
sve
gator
diplom
##plåt
ratt
tennis
##krit
smält
##före
utformning
återvända
fod
analsex
kungen
##ij
klagomål
##hej
skjuts
hyfsat
begå
##dokument
##fordon
kyla
##dec
##kol
ägde
##maskinen
retro
uppdateras
hemsidor
road
bokar
##etenskap
tär
##skontor
diesel
halland
##departem
##kläd
webcam
förnuft
isen
fattiga
##opol
projektledare
##lon
pålit
##dam
##vas
fortsatta
fransk
förban
lesbian
bildades
skräp
##sperioden
fu
rick
komplettera
samråd
ankny
kontaktar
miljöpart
##valler
hallow
öm
offentligt
##ologin
beskatt
##bedöm
platta
##atorn
vårat
stödjer
vägledning
kull
!!
##plant
udda
##verkande
##ami
porträtt
foss
aktivera
moderaterna
strunt
indiska
utdelning
cigar
##asyster
parterna
snubb
förne
stiger
stenar
försvara
beman
orgasm
sånger
smäll
långsam
minnet
kalle
##splaner
kropps
genomsnittet
##jerna
##åkning
##slöst
##sskolan
kreativitet
spär
välkända
rag
intim
##llt
##chatt
##nit
photos
påminn
russ
##unga
individuell
barcelona
##historia
##smatch
skoll
konkurs
##mitt
drink
sannolikhet
toner
konkurrenskraft
tråkiga
genomfördes
jackp
roligaste
tillförlit
blott
##boy
ansvariga
mamman
jobbig
snor
##itra
dir
##varför
friluft
##hundra
apel
skjuter
feed
##cast
##jacka
##penning
mission
godkända
betyda
##plattor
biverkningar
##helst
mysa
viner
##ibland
japansk
vågade
erfarna
passet
repet
känsliga
förbundet
drev
##klund
##beh
##filmen
##file
trå
loj
##gräs
##lagd
lovat
integration
que
tanter
fiska
##domen
bedömningen
##skytt
torrt
##got
testar
vägarna
wow
##grad
##vätt
##haha
##bom
lunds
kristus
husdjur
iran
##nation
download
##städer
##bilda
blåbär
råvaror
skadad
##pning
tabellen
motverka
klokt
##beg
reagerar
rider
##jänsten
##-14
email
gris
##svatten
avdrag
kjell
ordnar
skiten
utföras
uppmärksamma
##-08
##merad
9,
snör
##sand
indian
##använ
butt
renovering
##låda
##banken
direktiv
älg
##renover
ledamot
kongress
##kvent
##seri
förg
arbetslöshet
faktor
buck
kolhydrater
nin
motivation
pensionär
##itera
stämningen
begränsningar
graf
blöt
monter
syl
misslyck
garanterar
##alogen
sjunker
publicera
##ward
##övlar
trakass
leif
mess
women
tester
försvarsma
about
droger
##zen
utställ
padd
##ysen
servicen
principer
gummi
sträcka
stressad
##hjär
nämnde
diet
tendens
##borgs
sis
ungdoms
##nats
avsedd
pite
tap
oväntat
kanel
iak
gårdagens
##speci
godkänner
uppskatta
förbe
diskuteras
nacka
##ming
dnr
schema
birgitta
ikon
buller
herrar
##våningen
kvinnors
pel
head
linnea
tält
##ogra
fittor
upplevelsen
absoluta
blow
våldtäkt
blandat
saga
bell
after
##pal
##omi
mott
##ysningar
categor
bevak
ohälsa
hälsade
ott
provade
potentiella
meriter
##-04
##derad
##baserad
matcha
montera
##dringar
leksak
##ogas
framsteg
sommarlov
spegel
balkongen
klocka
löj
schemat
##ymbol
rykte
vårdnads
nm
halvår
05
existerar
##bottens
älv
kändis
188
klubbar
##come
##svillkor
nånting
nur
##-03
fördelarna
bert
funka
överlåt
bm
##främ
alltmer
diagram
##/9
häftigt
xd
halt
##ield
onan
ebon
##sorganis
##peln
köpare
lysande
asien
öronen
årsmöte
bäd
aa
moll
##innehåll
justera
forskningen
soffa
##storlek
##dräkt
solo
folkets
##cs
##atorer
##gud
university
##fla
##agan
##stjärnor
##itte
önskat
räckte
fråge
laddning
##gor
pirat
##perioden
stunden
##värre
tolkning
värna
ändrade
##nov
badkar
mörker
rymmer
uttr
##au
##bron
##kategor
##ökning
##klassen
now
fördelen
halloween
##ores
gel
jättes
##artiklar
##scent
tårar
##spolitik
##fick
enskilt
chic
rebe
obek
varg
##seffektiv
abonnemang
pm
##ifik
snara
granne
rutt
##vaka
löner
komplement
##fym
paj
religiösa
alp
förfall
cross
arbetstid
##bitar
växthus
##oman
tallrik
förvisso
bemötande
##dans
tillräcklig
burk
migrations
##cipl
##erik
##stånds
rutan
omdöme
##univers
##astående
samhällets
##ytor
nyfik
##iserat
medvetet
gt
##mers
misstänker
##elever
nex
funnit
import
##kron
genomgång
snackar
##väska
##ofta
betalningar
frö
##eur
stir
40-
##vir
##inerna
##brist
explos
pyssel
jean
##sman
långsiktiga
utrymmen
##exper
vardera
hill
palest
tänd
##win
##ally
##drat
skrivet
krypa
##dren
rust
spell
hygien
nas
non
lampor
pojken
poängen
spotify
matcherna
##oler
klok
maxi
omgång
des
lovade
##brid
jättekul
försäkrings
##folk
##rädd
##räning
##arina
science
häss
kyrkans
rehabilitering
kriminal
varmare
christer
##någ
kvällar
##skiva
flög
##cas
ekologiskt
##xy
##acka
##iko
ash
taggad
900
##ikop
omedelbar
olycka
bläddra
4-
kundens
ebony
##byrån
##övningar
garan
spill
veder
beställer
##rap
teckna
försäk
##gade
socken
##innar
laser
symboler
##tillverk
desperat
fusk
##tjejer
berget
doften
ägs
sling
arbetsmarknad
sänk
##vice
##orier
konvention
##byggt
##luft
##anläggning
regerings
management
säkerheten
vinet
artist
bakterier
kravet
##unnen
designen
mors
kvinnlig
sne
rättvisa
domare
##kompis
##shirt
kitt
underrätt
begränsa
52
##mats
numret
##kus
##ummet
åtag
imorr
variation
##ifikat
##ungit
upply
##77
##kapital
liggande
skyldighet
förekomma
uddevalla
##istrat
stämma
##resultatet
resterande
självständigt
##väder
##ao
ambition
richard
slutändan
förbered
löpning
blind
##0.
maximal
whisk
penning
##atar
utmärkta
garantera
kliva
nätterna
spl
ce
##bibli
##cd
##-/
##boda
engagerade
cec
utrustad
rön
kopplade
väcker
##esen
depression
daglig
##syr
nul
##konferens
musiker
##estad
agerar
resur
##lådan
ordentlig
symptom
##kapp
tomma
skrivs
##priser
##'.
##umpen
erbjudandet
sena
sektor
allerg
bomb
au
##leverant
mandel
landsbygden
##urt
löper
huvu
latina
##ityd
uppvärmning
kvarn
bilarna
dimension
framgångsrik
website
sammanträde
nacken
promenader
iii
george
övernatt
##yren
##ves
##äcke
##5)
##iforn
##???
veterinär
end
väntas
blon
##offer
återbetalning
##ällor
##appar
2)
##prom
matlagning
##period
##sle
##domstolen
prövning
##matta
feder
giss
##valet
##sborg
obs
romantisk
blekinge
spri
hindrar
dessvärre
övervikt
kvalitets
magasin
mäklare
vanligare
passform
##linjen
företrädare
allians
manager
revolution
latex
flexibel
juridiska
##hagen
klasser
naglar
rådet
rabattkod
##sons
##ägenhet
torsdags
runtom
småland
hm
talang
experim
pont
fullständig
kit
låda
högra
omhänder
partierna
frys
##zo
##38
lamm
experiment
##itation
njur
efterläng
fältet
stal
##oj
##stadiet
sound
##inkl
##inger
stri
irak
kopplas
fångar
fingrarna
jaga
##äfta
smek
benny
fingrar
våningen
).
pier
##sökande
duscha
##givaren
4:
mäter
vitamin
##pati
##ginal
utdrag
torget
##förhållanden
##pedagog
lillebror
##faller
lyckliga
självförtroende
möbl
##lam
filip
föreställa
##lamentet
levt
##reserv
plockar
##gern
samvete
ss
##säck
poster
återfinns
självmord
myt
tobak
påbör
##natur
##batten
##glasögon
poliser
##shot
##ycker
myndigheterna
uppdateringar
##etik
visning
städning
frekvens
cook
##minn
hack
##trä
##regl
##rt
beaut
apelsin
##modeller
sjuksköterska
##brev
##papp
##osa
upphovsrätt
götaland
lektioner
##vm
##arl
olle
närliggande
kakel
försäljnings
59
handlingen
##faren
gifter
##bileum
blodet
beredskap
##dd
annanstans
##brand
##produ
fars
universitetet
##odde
blandade
batter
bortom
rån
dolda
utvärdera
tvungna
sprit
karlskrona
fisken
konflikter
köttet
föreligger
handtag
kas
##ural
12.
kusten
11.
pix
kroppens
trettio
##ado
##shistor
välfär
asf
cv
tenderar
examens
markera
mineral
##bast
hmm
##dukar
hämtat
progress
ib
##ledaren
##manland
##ando
nämns
borlänge
kopia
vilar
producent
fattade
##istent
##anmärkningar
58
svan
blomma
mach
historiskt
##regionen
##-07
oklart
omgivningen
##100
##ydlig
##smiljö
##enterna
arbetss
gänget
##iskor
skidor
##nivån
fotografera
##ifiering
##varna
relaterade
grått
years
välkomst
##briker
inbrott
utby
##ated
tegel
##havet
##ular
låtit
målade
##uu
##ställen
punkten
kristina
iso
funderade
##skontroll
##försäljning
##sbas
##lärare
detaljplan
dejten
antibi
##ross
partiled
utgöra
##ines
misslyckas
samsung
inge
##otyp
##fix
gos
##ekon
##fver
##sträning
föreslås
iordning
riket
##pröv
##idning
parag
snarast
##loss
110
##feldt
##ption
betalat
1500
market
varu
brors
##linje
tagen
arbetsplatsen
##mys
trim
intervall
cel
sas
xnxx
##mått
dead
grekiska
sovmorgon
cykli
dölj
50%
öppnat
konsten
regelbundna
##yout
vintage
näss
vispa
##igr
bruna
camilla
fläsk
terräng
summan
##smus
##lön
dumma
påse
kvinno
##...?
uppkopp
kastar
drabbade
avslöjar
tabletter
trivas
##him
''
##2-
stötta
konsumtion
jung
resear
hemmag
blomster
husen
kopplat
möttes
dödar
##bus
närstående
##----
myn
jaha
troligt
bidragit
##ordförande
slottet
anpassas
tillämpning
döp
jav
uni
rose
##ikansk
%.
vim
föroren
besöket
##xis
tända
##smässigt
utmaningen
sevärdheter
förbin
##middag
##fal
okända
##värdig
kväv
huvudsakliga
lunchen
säkerligen
hollywood
kammar
tänkas
levitra
know
relationen
meet
##olution
snabblån
##stein
diskussionen
vs
tomat
##fyllda
verkligt
##/12
spridning
brotts
trip
höstens
##dahl
rått
influens
utmanande
sankt
expressen
webbläsare
parfym
innehöll
##figur
##jam
psykiska
barnmor
tänkande
##hopa
coop
givande
##bullar
resulterade
##butiken
##ynn
##ört
##ålen
##eve
avslutades
##savgiften
##64
föda
afghan
bredare
##stens
##männen
blicken
ställas
##jol
##examen
militära
rang
rapportera
fritids
vätska
träffades
##webb
ändrat
ukraina
##69
lanet
landslag
kroppar
flyt
loppis
agent
slät
##snämnden
##empel
prins
intag
hemmaplan
sägas
utreda
quiz
noter
energin
##37
slö
stärker
berättig
resonemang
döma
##alisera
hittas
##miss
ersätter
fund
våras
drabbats
träningspass
linjen
rekryter
belgi
##kostnad
##jäv
trupp
fastnade
statsminister
poll
arbetsplatser
palm
##bat
videoklipp
##årige
luck
##kelse
##skyl
##elset
regional
receptfritt
##departementet
elimin
##heim
inhand
##kvist
behövas
spåret
delaktighet
##arp
##bot
turister
suck
##degc
1999
##llan
##utor
anför
journalister
##ups
katalog
svaren
månaders
individen
##skans
smin
jakten
minimal
content
found
##tävling
befann
genomsnittliga
lasse
##sidorna
förhör
irriterad
##hurt
##unskaper
kundservice
rinner
bege
käka
vip
dire
behövt
engagera
tillhandahålla
beseg
ovanpå
##fett
serverar
rönt
medie
elast
uppföd
gifte
refer
falken
##yrer
##tåg
##desig
kondition
brunett
##yssel
kjol
portfölj
##uckit
##atörer
smala
statistiken
hemska
manlig
##åla
gaming
##stest
##idande
otrolig
fortsättningen
##king
upptagen
utbildad
##lås
planeras
185
analyt
jobbiga
##hor
##krets
attityd
175
entr
##rats
sovjet
glans
##ulära
rabatter
vul
funkade
##fylld
kvalit
##smorgon
##vecka
kenn
styck
##belopp
##visningen
rättegång
##ssäker
melodifest
smärtan
indirekt
därpå
##ymen
bevisa
näringslivet
studerar
kallades
deltagit
stabilitet
politikerna
förtjust
uk
cast
basket
gold
skynda
därigenom
##mässan
jimmy
##görelse
##kampan
jens
fasad
jonsson
micke
##sbeslut
##nä
kej
##oster
femton
lägst
webbsida
kk
##täv
##ystemet
vardagar
sammanställning
tvinga
inträffar
profiler
färdigheter
##petens
multi
tad
##ky
##smaterial
homosexuella
##hitt
alliansen
föds
horis
kulturella
varberg
##yrka
engång
##sbolaget
flyktingar
tröst
stödet
miljök
försvunnit
byx
##fattning
nyttigt
etablerade
fröken
less
string
##bias
##ökta
legitim
card
galna
kollektivavtal
spray
målvakt
kastade
tillåta
utbetal
fastän
asså
industrin
alle
##smannen
minskad
imponerad
georg
maja
normer
onani
förbättringar
provet
kritisk
monteras
##vagnen
mt
landskapet
##inrikt
69
##ygger
inbjudan
##ögen
utfärd
##yra
57
båg
omdömen
genomförts
##stolar
kent
##atern
fordonet
målgrupp
53
fördr
diameter
firma
respons
##evin
vänliga
begav
valfri
servering
##verkans
inspirera
0,5
##snummer
expan
dropp
tiderna
ersättare
lugnare
trycket
hemsk
##isse
##aminer
karaktärer
pend
bingo
##blomm
##perspektiv
pressmeddelande
##ässiga
nja
sadel
täm
täby
##88
##scen
fysik
tolka
heliga
cred
revider
låtarna
##fotograf
valda
varumärket
##gener
ms
upprätthålla
arbetslösa
##liggöra
##ionde
foster
ll
dejtingsidan
##vol
##ared
slänger
51
intensivt
korg
nöjes
2019
keram
sommarens
gråt
utk
räkning
jämtland
falska
njutning
##foder
conta
##sfest
##ekanis
##drande
nådde
oliver
tvivel
magiska
längtan
mild
applik
carlsson
marknader
oc
lit
wash
az
synes
vel
branscher
läskigt
ignor
##ställs
armband
##ulera
innovativa
fyllda
##ory
food
avveck
emelie
##fem
##följer
##forum
frost
##sla
pedagogiska
laborator
tryckt
bekost
postades
##chat
neutral
yttersta
##sskatt
siffrorna
prick
debiter
##0)
##ökande
##utrymmet
nobel
champagne
stolar
soldater
roger
ungar
amerika
föreställningar
fotografering
sax
slakt
toppar
gps
3-4
effektivitet
letat
sammanhanget
##idas
hammarby
##videos
nämner
fräscha
ingående
##ingenjör
motståndare
##uga
lagring
maximalt
blondin
bekräftelse
övervakning
vinnaren
##fåg
flyttas
passerat
find
page
snällt
thor
höjer
väskor
kommuns
##blar
##golv
styrning
mediciner
##esc
vamp
sarah
stadsdel
kommersiella
##nastik
rötter
spektak
nina
##deklar
##eva
##ei
mann
##htt
pip
pappas
fascinerande
##konstrukt
##44
itu
biten
utåt
jör
mums
wikipedia
överväga
##evär
backa
##smän
nost
##sskyld
sämsta
traditionellt
##lust
utfört
display
slutsatser
kladd
simma
##kit
alfa
sill
irriterande
##skada
##ords
allergi
generationer
##igna
hallå
utmana
resenärer
evangel
01
tveka
spelande
##alys
utsikten
påtag
stilar
fader
grejen
kungliga
5-
förbruk
shit
lidande
##värdering
avslappnad
timma
##vita
misshandel
drömmen
trafikverket
charlie
every
lur
uppskattat
givit
##samhäll
##aton
flag
##kunskap
##kalas
styrelsens
tillfällig
adoos
##sstöd
ngt
##tanke
röka
##ävande
##rent
sköld
scener
##sbanken
##bys
##dade
##ådor
okänd
jordens
sås
klimatet
förutsätter
välkomnar
##col
felaktig
klänningar
gött
music
norsk
klassiskt
2012.
##emi
enklaste
##ånds
2013.
##gan
delat
##quist
lejon
##nie
##trafiken
##öln
##/200
##stäng
städat
##bjöd
arke
bäck
ming
imorn
akademiker
##panna
pettersson
##skivor
bestå
##läggen
arrangeras
christina
suver
##smöjligheter
insett
tystnad
begränsade
attraktiva
vrid
anlita
frånvaro
sortera
evigt
uppdel
tyngd
##ävar
köparen
litar
##!).
##ui
##-13
##filer
##ures
vänsterpartiet
drömma
nos
begagnade
örn
piteå
blix
##cre
stryk
offens
metro
leon
apt
##sskiftet
inverkan
##skåpet
stjärna
##hlin
cru
##ifer
kontot
meddelade
strikt
tusan
samlag
##umpar
överföring
kommissionen
bokför
bristande
140
##torp
tvill
##körning
bromma
##sgr
bebygg
bröstet
förbättras
##ville
konstnärer
inneband
baren
##finansiering
bedräg
rubrik
##oke
##givna
gestalt
prostitu
##parker
familjemedlem
supers
kriterier
förbättrar
bitt
##anterna
3,5
toaletten
placerad
rov
brost
anspråk
skadestånd
##49
##nt
gräset
##edi
konton
svenskarna
värdel
tillväg
pics
svarat
past
##hz
fb
##nos
tes
hormon
kulturen
##gal
see
##vitamin
##akim
syda
förskol
##-30
##ssor
skrik
##lager
##ässigt
energik
elektroniska
##kedja
jose
flug
teman
kraftiga
##mav
reportage
##tjänsten
helikop
##umentera
nyanser
ai
pict
160
##ative
förkort
lyssnat
årsmötet
utgörs
mir
skägg
paradis
feedback
tripp
blandas
lun
##kalla
##koder
republ
##uttag
##björn
prel
sysselsättning
kränkande
##0-0
##vattnet
angivna
kemikalier
valbered
blixt
institutet
##akes
##förbud
källaren
behövdes
emellanåt
väsentligt
armarna
bankkonto
grät
mobile
förenings
mum
höstas
känslom
mästare
##nära
office
svull
##kontoret
syre
##lampa
engagerad
partik
avslutning
##ection
##fack
djäv
historisk
uppskattade
förfog
reflex
##frisk
##ängden
boendet
säljaren
allihop
vänt
##67
huvudstad
vattenfall
##avtalet
äpplen
##pulver
östergötland
jättemycket
88
åstadkomma
varandras
##förare
##sfullt
novell
klubbens
sött
forma
kartor
##artikel
kraftfull
officiellt
kylan
elektronisk
morr
##sklubb
##varan
##korn
##pes
slängde
margin
torde
hembyg
utarbet
##beslut
logistik
arbetskraft
byggd
intellekt
vinkel
##/8
barnbarn
inleds
öre
spis
##forskning
livslängd
##chester
kännedom
kum
bedrivs
hbt
5000
room
gräva
mönstret
säsonger
##ssnitt
popularitet
säkrare
##mom
stiga
##avgift
stoppar
hil
svaga
utvid
grin
##fc
hiv
multip
flott
blandar
matchar
##die
glöd
halla
erbjöd
studerande
skära
bokföring
pia
##ople
chips
130
fire
##32
lod
elektronik
förse
kombinerar
series
nedladdning
nödvändigtvis
north
##sförvalt
....
##shanter
fastnar
##isol
patri
great
konstaterade
sto
inträffade
typiska
##rus
##sallad
##förmåga
föreställningen
##album
homo
belägg
skötsel
young
kav
die
trollh
läppar
utbilda
avgiften
hands
uppväxt
broder
återvänder
segern
creamp
oskyld
##grå
nan
##brygg
farten
bloggare
spelades
##gs
origin
arabiska
##psyk
##tala
korrig
madrid
arrangerar
##fonden
dopp
##fönster
cecilia
möbel
##skvalitet
tent
styrs
##nick
mans
lis
framgångar
##az
movie
utsätts
lönsamhet
##wall
sparas
##llar
##socker
american
break
upplevde
utvecklade
hyper
portugal
ada
härn
##bevis
skölj
bekräftar
bikini
prostata
förde
nyanlän
överlag
uppsägning
##kart
##alerna
##bers
faktiska
kontrast
##själ
elevernas
inledde
##helm
##68
pub
saknat
avsedda
##anner
##universitet
nedanstående
##hm
##oe
snusk
åland
misstänk
tänkbara
satsningar
##lösningar
rostfritt
fläckar
350
jämnt
knullkontakt
race
##ortering
##gränsen
stretch
onsdags
förskole
fortsättning
viktigast
little
##napp
wiki
knän
chi
dammsug
hiss
##hålls
publicerad
##kortet
##mattan
fattat
platserna
##saken
##via
timmen
kollektivtrafik
##rer
filen
##);
##kö
nånstans
enastående
##hän
områdena
automatisk
extrema
dna
royal
tangent
tillskott
kommunik
överskott
västerbotten
##jäm
avsked
reaktioner
tva
##ussen
corn
surfa
smeten
##slar
##regel
konceptet
##cerats
päl
kylskåp
positioner
modul
frigör
##ungar
##eledam
gissar
baserade
drän
ankomst
success
såååå
tysta
please
bokade
knappar
##bryn
##entre
förflutna
husse
balt
wordpress
angeles
tingsrätt
##skningar
##aktiv
beklag
arbetsliv
##deln
sträckan
dejtar
##savgifter
ingick
menings
##kak
mary
rörde
anhörig
mardröm
##tak
##säng
es
tröjor
rein
kemiska
##känd
anda
##eld
olyckor
##not
tisdags
##cher
kylen
utspelar
##företagen
ordföranden
generisk
bespar
försäkra
medverka
utbetalning
fadern
omvård
##recept
katarina
##oplan
anställa
utöv
uppgår
##publ
finare
protester
##pann
##rollen
##obs
väckte
kerstin
villiga
utförande
anime
river
druckit
ödm
gabri
attraktiv
ungdomarna
##gröna
demokratiska
hero
paragraf
blodtryck
konserv
biograf
##48
biskop
##hh
##banor
##biljetter
grott
dokumentär
viking
##lorna
gumm
tobias
pussel
##sättas
joakim
##wer
stycke
ångrar
##först
kompakt
antas
inrätt
##väckande
##agt
##raff
förbättrad
sopp
##projektet
drycker
##ded
iof
värdefulla
slarv
##hc
tjänstemän
koncentration
bönder
föreställning
arom
nyfikna
släkten
nyanlända
batteriet
scenar
skadar
österrike
##sbehandling
käkade
##blod
medium
italiensk
matta
väga
värmer
##alismen
lagade
vap
bjud
psykiskt
inform
krävande
ägnar
osyn
##länder
postat
diagnost
##cca
maz
tej
##jorta
undviker
exped
tillämpa
gods
skro
uttalande
dennes
kyrkor
förpackning
escorttjej
brunn
##stjärna
flöd
fortare
##mp
##ili
##onto
there
skiner
överflöd
odla
##agd
##nätet
##hing
laddas
vidta
utvecklings
##tom
kosten
följs
##version
somnar
sor
nyfikenhet
hemåt
fungerat
##försök
##cket
förkylning
avn
inspekt
##mil
wood
revision
##lings
##stagande
##runda
avsevärt
snus
märka
za
##dejt
##öjt
##filter
liding
3000
påminna
escorttjejer
funktionshinder
##spapper
##väv
fig
plåg
albumet
brosch
grymma
speglar
lånar
arlanda
arbetslivet
eur
##house
vikar
##inet
##stenar
casinospel
smartphone
förvara
##sminister
klassific
##yst
lj
blowjob
signatur
grädd
blin
lådan
stenh
förvaltningen
kansli
##kunn
smut
välsig
exakta
skyddas
centimeter
##vagnar
leveran
slutför
##eas
##färger
170
fjort
utställningar
hv
##diga
bonde
felaktigt
ingrid
##splikt
tyngre
gnäll
benet
illam
kiruna
svd
##fod
globalt
mattan
##svart
intäkt
care
utöva
kramar
bekräfta
(20
##organisationer
##oro
batterier
##une
trenden
försäkringar
texas
##itution
##åker
tandlä
otrogen
utsidan
publicerade
förväntat
pressa
syrran
betalade
hudvård
konvers
familjens
betydelsen
floden
läsaren
##olin
contin
fullkomligt
spenderat
##zan
##chi
meg
kritiska
omvärlden
pappan
socialstyrelsen
förenkl
uv
släp
tyckt
veckors
vägled
sekreterare
##kropp
##årsåldern
genus
institution
##fiske
syrien
regioner
träden
##galler
12,
lyder
skept
jansson
category
fliken
##uka
mona
seni
##norr
framgångsrikt
jesper
körning
nostal
sättas
##oon
##hemmet
produceras
förvaras
kruk
sjätte
substans
föraren
nuför
lampan
##-25
##skikt
##ftet
välbef
saab
jönköpings
##sprinci
compan
##myndigheten
##wal
ego
##massa
åskåd
fak
segel
##spolicy
designer
##inkt
##vägs
medföra
opera
##fiber
inleddes
mn
leo
utesl
##sverige
revisor
bog
hult
##klädd
66
##städning
avklar
trappan
viet
arbetare
tillbringa
##åsen
##organisationen
druv
##likten
kommenterar
kaffet
effekterna
72
##sele
lyckat
utlov
regnar
agnet
5:
##tech
ringen
klänningen
68
spök
##gilt
##girl
##bolagen
classic
tillfälliga
sebast
veteran
markus
sänder
fotbolls
##ssar
uppfattas
##asc
brått
##minen
ambassad
kalkyl
halsband
käk
discipl
sf
komplexa
##oarer
optimal
komprom
stationen
äran
bussar
utmatt
cyklade
##card
##pråk
huvudstaden
målsättning
vasa
##ysningen
universum
kub
sjunde
trekant
förlängning
search
parallellt
##strakt
fräscht
konsekvenserna
##47
##ripa
##öjda
tvingades
deleg
levnads
patien
##vind
sjukvårds
nedåt
säljas
pp
värma
strider
init
##ventionen
hugg
nagel
##kont
seminarium
67
##vard
samuel
##emar
bollar
porslin
päls
##vakten
##alafil
rol
livstid
tämligen
anty
användarnamn
polisens
##utsläpp
##klock
dressyr
bob
bröder
trollhätt
##skaffa
ahl
fotot
##högskolan
##:.
krasch
##fu
frågat
dölja
djurgården
14.
misstan
ikapp
resmål
lådor
norde
gis
redovisa
efterrätt
tavlor
utslag
zoo
##grens
verksamma
tillträde
##spersonal
##ious
lades
##sbär
##ektorn
våning
naked
institutioner
spann
valdes
vettigt
förmiddag
##ämpning
reparation
##foto
11,
tugg
##metoder
##ceringen
drama
accept
##hastighet
kemi
##tviv
äldreomsorg
existens
kontaktannons
upprikt
1998
stina
coolt
ånger
##utrymme
##temperatur
hä
konferensen
galleri
13.
flesh
röstar
##åtts
otal
anknytning
begravning
domen
luftkon
prelimin
nuförtiden
##utvecklare
fraga
inflytt
##bai
akti
maskerad
lampa
ersatt
förbjudet
def
jättefin
##ände
beviljas
ljusare
##spot
staffan
vansinn
smakade
slutsats
##elett
anpassat
författar
receptionen
ryt
2010.
ellen
informations
hörl
förblir
hänvisar
belgien
representant
##guld
tvåa
beredda
##sfakt
##pop
##cykl
360
direkta
##sljus
tina
kret
prioritera
##sling
cirkel
##riären
##fra
lämpar
stimulera
cons
nås
hörsel
##knappen
nötter
företagande
bröderna
##utet
arbetsgivar
##slor
dräkt
hugo
etablera
size
people
liver
varia
riskera
entusia
##uls
##registret
amerikan
elisabeth
uppdaterade
boy
allsvenskan
skrib
hora
##ject
romer
##fika
nuläget
skyldigheter
##esi
2020
gata
kräk
kräft
kraften
##hett
ebba
uttrycker
rykt
##funktionen
checka
##fond
synen
gd
föröv
ansökningar
##erbjud
##aka
norrbotten
skä
##ansar
miljöpartiet
##1:
blöd
skylla
konserter
återbetal
kontrollerar
##flödet
bt
gudom
garderoben
arvid
##trollen
landstings
##inspir
##ways
##öjning
##inas
alm
målat
föreslå
leverantören
##3%
##mars
tik
##utskott
brasilien
packade
uppmuntra
glädjen
##4:
##restaur
sprungit
##dinge
##sträd
##läst
småbarn
spenderade
tråden
ekv
ohl
goa
imorrn
inbyggd
##vem
##trol
##vårt
##ekter
inspireras
##sälj
allihopa
datingsidor
registrerar
(18
##ped
solsken
trender
signaler
splitt
##älden
fors
zon
##detta
stilen
login
stolen
tadalafil
##3-
##66
##vens
tillgang
uthåll
10%
oljan
##ydro
isb
piller
rekt
##industri
##ckare
stränder
stiftelsen
##kål
lux
finansiera
hex
##oker
moster
##hum
##skapen
klättra
wars
##äten
förn
elektriska
prover
bass
##berättelse
ingenstans
lyckligt
trötthet
##sförening
fantasy
färgglad
##funktioner
babe
bitter
omfatta
leveranser
sambon
skrevs
förtryck
populäraste
störningar
cos
gråter
nyttig
##bang
flitigt
hacka
resulterar
##förändringar
rosor
hotels
fallen
arbetstagare
##ädje
nyheten
##vning
hårddisk
syntet
##partner
sängar
forskarna
stöder
befintlig
##scy
stabilt
släktingar
##vuxen
linus
slang
singles
##fäst
##ufför
födelse
krona
##umret
brinnande
uteslutande
toler
däribland
##ektor
visit
ökande
återv
**
legiti
tingsrätten
sektorn
##ockad
##studier
ägar
folks
1700-
jättel
slaget
##godis
landar
snett
filt
louis
##formulär
##jukv
sortimentet
skrika
chill
98
obegräns
##iral
daliga
behåller
##helg
##nord
bråttom
olymp
turne
##vade
orten
tomater
prisvärda
##here
##husen
##skött
gömma
sul
##rull
bubbel
##svikt
landskrona
imper
frisör
fastighetsägare
02
nt
storstad
avslutat
##källa
##ribut
##ekyl
gatu
backar
##arter
journal
joe
anlit
proport
##sinformation
##dets
evighet
##fn
##aktiver
regelbunden
small
##dejta
tillvaron
##illgäng
läkt
vägrade
astrid
##avgifter
upplaga
vänstra
avstäng
infektion
publicerades
##,...
disken
märktes
news
inläggen
operativ
##ops
innehållsför
skarp
##uan
privatlån
studenterna
##fukt
2011.
kombinationen
uttrycket
odd
muff
gustafsson
15.
xbox
passera
enskilde
flexibilitet
utländsk
göd
ster
welcome
stöld
förbereder
antibiotika
##alta
stere
##elia
##festen
##försörjning
##ivaren
ration
##drade
##slösningar
##sstäm
axlar
minister
##sperspektiv
##row
någorlunda
try
bella
patent
##lack
vaknat
trail
inledande
sti
landade
motorcykel
densamma
anvisningar
koden
avbrott
##liknande
detaljerna
drabbar
onödiga
fjäril
transpar
slav
hemlig
havre
kyrkog
förluster
gyllene
svagt
##behöv
kukar
sexställningar
hotellrum
utformad
creampie
##ria
##sförmåga
adhd
beck
mångsid
##less
skapande
swinger
beskrev
avslutad
kläm
promenera
proced
##bella
name
##trar
skiter
some
only
trakasserier
20%
pedagogisk
effektivare
nämnt
kliver
research
##intresserade
##ode
##atta
hälsan
föräldr
sistnämnda
louise
silikon
nisch
##rest
second
##41
##eds
rh
realt
tagna
kog
traditioner
##ssyn
##promenad
överraskande
exklusiv
kampanjen
strategiska
##79
jaa
msek
felet
uppmanar
##amatch
finlands
taggar
blommorna
skulpt
techn
##agda
hylla
framsidan
huvudperson
##garanti
62
disco
bläck
##bos
##svin
kristall
##admin
easy
##värdigt
##lighetens
ringt
##förbrukning
##samlingar
##metod
bust
graviditeten
freesp
uppstod
diar
nåja
mordet
charlotte
biologiska
mala
smälta
kostym
##unes
##ental
##förmed
rättvist
flyter
chili
distribution
ey
mänsklig
utmärkel
##tecken
publish
tony
color
nederländerna
hip
##isker
festivalen
gårdagen
lane
granny
energieffektiv
frysen
##gang
erbjudas
sorgligt
häp
pilot
rimlig
ref
spir
längsta
måltider
klockor
trop
putt
värk
verksam
10-
asfalt
styrelseledam
ist
##olycka
##rens
knyta
församlingen
##udd
##skogen
##verken
förändringen
2000-
etiketter
medverkar
vitaminer
nhl
them
use
judar
operationen
mörkare
lt
##ostäder
passagerare
nud
lab
skolorna
råg
stans
fej
grannen
fascin
kryddor
ambulans
startades
skapades
##stemperatur
##iket
hittades
skärgård
##phones
##önstren
moa
plockat
vietnam
samlades
year
##kurser
##sförsäkr
##exempel
??
flo
ingenjör
(2)
halvan
behörig
värdefull
##42
##ize
##kusten
förmögen
lovande
##skriften
sildenafil
aj
##spen
godkänn
##relaterade
##listor
midnatt
hängt
olyckan
rysk
##förklar
##svetenskap
##icitet
nyköping
##ugen
##jud
##xamen
bk
tjat
skyltar
qual
satell
pinsamt
urban
fallit
bäl
pannan
återkomma
shorts
coola
##musk
menas
jagar
##versionen
##parten
kompletta
single
##sky
bytas
jämlik
##kyrka
rösten
åå
salong
doktorn
basen
förfrågan
landa
##anke
slicka
next
##junktur
##ikerna
komplicerat
anmäler
säkerställer
olivolja
paras
bosatt
frivilligt
koncentrera
##rades
koordin
kopiera
telia
fjäder
##sparken
##slöv
södermalm
##grön
ensamhet
comp
bangkok
dåvarande
##sbar
##rutan
typisk
proff
afghanistan
basta
##ffen
##mönster
##ägenheter
##ipa
professionellt
kärl
##änkt
##sbyggnad
##änderna
monica
rekommenderade
##iterade
uppsättning
knullad
agneta
önskad
klump
trelle
genomtän
regleras
räddade
smula
##skningen
sommart
stadigt
marina
hemmal
karolinska
sura
utrustade
sexkontakt
anmält
främling
##ology
mens
frysa
tul
utnyttjas
inteck
skaffat
läpparna
exot
oön
asian
kreditbetyg
kortsikt
blackjack
ruta
norrut
beat
79
place
hyresgäster
invest
##,.
kalk
runka
betyget
most
europapar
kran
##kameror
investerare
nyg
differ
##lite
##stjärnan
ungarna
##bill
##yttan
siffra
exponering
ständig
##kanske
disney
##baserat
ulrika
mätning
nöja
östersjön
marknadens
slutt
ledighet
kärnkraft
##erie
##skyddet
handledning
##/7
jour
##evis
gatorna
planerna
return
smooth
dansade
åbo
överblick
##vald
korn
bacon
dm
smith
handboll
##arin
nordens
fetisch
siri
numer
farbror
likhet
famn
flod
##ifte
facil
pulver
##acker
##np
fikade
kafe
hämtas
kult
tillvaro
##kraften
söderut
fördelning
aven
##lampor
förutsatt
valpar
##ird
djung
farlig
klient
fastnat
mul
almed
skadan
tipsar
##ota
##sträff
##gad
hävda
versioner
götalands
uppskattas
ryn
##årets
läror
xl
knar
therese
##ekr
##arkiv
want
sjukgym
lönen
systematiskt
optimer
##födda
handledare
:/
kränk
##ony
beräkna
##ception
##klädda
fucking
felaktiga
friends
beter
utebl
lagras
sänker
naturvårds
snap
manchester
##sens
pern
##svik
flaskor
skulden
##',
191
själen
sollentuna
tras
##sbordet
högskol
##färgade
tidens
##göring
osäkra
hantverkare
sess
sebastian
##kram
pak
klagar
rapportering
grova
##wan
##vänlig
vålds
kevin
yngsta
##ofog
vetenskaplig
spenderar
kontaktperson
gammel
##ombud
annans
##krav
key
höjden
onlines
##ftt
absor
[?
##vänner
##ates
aga
##rym
fc
avund
##neringen
köttfär
##mets
##sänd
längtat
dofter
##plex
fräls
##uge
##unta
##utred
avkopp
bifog
##halla
##påse
trakt
stöter
##aring
snow
avståndet
dansar
riktade
##status
##ättningen
förväntade
låsa
soppa
##vt
bjuds
belöning
konsistens
pom
makeup
transaktion
0,0
ringar
##olit
japp
peka
nedsatt
tillverkat
##kred
skatten
##smode
samlingar
kaliforn
precision
ray
pensionärer
mb
kakan
##instrument
föreskriv
prenumerera
huddinge
riskerna
sot
skrid
kontors
joel
stilren
isolering
producerat
##ädden
##sbacka
bolån
auktion
hetaste
##kull
##smöte
uppdrags
kulturer
##medicin
slutsatsen
möt
##hämta
möln
motivera
vald
##skapande
svea
egypten
försvarsmakten
lekar
beställningar
cc
sperma
förvandlas
skörd
fotografier
(6
##styp
dryga
minoritet
raden
sittande
välbefinnande
skald
rumpan
lektionen
webbsidor
hamburgare
##född
skrivna
##norm
##gymnas
creme
prepar
krok
##vju
påminnelse
##adel
kombineras
##terapi
##tz
1997
##mästaren
angrepp
##råds
##beräk
kapp
starkaste
upplösning
ade
lögn
skugga
reagera
domaren
visningar
presenterades
carina
fester
##hängande
##medvet
varakt
grunder
uppnås
webbkamera
##72
manat
##västra
ultimata
janne
collect
ljusstyrka
auktoriserad
trög
intervjun
sensuell
##ashion
generella
bristen
upprepade
puls
washington
##obi
##serier
insatsen
reflektera
##drad
scre
insyn
kosttill
avled
usd
undersöker
sågs
gårds
myster
kind
prof
tiger
krydda
step
solned
##delserna
plattan
sony
##uper
chris
grädda
planeringen
##oni
godaste
omgångar
psyko
##cyklar
förkyld
självklara
kronofog
tillvara
patienterna
maka
behär
teorier
grabbarna
##55
listar
stadgar
förlossningen
clin
blåste
##detaljer
köks
spruta
mit
soph
förbr
dörrarna
principen
gult
krom
kanin
caroline
##anläggningar
ya
sola
##mäktig
##drift
läckra
tillväxten
##slen
matilda
aningen
##alds
förråd
##bbar
golden
uppskattad
dream
rådgivare
yoghurt
inställd
tkr
##gran
##insatser
upprätta
##förordningen
tredjedel
arbetsmilj
bund
fåt
synliga
##/6
##ergi
sho
tin
osäkerhet
##show
bestäms
##festivalen
förför
##prote
##rester
yrken
rörelsen
##belysning
blickar
##peppar
bränna
krävde
sammantaget
sända
inblick
pad
##jade
##skur
##reglerna
water
förbannad
##smä
sjutton
skuggan
gavs
:).
ägarna
##löshet
utlandet
tidpunkten
spåra
trollhättan
frik
illamående
zlat
träder
vera
löfte
entreprenad
##well
namnen
grundare
##odling
gubben
godkänna
linköpings
arme
##vstånd
jesu
spor
beräkning
##head
åring
glidmedel
##litteratur
termer
lura
##ih
hjälpsam
förväntan
skriftlig
##eliga
detaljerad
flickorna
##uvar
såldes
vert
03
##gaende
##skommun
##processen
##hub
rud
psykologi
lanserades
johnny
lindgren
chal
åtskill
bankerna
uppfattar
utbildade
##eling
anim
jäst
##rosa
registrerat
gynn
##ekonomi
högtid
interra
##sfärg
skede
naturvetenskap
polska
given
stängde
##tell
freespins
försäkrade
kändisar
##uma
engl
skyldiga
akuta
krono
energis
flaskan
grim
misstänkta
innebandy
betrakta
tjus
##utbildade
misshand
##fari
borgenärer
kalorier
utses
78
kompletterande
lockande
applikationer
elden
budgeten
kyrko
##sbi
jull
hoppats
1990-
kh
meningar
besökarna
tjur
telefonsamtal
##potatis
##andan
norrtälje
formuläret
orebro
muslimska
skilsmäss
##spresent
##emal
##nivåer
bullar
referenser
seminarier
drop
ligg
fylls
skadliga
##ligheterna
##dock
tig
kämpade
gamle
amateur
##föreningar
hjälpen
falkenberg
125
alf
vinnande
scott
arenan
fonden
oce
gjut
organisera
duger
unionen
akademiska
##grunder
flexibla
##festival
administrativa
##omet
öms
##stark
avbryt
nordisk
planerad
##limat
##sha
gravida
##ito
##uen
grundskolan
##pra
sexualitet
##sköl
##bab
fos
samverkans
jane
innehav
kastrull
##hatt
samarbeten
hoppet
##vinn
fastställa
andliga
piano
##ärenden
omröst
pastor
##intresse
grundskola
##bloggen
elsa
msn
manuellt
konserten
deltid
slem
tjuv
strävan
lok
##själv
husets
budskapet
rasism
##fun
##kontroller
folkhäl
öland
fotade
##ife
smörg
##brun
##ites
radion
förplikt
##äser
frivillig
##cted
milfs
##cet
husk
##urgi
konstnären
16.
byggda
kvick
##svård
##itor
##idare
##wi
testet
banor
minimera
##aktionen
borgerliga
semif
erkänner
rådande
netto
ordningen
conne
had
##kasin
rulle
långsiktig
bestämd
oroliga
susanne
##ledningen
fullmäktige
optimalt
##hard
barer
präglas
förskolor
tyget
elef
krogen
fullständiga
luftkondition
##revlig
bistånd
##kvinnor
applicera
##sgrupp
styrket
aktör
förlänga
dark
##mycket
rf
##vänliga
kuddar
bygget
erotic
översv
##utik
upprepa
försvaret
entreprenörer
spol
garaget
tillgodose
fager
##pir
homosexuell
south
lillasyster
distribu
förrätt
destin
##jes
upprörd
spö
brygger
söner
ersättnings
kapa
##äden
wer
##narna
##käns
glädjande
18.
kopplar
resande
nystart
snabbaste
61
##krafter
tröjan
turer
hansson
##atser
##agon
ögonbryn
rättighet
##agor
hagen
##skontoret
passerade
årsskiftet
##sback
jogg
##kester
lands
bokslut
##rapporten
marginal
spy
##insats
uppdaterar
##gla
bakifrån
glaset
störa
blommar
skåd
stom
självklarhet
pt
##pend
isär
bakade
staket
surfplatta
agerande
förstärka
##loppet
##4-
rullade
##kök
bohus
##iggande
besvara
##ego
##ifierad
nånsin
radikal
invandring
inlär
aktieägare
fästa
ångra
löfven
registreras
##juster
hudik
affisch
förfogande
tunt
##online
##farenhet
##polis
rally
##skilj
stolthet
//
##serna
råk
##point
judiska
##plock
jennifer
riva
klädd
dimens
praxis
##ply
beaktas
##agång
ansågs
mellanö
##ipul
skaldjur
stapeln
##politiken
tidnings
lee
rimliga
besvikelse
rekommendation
##tänk
kroat
omtyck
kameror
unna
avkopplande
friskt
services
##spo
##dran
förmåner
##milj
view
tecknade
##aktör
beta
inbör
ponny
##ez
dödsfall
##upplevelser
arch
förhin
gälden
kretsar
gymnasium
påväg
grilla
nyare
omslag
folkhög
ribb
musklerna
skaka
regelverk
##tror
english
miljard
informerar
dax
redaktion
propag
##anslutning
nicklas
##måg
13,
##key
djupet
tackade
##ful
mentalt
##iza
otur
##ägga
ale
##revet
##ektioner
återhämtning
ljuger
spik
##äsning
kink
77
kosttillskott
brown
hälsov
uthyrning
styrkor
##modern
##deringen
översatt
##bredd
gunilla
butikerna
##kön
talan
likväl
inleder
avlid
siffran
efterföljande
geograf
sysslar
mättnad
mottagare
##mit
##vr
kava
mössa
polyester
##plat
marian
möjliggöra
##iao
förmågor
gymnastik
skriftligt
försiktighet
##egi
##arrang
##ämne
civila
##iki
dagtid
jättet
likvid
genomgående
##ku
##vanor
handeln
intensiva
##utskottet
##fyllt
##starka
torkar
filosofi
internt
tandläkare
##atte
##ient
nato
nämnas
tvättmaskin
påverkat
forumet
redovisar
mänskligheten
##98
##mjölk
gångväg
dugg
beteenden
sänkt
##order
lagts
##sförsäkring
ömses
vardagliga
mötes
acade
hoppades
förverkliga
##-200
resen
kunnig
justering
##raden
spana
heders
tillit
tinder
tillbringade
##shjäl
##befolk
##gratis
uppfost
pojkarna
##ody
##anol
klär
##nyck
merit
##hed
eröv
strömmen
interracial
##mamma
##kursen
helgens
körsbär
avslutande
argent
##olo
gåvor
trångt
tillkänn
jones
skötte
stegen
signifik
upplands
##:00.
##zi
##tema
##plast
ishockey
##rine
hägg
vibrator
lrf
annonsera
##front
verkan
##stockholm
bibel
blocket
tryckte
belastning
underlaget
##alth
##sstud
befäl
mike
ersätts
1970-
importer
glög
2009.
##uo
viljan
förfråg
kunskaps
superbra
##tabelt
varar
förbjud
mygg
skype
claes
konfigur
63
1-3
##backa
##udden
##vinkel
##kvällen
swedbank
ständiga
dvär
1980-
##sledande
##fina
utgången
mineraler
anställnings
föreläsare
plug
##skultur
villor
scan
finan
anlände
toa
objektiv
åre
städerna
listor
hjärtans
dagbok
stövlar
##html
dor
döds
quest
handläggare
##gare
fakult
årsredovisning
rgb
nuru
skjorta
blåsa
##senhet
digitalisering
audi
axeln
mixa
efternamn
rullstol
##öf
##regn
##sbegräns
pryd
sned
genomskin
väsby
decennier
konkurrensen
##vari
mötas
fundament
gynnar
##stång
olik
itunes
jörgen
urvalet
##ropp
glitt
tummen
##oma
utfall
holland
##43
##visande
högtalare
##tidningen
våningar
firas
##indrade
##shantering
magisk
ansträngning
##avor
##vern
eskortt
överläm
##ekom
skattem
stug
metal
##stillfällen
lättillgäng
##stips
snyggare
blanc
fasen
##ösen
##hållen
##ituationer
##försäkringen
registrerad
förklaras
##oter
##pin
kista
körs
##änningar
tipp
stadium
kloka
##läm
##fartyg
##somhelst
påbörja
utformade
elec
##färgad
##åverkan
frös
gröt
vårdnadshavare
säkrade
##dating
##undervisning
börsen
låst
polar
##bris
##kallande
kollektion
överstiger
##strid
hair
etikett
varifrån
märkliga
korrekta
depri
##smuse
gode
smälter
kompos
magiskt
visades
mv
hosta
##vandring
västervik
##ship
##månad
##ketter
potter
drinkar
##eli
bakat
##spär
publicerar
påbörjas
laddat
socialtjänst
irland
ingredienserna
##lång
##målet
luci
##aktiva
pontus
bekostnad
##premi
attity
charles
tillåts
destination
kard
##familjen
sexual
opposition
##andena
reglering
inger
##havaren
akademi
branden
arsen
fisket
##ärerna
otaliga
slip
##glass
tyger
##blank
hässle
svalna
##slutning
handduk
gent
amatörer
mottagaren
##illen
grev
##spaket
slant
målning
placerar
otroliga
förste
##put
##samman
omgången
synonym
arrangör
volont
89
##ångest
vittnes
tvingade
medvetenhet
mentor
inrikes
användbara
iofs
##löv
bjöds
agenda
socialtjänsten
##adens
köns
##arten
präster
tapeter
beskedet
schamp
##gard
##sledam
##guide
flyget
separata
timmarna
förutsäg
mut
molly
scb
ergon
quick
lindberg
rättare
jackpott
rat
bräd
##konsol
litter
chelse
assistent
häkt
##poj
tort
tripad
inkludera
side
##prå
random
ryttare
tvingar
mist
##graden
##utöver
automatis
inhem
cirkus
stul
skjort
lagstiftningen
##usal
##ständighet
##nyheter
##trycket
bjudit
framträdande
adop
ramar
bluff
lilje
##sformer
wester
glitter
##ämnd
mrs
resort
weekend
slås
tvål
frukter
##mående
reading
##innen
plånbok
förmedlar
ungefärlig
ios
anat
vågen
villig
reservdelar
fryser
hyllan
samtid
åtkomst
##räkningen
community
foundation
puts
##ysst
infördes
föreslagna
offert
ideella
##elekt
##frukost
##ysnings
##everant
atmosfären
slu
gung
##edig
##invester
avstå
henry
##kir
2018,
handels
##äva
lidingö
investerings
##får
##andets
gånga
orim
##eklass
kolleg
trappa
långtid
ansluter
förebild
rörlighet
medborgarna
##war
##dav
nit
##tagit
##öcker
##dörr
brid
take
gon
##dragen
hyster
hembygds
##:10
läroplan
klor
antyder
sala
föreslog
liverpool
##500
##stationer
##ovic
rap
##trädde
##ställas
lives
##hoo
bokhy
##föräldrar
albin
studierna
utkik
rabb
olämp
kikade
dyn
agil
rätts
kvartal
plag
klapp
queen
kamrat
jättero
utflykter
##älv
stök
hårig
kapell
##brytare
bekämpa
ån
##möbler
##klänning
anpassar
gp
brit
juryn
##uven
##vidd
##faktor
sprids
bidrog
##kil
klippte
lyfte
andet
##fj
##even
räkor
javasc
mont
besiktning
##73
avgång
uppfin
ledsagare
allti
indel
analysen
lokalerna
sushi
##beloppet
nycklar
inskr
##balken
bolagen
tävlings
equ
köpmän
boenden
oljor
helgerna
##dsvik
äpple
anordnar
##ifikation
##riper
äckligt
tvättar
locket
##onden
lida
konstverk
javascript
##ysa
##utsikt
ks
omvän
koncernen
länka
samspel
anpassning
pornografiska
diska
motala
##märket
renovera
##tråd
kejs
utsett
##emark
karaktären
hotar
chicago
sektion
##studie
kraftfulla
##mässiga
främjar
inbyggda
3)
##visade
vetat
tripadvisor
sofie
##sekonomi
föregång
##merade
dance
bebisen
##minskning
afrikanska
tarm
exploat
röntgen
upphäv
simul
##host
jackpot
sydafrika
lss
ericsson
blåst
##centra
snurrar
stygg
##förpack
campus
##spolitiken
##hörd
cyber
fördelakt
##rafiken
##room
brittisk
välmående
sundby
demokratin
##bollar
uppskattning
rumän
onlinespel
kontrolleras
##ason
other
retor
korrid
medelåldern
17.
##ellack
animer
##lagad
specific
arbetsdag
##sintress
återfukt
arne
##cion
##entrepren
fleshlight
fibr
##fektion
kärna
vårens
##produktionen
##ockar
##splanering
##mötet
##.......
vecko
bertil
fördjupa
rub
åtton
##roppar
trösk
##etid
kallelse
ranking
naglarna
välbehöv
##röd
##esome
uppsats
##kerna
1995
lyckan
18,
aterbetalning
##flaska
##gregat
pitt
veckas
grenar
##sval
whisky
cola
utmed
##övervak
programmering
##count
##givningen
surt
pressen
underliggande
lise
uppstått
genomförde
romantiska
ställningar
##dö
rolf
idrotts
kalifornien
##cit
annie
##sförbundet
##arkitekt
terapi
##budget
##ällskap
verksamhetens
statlig
motsatsen
##strän
medföljer
##sstyrelsen
fattigdom
spåren
##död
yes
ded
pyssla
14,
arn
kompress
##emo
##lappar
##oderna
grä
##posten
helen
##mis
mellanöstern
##världens
intet
kroatien
snackade
fut
##läsning
##eka
klippt
gärnings
##eo
heart
##mg
flöde
##spriset
byt
##visst
örter
rober
oväntade
##kligen
framstår
grupperna
##present
##eon
##athan
lotter
##frekvens
hämtad
##sprotokoll
dataskydds
hälsningar
sjuksköterskor
##ocket
##middagen
prag
våglängd
15,
kritiken
##1-
##komna
times
protokollet
kriminella
beslöt
erhålla
fjä
wahl
fläck
spred
realtid
vännerna
samhällen
opinion
##räde
##sska
petra
cour
##åringar
##usentals
##"!
hk
upphand
vattens
##element
bekvämligheter
##ålder
bergman
centerpartiet
löpar
##fran
fördelas
pernilla
prostituerade
##skostnad
tillgången
##"...
##uropa
samlad
välkomnande
##intill
##osten
##rörelse
skrivas
##träng
ilska
zlatan
right
löjligt
wien
packat
portion
möjligtvis
vida
##iction
utfär
##nades
fitness
balansen
förvirrad
höft
utland
fashion
översyn
hsl
rike
##ämmas
rikta
kämpat
alternativen
jämte
lutar
francis
##sekreterare
presidenten
##enheten
##sköldsvik
späd
##rav
syntes
##östra
viset
##special
jurist
##lokal
fröl
champions
ersättningen
kandidater
bagage
##prin
##meddelanden
##").
territ
busty
ridning
kå
##ians
lastbilar
satsningen
protest
##umen
raket
modersmål
##firma
gross
asylsökande
förordningen
##62
stöt
tvist
beslag
##hin
gry
genomgått
varmvatten
##stund
balsam
##användare
svets
bortsett
##cho
##uppe
##släge
brunt
tavla
suverän
sjöar
tros
##glädje
mögel
##cont
##flix
tillåtna
##skrig
1996
vika
zoom
##74
aptit
model
personnummer
attrah
ic
smet
segrar
monet
mattor
company
förankra
stängd
ulla
##debatt
läxor
uppkopplad
krisen
berodde
uppdaterat
gångavstånd
gedigen
prester
anländer
häck
fetish
tycke
hets
mata
filma
##ikor
mäklar
##ommun
hjälte
lana
teorin
gränserna
juice
säsongens
smartphones
##verkstad
aqu
läkemed
##kabel
kanter
teckning
studion
strukturer
##plus
förtid
flytten
besöks
korten
lanserar
##äsongen
användbar
rådets
avgräns
##olyck
fost
agnes
brevet
##politiska
fängsl
##kryss
persons
obligatoriska
pelle
fiender
åtgärda
friheten
##agar
skritt
mervärde
age
insulin
jättest
##förbundets
genre
utseendet
##möten
sved
##ligh
##issen
frön
##asp
gardiner
margareta
##bien
vännen
aling
(8
utsökt
generera
miljontals
dur
##talade
guiden
##skunskap
örnsköldsvik
kungsbacka
förfar
representerade
kliniska
väljare
kikar
anar
isak
##knapp
##stars
elias
tyres
##värdiga
##fflor
mim
magi
##skrivare
fyrk
expansion
tempot
sällskapet
##fys
##intyg
##aria
##prat
mcdon
räknade
kombinerat
##perfekt
##derades
billan
##aliseringen
marknadsföra
sökmotor
pas
återgå
efterlev
##ettan
##skärmen
kb
##änkar
##sbehov
svars
smöret
##vanliga
naturreserv
self
##ändring
katolska
drömt
lyxigt
snabbast
##sorter
årtion
öarna
spontan
juridisk
ted
ross
kopplad
asp
##ives
dröjer
##häft
##nack
##lådor
indikerar
kvarstår
relax
##esultat
tranny
##sj
##odd
##riska
utskrift
vegetarian
dylikt
##register
xham
spänningen
copyr
kolum
##ippi
häx
förberedelser
piss
##savtalet
förberedd
gömmer
2008.
råkat
secur
##fotboll
##corn
envis
##wor
zomb
äro
öppning
cho
berus
vårdcentral
96
##marie
titan
anmälda
rt
enklast
##rice
påpekar
lapt
figurer
syndrom
mottagning
uttalanden
##paj
##företagare
##sjuka
##kompisar
slov
##usalem
avsak
damen
##bätt
sture
fragor
umgänge
förstärkning
##frest
slita
legendar
##skräck
##uterade
jättefint
glam
tolkar
önskas
examin
återställa
##siff
dyl
##helgen
##urope
mårt
pink
meddelas
bedömningar
permal
förhållandevis
fäste
bilens
##sindustrin
datas
##dekor
##songer
netent
skaffar
kvalitetss
##ales
lår
haver
1994
köpas
cart
##balans
##likation
handläggning
transpor
genombrott
##läget
racing
when
fälla
månen
tveksam
röstade
förhindrar
##dagarna
##elig
##staten
finsk
tight
trädet
utvecklad
##olv
löd
##chel
förbru
arrangera
##driv
strategiskt
##strukturen
restrikt
anslutna
##frist
##smask
##cur
segt
##ämda
##ining
bmw
uteserver
vänja
bollnäs
ökningen
lugnet
6:
tits
veron
rasmus
##strump
arbetsdagar
otrohet
ifrågasätta
latest
utvecklades
bestämmelsen
omvårdnad
##nämndens
##berry
##gering
utformas
pluggar
##ifierade
76
förtroendet
##delnings
sällsynt
sjöfart
4-5
jar
blåa
kognit
skärpa
##operat
olycksfall
bita
stannat
##frön
napp
##emellan
alfred
motsatt
tretton
genomförandet
tacos
##spelning
##anmärkning
överraskad
ojämn
invänd
rymden
regnbåg
##ingsmedel
trelleborg
återvinnings
oroar
utredningar
sannolikheten
hälsning
##kår
##bedömning
##naren
##sföreningen
synnerligen
generösa
barna
förar
rann
pärlor
syds
bröllopet
##klaga
pappret
förtviv
sans
karaktärerna
##-24
##rål
law
##ändringar
##gårdar
osann
they
vetenskapligt
drabbades
oskarshamn
##rust
återvinning
450
lösas
avlägsna
medarbetarna
tales
bostadslan
##människor
##kärl
nämnd
##icia
##untain
turism
inträde
1993
##ländsk
##pil
##snät
##dju
##lans
nackdel
##ume
##imera
bisex
väljs
begränsning
fox
##biljett
##iknande
##överföring
lojalitet
hänvisning
##uit
##loud
dc
##sses
popp
slickar
1-0
4,5
fish
##abl
##burit
snurra
läros
vital
brygga
spontant
undersökt
täckt
##klubbar
##aks
##signa
klyft
funktionalitet
##stry
hektar
jonathan
kartläggning
##pdf
avbryta
song
##kyrkan
spetsen
lög
##fjär
##komplic
överlever
steve
biff
mes
##bling
servit
märklig
brilj
##frågorna
färgton
##dörrar
skäms
vandrarhem
##span
grundar
författarna
förhandlingar
##nya
##,"
boden
solglasögon
dial
##dörren
spegeln
doftar
kvaliten
##ktligen
jackan
sparat
budd
omega
hejdå
lagligt
onanerar
hemmagjord
värdepapper
##fron
nova
skruva
underhålla
##mågan
##skepp
antioxid
onekligen
diskuterade
##asson
##sbrott
successivt
eko
##sfunkt
förfölj
begränsas
livskvalitet
badade
tjänsterna
injekt
stimulerande
kläds
tolkas
##plo
##drivna
föref
fantasin
disc
sämst
hotellets
förnyelse
kritiskt
drömde
nyhets
växla
tecknad
självkänsla
motsats
reformer
utel
reddit
grönsak
behaglig
elf
stö
täta
interi
##färdig
##säsong
slutliga
blandningen
copyright
skillnaderna
somal
ändrats
##ther
uttryckt
msk
uppkommer
styv
västernorr
##:-)
##bön
bly
jägare
tårarna
##otes
jerusalem
fia
1960-
anteckningar
spelverksamhet
skånska
snyggaste
överföra
##hai
bluet
nyaste
ovanliga
##smär
ral
##menyn
##fly
årlig
barnvakt
##stod
ått
öres
jod
dildos
##ention
##udi
antis
omväx
godnatt
dokumentet
##assage
käften
juridik
ansikten
##":
stater
cyklister
##http
sjönk
bryssel
människo
##positionen
##körd
##verker
befinna
varelser
##pek
transfer
påhitt
datings
##sår
sistone
hamp
valen
stängs
räkenskaps
##30.
påpeka
sortens
sparade
översta
stoppade
##ansvärt
projektets
photoshop
ambiti
##rics
penn
blues
klassrummet
##slagna
style
hålet
##sköterska
kristdemokrat
(5)
meddelandet
medverkande
kompletteras
##utsch
tvärs
elak
indisk
sammansättning
##smyndigheten
##ornet
provar
##språkiga
friidrott
##klicka
jubileum
fritidshem
immunförsvar
beskrivningen
91
##mall
likadana
##betet
busk
##sim
modellerna
besatt
heldag
##blommor
##mie
röstr
philip
europeisk
1600-
massvis
##spromen
rättigheterna
##sbal
dogg
##ierad
omed
oföruts
gin
framkom
falsk
hydra
syften
utrustningen
utmanar
rösterna
siste
kunders
sjöm
elvis
##ti
plånboken
##:15
##blås
långvarig
ligan
##partiets
olagligt
konsekvent
obehagligt
moped
medlems
stört
##revligt
tillval
ansluten
konkurrenter
röj
härmed
spisen
nyin
okomplic
kvantitet
##sskyd
##öarna
detaljerade
##splatt
chelsea
skallen
terrass
stigande
##äsa
##radio
meters
aktiviteten
##hat
##resp
frim
mosk
hänför
femtio
ägnat
stöttar
dold
arten
miljöpåverkan
tillståndet
##gott
tilldelas
##miljön
sekel
slam
lg
kår
horor
tunnelbanan
##von
sjal
mellanmål
malt
julbord
##saffär
orsakade
##shög
zo
grunderna
satan
##kasinon
lata
##ventil
livrädd
överlevnad
##bevak
##säsongen
nora
trea
usel
dennis
bj
##paus
##smak
deal
näsa
fackliga
emotion
johnson
logiskt
##stro
vidr
##ttid
sb
##eback
##känslan
##karakt
värdegrund
beräkningar
oas
fren
torp
brutit
##beller
##fäl
##ellen
försör
sporten
##skön
santa
sanden
medföljande
##kk
##belast
förbl
älskare
proposition
##krig
##edning
anmärknings
##änger
frest
bengtsson
akvar
biogas
borgen
styrkan
##orry
tick
gubbe
adidas
kanalen
temperaturer
hook
leksand
närmade
certifikat
grafisk
teoretiska
orm
##oto
##shir
prestera
intelligens
##umb
##skridande
ink
##benhol
förete
##mont
glögg
historik
ägt
ifråga
designad
country
fastna
knät
##bänk
håriga
##sstämman
florida
insättnings
##alens
örat
teknologi
##skoga
nitt
fingret
dröjsmål
##leken
nagellack
##stom
tell
vov
##jat
##ägar
##arth
##sbidrag
enköping
hastigheten
ärm
privatperson
färgglada
##amb
##smot
kommentarerna
image
energim
##dare
bie
##skons
guy
helheten
##gräv
morgan
sålda
skapad
tillverkaren
klämma
streck
timmer
alexandra
##inget
fakturan
placeringar
brödet
##äkta
penna
frivilliga
fån
terra
##institutet
##umul
##vensk
##ortiment
scandinav
kw
##slön
##yggande
inneburit
skattes
##fect
##ätts
mentala
socialnämnden
milan
integrerad
##skyld
sido
paprika
lakt
nyttiga
hudiksvall
74
chip
eleganta
förklaringar
lake
##energi
tillfråg
##strans
mirakel
bibliote
kanterna
bluetooth
##möj
amazon
klinisk
##jest
ngn
tyckas
##frid
avstängd
sliten
påfrest
hane
fossil
officer
ein
excel
lånade
##side
alingsås
tillhörde
erkännande
##veriges
andetag
irrit
sliter
##ningstid
besitter
##dvs
elektrisk
visk
##agerar
uppenbara
##00.
20,
##semester
ointress
saint
godare
varorna
morgondagens
lyxig
##-21
gir
prot
grabben
beklagar
##read
2-1
avslag
mobiltelefoner
ös
help
väckt
systrar
lindra
##ized
##jpg
##upplevelsen
##pter
(3)
##rekord
utvecklare
cher
models
oändligt
lime
area
bern
low
##stämm
##åp
##ologer
slutgilt
lucia
osannol
##...!
justeras
fastighetsmä
skogar
##osamma
eh
premie
##61
##uden
quality
texterna
släck
##intervju
netflix
##rost
bäcken
garden
bädd
siktar
##bben
##arell
##rädande
donald
otillräck
ava
foot
continue
instruktion
pov
##talen
iska
hart
##eby
tub
hydro
tvn
piggare
primära
upplevs
skyddade
##två
vägde
handlingsplan
ern
abort
påbörjat
hemmalaget
säv
##fokus
undertecknad
sweet
##inalen
upphets
studerat
##besvär
förstor
##skrivningen
fluff
author
##eform
##lyft
illeg
dokumentera
följaktligen
medelålders
##mix
impro
pizz
##bran
##länk
utro
tillgodos
depp
lägret
patientens
förmögenhet
##ree
profet
stadig
invånarna
baj
andning
##dator
##lleri
sinnes
##ygn
lönes
##filtr
datan
skrivbordet
inleda
färgade
ofr
hahah
##metoden
lugnande
påståenden
cry
defens
kontinuerlig
sällsynta
truck
somnat
lem
whi
produktions
streama
##hans
veterinären
##umman
överdrivet
porrstjärnor
##rupp
knyt
won
insikter
väsen
bindande
##sjukdom
härnös
konung
åtanke
kartong
fabriken
malta
arbetskam
investerar
##sbyn
massiv
##filen
rykten
konstnärliga
krog
anordnas
rinna
kronan
##ågs
fåglarna
pannkakor
kostnadsfri
ensamkommande
nylon
inflammation
##silver
droppar
tuffare
terminen
raff
##växter
fittan
upplysningar
##usa
halvåret
värdefullt
förpackningen
umea
oralsex
spå
fult
##ante
abra
önskel
utskick
patt
##ituationen
##cup
baksida
heltäckande
kondit
lagret
robust
keramik
##sfulla
schack
onödan
tayl
skim
tred
spelets
radera
20.
geografiska
ideell
picknick
##åndet
soligt
inspelning
amin
##sbilder
xhamster
tempel
dominerande
##videor
årens
albert
fullgöra
##staller
hotade
carolina
ropade
tyresö
##emens
kvalificerad
##marken
##vänligt
borsta
cylin
obama
nyt
##sbord
bekämp
elektro
orsakerna
pärla
löften
##verkning
stop
döttrar
layout
##beck
färga
86
##sock
##väsen
ansvara
rengöra
premiären
väsentliga
varuk
globen
##plattan
16,
absur
slad
tidningarna
harmoni
umeås
partiets
truppen
parkeringen
##råket
##aken
##look
##ornas
##pig
##umt
ala
##undersökningar
##ådan
specialister
växlar
kompati
avkoppling
db
ambitioner
thailändska
inläm
rökning
välfärden
ef
##korea
påsar
korset
pågått
räv
jocke
mässa
jävlar
helikopter
fav
etiska
andan
mjukare
morot
##irektör
företagens
kontraktet
självt
välgör
komplikationer
föredra
##grupperna
##inredning
genomförd
collection
perform
formulera
jämföras
reflektion
sinnen
##orgen
##escort
konsumenten
häftig
romanen
kokt
2019.
hemligheter
befatt
såvida
##fredag
##iche
print
##heterna
tävlade
vattendrag
svärd
prestig
ägo
flam
erika
sandviken
##96
datumet
utbrott
förlossning
##stads
##flickor
katrine
##nöjd
kirurg
sträva
ängelholm
avgörs
lydnad
##manlands
##pär
entren
gångna
##skontrakt
##provet
altanen
comment
utrymmet
##cin
hipp
##författare
pron
twe
##ential
auktor
lucas
kortfatt
##kedjan
stekt
flygbolag
avdelningar
tjeckien
målgruppen
respektera
mature
brant
beakta
glider
administrat
förpackningar
adri
nordea
nok
fickor
skadas
jönsson
preferens
högkvalitativa
##appen
sänds
drivit
##borna
lift
nybygg
pistol
##ido
modet
##distrikt
##avdelning
exemplet
karriären
lera
skattef
läggning
kommunikationen
scout
dispon
fakturor
åber
reglerar
vanor
gratul
teatern
sånna
hjulen
anor
gabriel
självständighet
##db
evolution
vardenafil
prenumeration
besluten
vindar
stabila
försvars
##guiden
åtskilliga
stimulerar
pytt
##decimal
klienter
surfplattor
arbetsmarknads
##web
shl
##shopp
ädel
##titlar
##äventyr
##itel
##antal
miste
bortsk
sports
workshops
##sfördelning
coug
timmes
inredningen
orkat
very
lovisa
##medlemmar
streaming
##safton
skarpt
täcket
stressa
övningen
slitna
##kamrat
fordons
##ställnings
##manna
rusk
bokens
grannarna
inifrån
aktiveras
##ydliga
exklusivt
ella
svårighet
##läk
##yle
##edöm
ft
##bostadshus
lagat
formar
atel
vågat
utgående
önskningar
arvo
dikter
fönstren
kopior
cykling
tavlan
efterstr
-.
##elius
förnya
porrbilder
nam
skan
##äsklipp
lockade
grillade
##rium
storebror
ansöknings
##banden
doc
phone
kristi
torkade
##spelen
##10.
##ittande
förövrigt
##bestämm
avsett
smutsiga
##sfärgkoden
hexdecimal
thr
ordnade
manifest
återvände
utlös
medalj
varnar
medeltida
##eligt
rubb
torkt
volk
##rys
##bour
uter
##klocka
meditation
epis
ropar
##noveller
etablerat
gangbang
east
dragkedja
uppträder
##råden
inkass
molekyl
mountain
placerat
följas
örhäng
bibehålla
kalendern
dimensioner
adolf
någons
åklagaren
##inflammation
##motorer
##färgutrymmet
##ifa
plikt
riktad
##bay
skulds
bakar
laddade
frölunda
plantera
##finns
drast
##gjordes
sattes
idealisk
etapp
lii
känslorna
##adder
mottagande
##grann
smörj
##bloggar
##sär
##illade
amster
källan
sluten
gångs
seder
##tillverkare
##museum
podcast
rapporterade
##vilken
##skrivet
finish
pendel
ln
kong
brottet
revisions
skickades
käng
sick
##peuter
katterna
82
##styrning
##spark
varpå
förberett
böter
##sättare
1990
1992
##grat
##avdelningen
debiteras
kristine
##05
bärbara
seb
##dim
sher
##team
hytt
##andrag
kurserna
karlskoga
intelligent
##senheten
päron
änden
luta
##skiftet
inspirerade
alster
generationen
##båtar
kunniga
idrotten
flir
lyxiga
skapats
förhoppning
olivia
efterlängtade
(!)
chalmers
##hängare
bekräftat
samlingen
##kin
kål
##färgmodellen
##oh
jordan
ödmjuk
därutöver
tilltalande
brow
##etabl
skånes
soja
accel
fördomar
##gryn
vulkan
##verkaren
gladare
##-22
##jörer
förlov
kennet
hjälm
genererar
##sbibli
gillat
helvetet
århundra
konferenser
##enligt
hybrid
prinsessan
övernattning
läx
finansieras
programledare
oändliga
inledningsvis
30%
chokladen
medelhavet
##porten
bepröv
förlorad
kali
regul
##........
pedagoger
##svis
boxen
subjekt
blankett
##sinne
lånat
skälet
##sekt
erfor
##stecken
review
##slopp
berörs
laptop
##slund
avvikelser
universitets
acc
varvet
##cernen
##reglering
skl
##3:
##fabrik
definiera
##atum
väsentlig
autent
formel
pågick
##sprocesser
bearbetning
stjärnorna
##iana
##riktad
abstrakt
##offic
döljer
sjunka
##anäs
elevens
##behand
rymliga
välling
knullade
mätningar
kajsa
bokmärk
längesen
transaktioner
##itoris
kvinnans
rig
##ökat
##strateg
ordnat
##standard
motionen
##skälla
woman
löpare
##sombud
##spå
raw
hanteringen
hjort
feg
##shistoria
verkställande
##)-
pell
strip
öfver
diagnosen
ätt
fras
hunger
grabbar
tårtan
värnamo
sfs
##merna
blöta
pala
##lia
##lige
##benen
##giro
kryper
fikt
##spension
6-
bf
rekom
fyllas
morötter
lärarexamen
parfy
network
slogs
löste
skyddet
byxorna
##risten
payday
##stämning
##lätt
##sert
infektioner
##ödande
expertis
medgivande
skriftliga
väd
tove
salta
häftiga
svälja
rickard
##ato
snål
vanligast
##redskap
beskrivas
##face
##stop
användandet
##etti
##trött
prisvärd
##ningsbara
kreativt
fab
gdpr
sålts
anskaff
öppenhet
skåpet
##fattande
tillägga
konfir
##ådd
buffe
dejtat
moskva
tränaren
##phy
nåväl
grafiska
handdukar
rekrytera
##hugg
sikte
skiss
förvalta
bebyggelse
##hållet
innehar
##bakt
säte
vips
motivering
##läger
benämn
morgondagen
##ivan
skelett
kritiker
brad
##ometern
återkall
calle
höstt
röret
israels
exception
##issionens
planeten
tandvård
gulligt
händelserna
beskrivningar
##rix
kvarteret
nackdelen
##karl
kompetent
överträff
nad
##favor
mäkl
redaktör
marianne
##östa
did
lix
##ällan
tillsv
tröttnat
ambitionen
peters
uppror
fantasier
rådjur
ledaren
synsätt
##strad
sunt
synlig
##intern
cass
than
chrom
tipset
migration
provs
##påverkan
komplicerade
##spre
ay
##rich
raser
ypper
tandläkaren
##llor
##fjäll
klad
kennel
förhandla
domar
inblandad
pluggat
webbläs
##skinn
##familjer
sparande
studerade
##store
hemligt
utrustat
rättsliga
##fälla
tork
##örning
förvånande
##01
otto
chass
stämman
förskoll
##berättig
##bästa
svans
efterly
uteplats
##hals
trick
sömnen
trådar
##turer
mårten
true
prisk
lämnats
##dl
syra
förstärkt
älsklingen
##sö
##ffekt
##jong
skyddad
levererat
riksförbund
87
kylskåpet
förklaringen
##skönt
korru
##miljöer
gina
bevaka
##sspelare
pornhub
##ommes
försörj
##snäs
aer
tecknat
summor
hemtjänst
##givet
fynda
gymnasieskola
##ståg
klur
##prövning
reinfeldt
kopplingar
nykter
antagning
fordringar
bnp
tvåan
halvvägs
##åning
definieras
göta
mycke
vilse
gävleborg
förstklass
följare
inträffat
##circa
kallare
somliga
grundade
territor
originalet
kompletterar
fight
##bletter
loggar
arrangerade
track
tillika
uppnått
traditionen
anmälning
main
ers
bönor
obekv
##numret
skarpa
delad
omnej
mazily
sommarjobb
popcorn
##sförsäkringar
smed
sammanfatta
utgångspunkten
adcirca
målsättningen
hee
rollspel
statistiska
##itas
2017,
##zar
kinesisk
räddnings
avtryck
kuken
tungan
##ammat
ordin
sno
provoc
champion
saknades
##tig
egypt
leken
merparten
##strål
ound
blandad
##ätning
trix
##stitut
felix
oljem
gm
sanner
pedagogik
fritidshus
obef
linser
##utrymmen
hässleholm
såsen
struntar
##opat
##urn
dou
##hundar
##terapeut
galaxy
förhoppningar
##planer
tokig
##utman
lagra
##vetter
pumpa
främre
utsläppen
akr
kommand
sexshop
trådlösa
överensstäm
97
förändrade
##relat
92
broms
lustigt
klassrum
söndagar
förändrar
deutsch
##mol
demens
##formade
avel
merce
omkläd
sos
jackson
oskuld
läsas
ceremon
##strade
inteckning
rädslan
##89
##vat
73
##tunn
19.
fåtölj
##63
##nöt
##barnen
förså
allergisk
gräsmattan
7,5
markant
lucka
##linjerna
levererade
##pis
pow
fanny
knäck
frus
generös
##wen
##aliserade
##skrävande
erhåller
bokstavligen
their
ovanlig
71
##juice
ersättas
accessoarer
domänen
##moder
##orre
##agaren
medelstora
##anas
##sstat
kvalificerade
otr
arb
framföra
jätteroligt
tillräckliga
övertyga
mekanis
gemenskapen
adel
temp
stressen
##meny
klas
maff
kärnan
abraham
iakttag
diskmaskin
jet
##sjukdomar
##tail
anten
##aaa
##magasin
omnejd
adresser
##sveriges
cu
ryd
dansen
kanadens
##iak
vl
##alle
terapeut
täckning
##dad
granen
länets
##statistik
sugna
insatt
##stammar
vårdcentralen
84
husbil
##öra
afri
pund
överraska
betalningen
världsklass
##smodell
##bostäder
bakverk
testament
##utställning
fjärrvärme
minimum
programmen
ingrepp
salongen
tab
jäkligt
direktör
##vål
obligatoriskt
cust
regna
driven
##kust
konsulter
sjöst
ext
core
ocean
journalisten
##regeln
stens
##parti
orsakat
##vallen
samfund
##telefonnummer
rio
##coach
##aktiviteter
math
svam
skadat
tävlande
vivan
taktik
##ilegi
##förvar
##unchen
##stalt
eter
behandlade
font
karam
jätten
åtgärden
##emin
##sstämma
penetr
##myndighet
höjdpunkt
certifierad
##kamp
##iterna
föresprå
religiös
reception
##aland
##artade
fördubb
träningsvärk
##ålig
midjan
tillsvidare
25%
bloggat
våta
fiende
ettan
operatör
##stenen
röker
intrycket
2014,
luftt
##slokaler
vindr
ninten
fus
filmens
rörliga
##efära
##värmen
(10
vvs
minimer
##*.
nyttja
söderhamn
link
regim
skandinavien
glida
##ligan
##uppdat
##install
##how
##procent
utskott
befolknings
kio
pun
råda
konserver
wii
tjockt
intresserar
biom
föras
beräknad
utförd
fotbollen
strategisk
##näst
orsakas
##bytt
##inskt
##bull
medierna
noterade
amsterdam
färje
lanseras
landsbygd
##nämnd
lakan
##rier
##junga
##stycke
onödig
optimera
pent
opinions
##saktiviteter
wc
1950-
delades
naturens
##såg
##tsr
älvs
dår
##buffe
##ockade
insekter
landslaget
publicering
##ught
two
repor
seminariet
##atal
##cafe
##ådda
##kling
##blin
lyn
förslagen
representera
18-
edition
prövas
framtagen
såld
##formar
##förutom
##osystem
betydde
##ologen
medger
ryan
källare
tatuering
##yndig
förskoleklass
##hårig
motorer
skärgården
##hår
störande
förund
playstation
##etty
##kört
sit
tyng
##gy
bosse
svåraste
uttala
##mic
slutföra
påbörjade
these
rikligt
finansiellt
mexiko
##betala
längta
##issan
##fristiga
ebenhol
##älskare
##athon
##sökning
tidsperiod
vittnen
huvudkontor
leden
kapitlet
lundberg
##quot
costa
ludvika
mellans
afrikansk
omgivande
inspirerar
brons
källar
finansierings
organisator
krävas
##skede
världar
hejsan
klarna
sparka
kidnapp
##82
grey
inde
pride
##kamrater
hocke
kombinationer
##fing
hållning
spannmål
0%
kronisk
##åten
brus
##ssi
hobb
pok
##uktion
dilem
hong
eskorttjejer
onlinekasinon
##iotal
##åldern
olov
##reklam
seniorer
##hias
##sansvarig
ingefära
mjukvara
space
sunda
postadress
17,
öar
påsen
fraser
utbyggnad
turneringen
lp
(7
animal
rejäla
husvagn
ordnings
näringsämnen
cow
förhålla
stundtals
stjär
##missbruk
gradvis
##symbol
dröja
väners
deleger
officiell
##ikala
krä
##sklimat
mjölken
##dn
##pert
wolf
hitler
##posit
##sbrist
yrket
gränssnitt
förtydlig
##fv
webshop
rabattkoder
byggts
taylor
kudde
olofsson
trasig
certifierade
7-
##slet
akv
tenta
##sekvens
##avel
gor
##iotalet
förstärker
tacksamhet
orientering
##sfir
blonda
dragon
eliminera
duk
apparat
skänker
chan
panna
brännande
delaktiga
västerbottens
stadsdelen
2007.
##gul
##stödet
genuint
##ults
hörlurar
mercedes
pocket
##historiska
revolutionen
övertid
fartyget
##.15
##master
brynäs
strålar
beauty
disciplin
matsal
750
##bilderna
##ssäkerhet
egentliga
##utter
heja
skogsbruk
diff
rabar
##forskare
fyrkant
idio
monte
fjorton
manuell
medvetande
##väskan
passiv
riksdagsledam
löken
karlshamn
ice
bajs
ekip
ljuga
##tron
regnade
##otte
##ummi
cream
attraktivt
lego
uppmuntrar
##störningar
##oz
avundsjuk
kth
verktyget
2015,
##ametrar
##strafik
psykos
övergår
##skänsla
köttbullar
samordning
nål
liseberg
##savdelningen
dotterbolag
rytm
##kombin
valborg
styrde
folkr
prostitution
förväntningarna
brf
gångerna
belysa
stugor
##faktorer
##smyndighet
medverkan
axlarna
cele
generell
fronten
vivanza
tacksamma
känts
grillen
##oft
mäktiga
eviga
permalänken
smartare
##ansvariga
##cr
short
##hade
tjockare
overk
##arkivet
hämt
joseph
mobilt
manipul
##akon
##kakan
moon
hoppat
lyrics
lidköping
glo
arga
herman
##ikes
engagerar
##uggen
förakt
##sbank
##väldig
genomtänkt
meller
övervägande
##ädan
facket
veronica
230
##materialet
inloggning
##släger
##säcken
dramatiska
kassaflöde
nuet
omöjlig
kontrovers
##flex
100-
##mässig
bowling
published
grekisk
##teckningar
##)!
##ugn
##byggnader
bladen
hovrätten
gigantiska
##ssidan
mejla
##komster
##pappers
klippet
mördare
valparna
samlats
##uide
fots
rikedom
lurar
bränner
volymen
dubbels
svep
implementer
##iren
behoven
nynä
##afton
hier
arkiver
##lav
bandy
haninge
uppslag
scenario
##fars
##prognos
##unionen
överlägsen
moss
##?).
family
##firmor
månadens
##okl
brevlådan
zen
byar
tvätten
enkelhet
##riket
volksw
föräldraled
bitco
##resurser
utsatts
##iams
##främjande
bearbeta
oljemassage
rakar
address
lyckligtvis
vågor
delägare
uppvuxen
landat
sannerligen
hbtq
insida
##arg
obal
ordnas
ramlade
##iews
saff
stroke
##extre
##tabell
smörgå
samtida
##84
kosmet
hälsing
turnering
##ippa
clean
användbart
porten
rebecca
assister
åtaganden
individens
state
##elefon
##hörighet
oil
##propp
skip
anmälningar
anledningarna
uppfattningen
marsch
mario
inåt
pryl
volt
föräd
kloster
fördelat
##aser
##ägda
cou
antogs
##gaser
ogräs
borttag
vittnar
kf
older
frustration
##skapa
##nb
fött
bakplåt
dander
tionde
mind
muss
incit
stories
##nant
##kanal
tillföra
torbjörn
västmanland
(9
##dskt
##ather
##skul
##ender
spinn
språng
bakteri
ergonom
applikation
tek
propp
optimala
inställningen
2016,
träffats
frun
##kampanj
dominerar
##asing
älskat
solarium
lor
lyfts
muffins
öppnades
dömdes
picture
jö
##doft
##oken
rovdjur
1-1
tillgå
arbetsin
knas
akust
##sspar
##alom
##kvällar
webbas
trasiga
försåvitt
##bädd
farm
vrida
förenkla
##ace
##xen
glim
begränsar
knullfilm
avskil
upptagna
uppmärksammade
##iful
vårda
krister
##ssin
##aturen
autism
motivet
mystiska
behagligt
kopplingen
meriterande
fördes
##kommentar
framtr
tillsatt
agility
##instrukt
##intäkter
chefred
matchande
gles
canna
##/02
oct
rycka
sladd
motsatta
fröjd
kommentaren
natet
##atören
horison
##bibliotek
obligatorisk
##berättelser
beslutande
installationen
##tube
vinklar
överraskningar
##sektorn
mulliga
riksdagens
nol
patrick
lyr
##undersökningen
##kvarter
machine
högkvalitativ
råka
mejer
nacke
come
familjerna
##mund
##leden
fastställs
##sön
astma
smål
trånga
##åh
##golvet
bakre
##böckerna
pest
alltihop
ställdes
bryggan
statligt
##äggning
bråd
specialitet
adekv
jätted
##nik
billy
15-
health
stenen
travel
fångade
##smorgonen
åkesson
höjder
skakade
viol
trådlös
ändamålsen
föga
##ministern
##ues
##ikyr
excell
stella
självfallet
basil
##väggen
##choklad
vigsel
onlin
kopier
deckare
##ämnden
point
lom
solidaritet
eli
##halten
lönar
hemlagad
likheter
case
varianten
##sbro
trång
satellit
lindström
läkemedlet
omklädnings
##planering
##väggar
förband
motståndet
flu
långsammare
##myn
pie
timrå
svärmor
##fläkt
##jakten
välkomstbonus
##eh
fyn
försedd
projekten
zink
##roller
##sföreningar
refinansiering
fickan
förtjus
grädden
ogillar
##öterna
##folket
slösa
##ställelse
ståt
tulpan
##immar
faster
rörels
##böj
##dämp
sif
##ningsbar
påverkade
inval
##sker
##nandet
presskonferens
pim
liam
snea
väljarna
gårdar
utforma
villan
##konton
##postadressen
arbetslösheten
ackred
residens
punkterna
styrketräning
##idningen
charmiga
återanvän
handlingarna
kwh
okänt
buskar
segling
upprättas
självständig
sea
sörm
tidigast
81
binda
ryggsäck
##moment
happypan
övervåningen
8:
ups
tass
uppna
packning
basic
ägnade
##blir
##oria
##börden
drive
thank
gaffel
dekorera
##tte
obeg
kronofogden
sprutar
mästerskap
entreprenörskap
##bespar
genomgå
klitoris
##omy
halver
##ningsförmåga
##överskridande
##gamla
beger
nämnts
##spelaren
krama
##8:
klack
kenneth
förälskad
knuten
##kontrollen
##blic
mannens
##neby
##taganden
##anpassade
whe
avskaff
enkäten
mackor
existerande
##änka
##effekter
nässjö
ljungby
##uthyr
##jukvård
##aron
dekoration
5%
felicia
hydraul
##cium
##dusch
##aktivitet
dämp
avrätt
standarden
knäna
ungern
##illstånd
skänka
##fabriken
brutt
##skraven
bankid
##asa
##garn
##ifta
skoter
##debatten
pålitlig
##cil
##jic
jeff
2006.
burkar
##beteck
##iii
##övar
medeltiden
beställningen
sigt
oundvik
informerade
givna
strunta
belägna
välgörande
partiledare
trosa
brottslighet
##märkt
##life
##uman
##frakt
4000
vete
lixom
spion
pommes
företrädes
orättvist
##tekniker
förfarande
dill
##verkare
väntet
städade
##hemma
skärp
temper
gulliga
betalkort
konversation
##atiken
##besked
##kassan
##mig
hems
need
later
dykt
specifikationer
5-6
##slösning
2-0
##avdrag
nyårsafton
94
##cupen
atom
lamin
skrämma
solig
romantik
kle
##sservice
##storm
##anders
##uz
job
friend
##aliseras
##steras
lingon
garantier
eco
bruksan
sle
dagbladet
redaktionen
kollektionen
##verna
reglera
igårkväll
automatiska
promenaden
standarder
kex
never
paulus
release
pion
varierat
biologisk
portioner
##party
tömma
feel
logotyp
10-15
bedrag
##bjudande
sålunda
förbehåller
presentationer
sjunkit
hungriga
labb
spänd
##mätning
stjärnan
##fp
##nets
ackumul
sexchatt
##jamas
html
intressenter
omsättningen
laur
roland
mässing
trailer
rekommenderat
##vinna
akryl
brydde
högstadiet
##alin
##stårta
##författ
seo
##löpande
foll
badet
guider
watt
living
awesome
##nd
1200
krävdes
##ymnas
gef
stativ
bolags
stjäla
skrivare
attraktion
björklund
marx
##smetoder
välgörenhet
##igan
slitage
befogen
##ycklig
järnvägen
booty
rasen
sångare
##)?
bostadsrätter
1,2
##vägarna
täcke
flygande
apost
fotografen
föreskrivs
##rand
cen
##skruv
##sbedöm
inledningen
swish
perfect
##mässa
stup
erhall
##stillgångar
credit
prioritet
##92
värdera
misstänkte
##sbad
##museet
etta
##fronten
förmånen
meddelat
vinterdäck
förvånansvärt
jävel
nästintill
##väp
volymer
control
tillämpar
##mant
deep
stone
estland
trappor
omställning
lip
legg
åhl
magic
emilia
##deklaration
facit
entusiast
hastigt
##ods
folkbok
materiella
evenemanget
lm
prisvärt
trådlöst
musikaliska
gil
faciliteter
soul
lögner
mah
spindel
##bility
##forsk
##edalen
däremellan
##ylar
##örda
kompli
gymnasieskolan
xxl
jers
anonymt
bosätta
##driven
satsat
macka
##))
bänken
kvitto
övertygade
länkarna
##sspe
##ssamtal
avskyr
uppgörelse
town
byggande
hälsosamt
högskolor
konflikten
kommunicerar
##!),
##besikt
belöna
##mattor
pigga
botan
åttonde
överväldig
##ingo
sexlek
airport
fräl
solar
varvid
illustrationer
##rets
boss
eder
radar
##ides
gråa
installerat
##ralen
slutresultatet
vasal
förefaller
##ädet
##henburg
jämförelser
kreditvärdering
dricksvatten
##trade
succ
kling
hemmafru
accepterat
tryggare
7:
##välj
##väskor
##esterol
sången
##kostnaden
williams
##förvaltning
bult
nykom
skräm
sportlov
översätta
##usias
hjal
kedja
marmor
##orin
bemär
humöret
bryts
##ripligt
hyllor
connect
kraftfullt
vinyl
funktionella
identifierar
forna
historiken
##rol
##sporten
historie
genomsnittlig
uppmärksammas
apro
##schefen
regeln
studiebesök
luther
oförän
##cykloped
happypancake
##gärd
hovrätt
härnösand
220
##konsult
19,
vykort
kungälv
huvudrollen
##korgen
behöriga
##87
gullig
ikke
##flaskor
bruten
filipp
##artan
resultera
stötte
prioriterar
##zonen
förev
binder
hängande
astronom
##örn
##vädret
strapon
sco
rundan
bokningar
misstänks
union
förlusten
inspirationen
pedagogiskt
byråkr
##fyllning
ebenholts
skådespeler
jerry
handjob
parkerings
clara
##ningsuppgifter
blött
motverkar
##kaler
##farliga
reparera
25-
färdas
lusten
##nek
##gäster
crazy
kad
bedrägeri
##sdata
tiotal
jätteglad
bbc
##sfrågor
##kund
##field
tradera
vansinnigt
överlevde
##tabel
##placering
##char
doppa
cumshot
kate
komposit
magnu
2.0
föreläsningen
polare
##övervakning
##derats
##kalender
berglund
utgivare
##minne
outf
skyn
svalt
utesluta
förberedelse
1.1
skäll
jonkoping
##ilog
21.
##uddar
röven
##varv
(6)
##sefter
trio
##paketet
##fonder
##bringar
troende
regissören
hing
account
cand
ivar
skot
sagan
tillhöra
markerade
medicinen
21,
##odden
##tröja
wide
fjällen
privilegi
skottland
1991
##support
##slö
##rett
##byten
döms
centra
svänga
museer
prestationer
lättnad
nynäshamn
##ience
giltig
organiserade
##joy
läkarna
improvis
##world
cens
påträff
speltitlar
fås
##johan
samtals
##skäl
skaraborg
citer
##stret
affärside
charmig
apparater
tävlingarna
240
dirig
##dubb
vits
borst
rörlig
share
##ief
##amilj
kompensera
##round
tidskrift
missnöjd
överväger
respekterar
##ianska
testas
formellt
eker
kinky
##gårdens
##mens
edward
konfron
##skas
##ötsel
pill
bäddar
rabarber
sundbyberg
##rie
##ukos
motstå
prästen
sydost
potatisen
visu
stöta
##entusia
frågeteck
##ssex
##pest
elaka
##-10-
##olas
##påsar
handskar
regissör
förverklig
##konstruktion
##brytande
##wo
hälla
skynd
##alag
##grim
höjs
förbundets
##-23
derby
släcka
plattformar
storg
besparingar
lukas
lyckade
skrämmer
sporter
åskådare
skapel
chaufför
talanger
upplägget
##shall
poesi
innebörd
artiklarna
##ebel
##sbyggnads
inhemska
bildade
looking
juridiskt
irritation
cad
dessert
tillmöte
understry
##email
allehanda
##sskyldighet
joy
utspr
klipper
entusias
##sprov
kommunalt
hjärts
sträckor
##.).
låå
##rogen
..."
benäm
brevid
listas
skinka
##iseringen
##sprincipen
radhus
certifiering
äggen
bergström
##gett
älskad
202
eran
##alande
inbjudna
##[?
##liber
##plugg
måleri
hyran
bonusen
##hun
##halv
seriet
trogen
##bubb
partiklar
neråt
romaner
utbetalningar
snurr
släppas
utgjorde
##ivaler
traff
salonger
strängnäs
gothenburg
##rea
bock
sände
tvättat
utförda
hotellen
##teri
##nesium
showen
pott
##sfrihet
vagina
folkhögskola
sorry
balanserad
leave
attityder
dramatiskt
helhets
##emit
##inor
reagerade
förfrågningar
##plans
uttrå
##ope
haj
förenade
bov
mobbning
##ants
fals
strategin
##autom
##paret
kedjan
utförts
tillvägagång
domina
##ävlingen
klädsel
skiftande
liga
obehör
mobiler
ullared
ljuvligt
yl
##ving
##vilka
svek
tjug
##sverk
konspir
kärnvapen
##matchen
förfär
förned
##brunn
lysa
##pumpar
spott
obegränsat
designa
skruvar
##tävlingen
huvudmannen
##egas
##förlust
tidsbegräns
##orns
##spsyk
antagen
västkusten
##torget
besiktnings
##jorna
stämde
parkera
framstående
obet
svettas
manu
sigtuna
närområdet
##ough
##paciteten
##bind
steph
mångfal
fritiden
förekomst
vre
##ampor
##emester
överlåtelse
ernst
parlamentet
åtgärderna
sötnos
ingången
skrifter
reparationer
elektroniskt
##yds
greps
begärt
western
##defin
modig
trade
installeras
mäns
miami
regionalt
potentiellt
innehållande
kännetecknas
tillhandahålls
##duken
upplagan
##leverantör
##ctive
##lander
armbåg
##ssamhäll
lord
##benet
uthållighet
trakten
navigation
förtroendevalda
lym
uppsjö
placeringen
avhandling
utformningen
hygg
##yna
tablett
bunt
ritu
rökt
citrus
md
##bränsle
korsord
kliniken
##följd
förbannat
manatliga
eurovision
acceler
arsenal
rasande
jättefina
rekomen
##alltså
ritningar
upplysning
##watch
##deltag
vantar
##lösningen
zie
##följa
migrän
##lamentar
tvättstugan
giv
its
representation
ds
irl
##ätska
##mina
närmre
måndagar
leveransen
sofistik
165
koh
incest
##.2
talk
eddie
##marnas
herpes
uppbyggnad
##lossning
förbjuda
spelbolag
rapporteras
##basen
incitament
gruppens
slutspel
påstående
##prop
fikat
hälsok
brorsan
##texten
årstid
läsåret
transportera
hetta
##stidning
shoppade
förvåning
kontaktade
etnisk
##3).
##kors
##zing
mölndal
tvivlar
##derings
##optimer
minskas
fortlöpande
##20.
##årsju
torktum
kommunernas
##neut
##spra
##spåret
djuret
##skostnaden
sva
oden
strim
webbsidan
verksamheterna
wr
anony
snäpp
vittna
##förslaget
skidåkning
##ints
solens
producenter
##tainment
##alan
beska
gurka
##antik
##oblig
lönn
hb
##ramar
vänstern
styrelsem
##bort
bål
kompetenta
alger
skippa
civilis
nintendo
övervaka
##rö
##50.
##panelen
##legg
##rey
tornet
värnar
avsikten
flyr
devel
nutid
skämmas
volkswagen
##ositet
docka
##kompetens
tyr
skrym
lanserade
ifrågasätter
klister
naturreservat
##bords
screen
lägenheterna
##älven
bant
smidigare
ivrig
virgin
kd
##centraler
##aku
2013,
kondens
stämnings
##måste
project
teckens
##idag
##priserna
mk
##farten
tokyo
uppriktig
been
masc
skeptisk
##kulture
lättaste
östermalm
##pm
ört
##olley
seglar
uppvisar
skolverket
emitt
chockad
stängda
kostnadsfria
uti
prevent
turkiska
designade
##niska
casual
giltigt
försörjning
rubriker
valberedningen
uppträda
##ätare
sorgen
höstter
##kins
##huvudet
##snittet
nye
##fickor
äktenskapet
##ekreterare
##äsch
brocc
marock
##vana
ljussta
##skatten
städar
näringsid
funktionerna
##rod
##topp
##skonst
##blandning
##aktivt
resulterat
engels
konsumentkred
##skit
återspeg
införskaff
##udde
haf
diamant
##nier
atlant
##sledning
besvikna
helsingborgs
därute
kupong
kalsonger
skriftligen
##git
kumla
money
räddar
bidraget
tvingats
förekommit
##pelare
utomstående
tecknings
espress
upplevas
promenerade
##artad
##kanalen
##mäktiges
friskvård
##kern
hotet
flerbostadshus
##intag
kvist
klinik
förändrat
##ameter
##mätare
extreme
oförglöm
##mäster
##ities
systembolaget
delaktig
bulgar
underligt
##väll
##riter
smile
fäster
hävdade
segment
oskyldiga
uppfyllda
##ävlingar
##finalen
solljus
sexbutik
komplicerad
innovationer
niclas
försöket
##page
alv
kungar
tänkta
älvsjö
##-31
brann
räckvidd
vilds
apropå
birger
sammandrag
skräddarsydda
##sbild
dala
lanade
åhh
##sidig
##elektron
signifikant
##ulan
kuvert
skildrar
muren
##redovisning
skilsmässa
arbetsutskott
viktminskning
##..)
videop
catering
stryka
vandrade
##rådets
magaz
##månader
träffen
konjunktur
vallentuna
80%
väldig
kvartsf
karakter
##gur
##hälsan
blood
##casinon
larmet
reform
lördagens
utställare
procentenheter
tillfredsställa
andy
danny
zeeland
föreställer
##förel
##vinst
beige
varva
frisyr
##situation
förbättrade
##has
##hong
manader
trevligare
flagga
##open
lyster
stimulans
varsel
installationer
mapp
mort
##itära
omtyckt
magnesium
ärr
pyjamas
invigdes
aktörerna
galleries
skandinaviska
dys
also
2012,
tos
##ollen
aktierna
konsumer
##reppet
boksta
plantor
middagar
##sköp
logik
orkester
förklarat
vp
mosa
burken
ingvar
##kell
##safe
upphöra
##gaming
milda
jobben
apps
##bokning
navigera
skaffade
vinnarna
oupp
packar
gustavsson
##täck
bevitt
värmepump
aktien
rymlig
##prakt
omslaget
åklagare
##saft
outlet
slappa
verkställ
distinkt
##dals
geni
hass
##hos
gudstjänst
trivsel
vänligt
skrivelse
plattformen
##pern
höjt
kissa
sommartid
##timmar
ingemar
instämmer
tryckta
erkänt
produktiv
införandet
ea
riktas
framkall
##fragan
bitti
supple
begreppen
jämlikhet
våldsamma
realistisk
83
##porno
riktat
missförstånd
##kador
##ånger
tomte
revisorer
##beskrivningar
nybl
tonåren
utställnings
spiral
##oid
repris
ledarna
##avfall
philips
##sspråk
krämig
##provning
hundens
##derlig
##förvär
sökanden
magnusson
förändringarna
##kanaler
##aliteten
stigit
omöjliga
instruktör
heav
stationer
siden
träg
##fic
läka
skikt
skicklig
##-27
##princi
hurra
utskottet
say
startsidan
cover
handfull
cupen
svänger
monument
vartannat
måll
passat
skickats
tidskriften
##ssal
bredden
skeppet
anmärkning
årig
lovet
##ello
besö
dödat
förvaltar
##liet
nyckeltal
blodsocker
##lägger
omtanke
francisco
framställning
##ssats
##kompon
linde
##universitetet
##2).
flät
##lappen
flödet
rektorn
transparent
utvecklande
boobs
utlan
luk
morg
delik
strul
jackor
##scentrum
otrogna
hursomhelst
##stillfället
##änga
##oskop
stekpanna
vätt
##borste
allen
##sanalys
##boo
avd
##94
hede
ceder
skakar
handbok
tvättas
peru
betalda
##iano
##smid
vincent
##call
måns
styl
lyhörd
parallell
/.
pärl
rekre
införs
nature
absorber
dyk
##ansvaret
försörja
fd
festa
##kameran
sympat
åldrarna
aur
idioter
godsaker
##otto
hc
cuck
kablar
##utredning
##97
ziehen
bestämmelse
fk
hua
pallar
hållbarhets
sims
photo
reducera
uppgradera
pojkv
fräcka
bristfäll
hul
##quote
bistånds
##.00,
##många
##geringen
kusiner
##arrangemang
plas
##policy
lärom
skate
tunnelbana
kungsholmen
##jorden
specialiserade
skvaller
##oda
##elen
skicklighet
toppa
läppstift
ket
noterar
##smys
##shjälp
tugga
##evision
##gle
gynna
förstört
nordamerika
##uum
posta
konkurrera
dispens
##emjöl
bokt
clas
farväl
träningar
##årta
secret
dt
thro
kunnande
##jak
##real
##piller
oslag
soliga
inventer
stressade
##eknik
carro
gärning
analyserar
mastur
ämnena
skyddande
##idera
förlaget
arbetssökande
##idi
##förstär
betänk
##flicka
dubai
övergången
##befolkningen
sammanhängande
##.....
dröjde
plattor
webbshop
sie
förint
antog
nedgång
%)
inreda
överensstämmer
##enti
kids
uttryckte
miljöbalken
doug
träda
våldet
hustrun
underskatt
##tekniska
##orca
öste
hämnd
yttrandefrihet
alg
sits
##styrkan
##buren
tunnelban
förteckning
##röm
boston
ljuvliga
rama
skits
##ordnare
kokar
massör
jordbruket
svagare
kryssning
2018-11
undervisa
tillverknings
obest
gubbar
##blandningen
chin
lördagar
stenhårt
##personalen
##lers
betraktar
##intens
bagaget
prisklass
##ulor
##britt
##eslag
##prise
serum
skattemässiga
rs
sytt
blund
flock
hasse
iså
kvalitativ
##chefer
schakt
##apore
##bärare
porriga
inställt
skrivits
##sprojektet
40%
sagor
105
hof
##edy
kommitten
psal
##försörj
##ändning
underskott
sega
anita
rödbet
miljövänliga
bvc
ryms
##stycket
massiva
paraply
utmärkelsen
låd
anordna
##ositionen
beautiful
krukor
##tall
byrån
destrukt
##bh
ridit
bunden
fenomenet
##blo
köping
skärmar
sponsor
vinsterna
intelligen
ås
##nitt
wir
luktade
##anns
##iley
lukten
motorfordon
falk
uppmärksammar
rörelseresultat
##eing
vitr
likabehandling
jättev
rune
##hoppas
##umtion
hördes
lurade
##eftersom
##erbjudanden
uppdateringen
rehab
fullo
double
sparkar
93
strap
##utbudet
christop
förknippas
förhållandena
knuff
helige
smidiga
vasteras
kladdkaka
virtuella
##nabb
evel
##skivan
lagens
roberts
västernorrland
sakkunn
tillverkades
##ostat
liberal
undvikas
insättningar
snacks
utsedd
lungt
dunder
uppnår
ändamålet
kortsiktiga
##ficka
##vilja
##ängar
reseb
think
attribut
utanförskap
jult
eliza
grammat
##fört
##gers
elbil
talare
chatten
##irs
##otin
##skod
##biten
##slokal
krossade
akuten
mingel
personens
pinnar
070
##änkning
##ikatorer
##profess
##slöshet
winter
försenad
trovärdighet
bios
##förordning
hyllning
indexering
##haus
##övr
änglar
förbindelse
dosen
utlåt
##icken
berörd
perspektivet
elnät
ögonblicket
##tras
rys
##träsk
##ällskapet
12-
krypt
##förd
1989
##straff
kväve
##-28
six
ragg
diamond
##ebyggande
märkning
mcdonalds
krym
klimats
ansikts
forsberg
oönskade
genomslag
målningar
10:
pyram
##betalda
färden
##samhället
falköping
förlängningen
indones
european
panor
halvtid
almedalen
kalcium
##fog
##ismens
natal
rättegången
verb
vegetarisk
tangentbord
##gavs
invas
##utar
creative
symbolen
##villa
##prover
##6:
sjung
ct
haga
##ammator
kastas
beräknat
##isses
bälte
reality
uppfattningar
##nn
gunn
isabell
2010,
##olt
kalv
eslöv
spelning
intervaller
omedelbara
##region
psykologiska
##jour
##flöden
lundgren
tillrätta
tillämpliga
##rr
##domstol
##sgående
inbjudande
funktionell
##hant
mittfält
undantaget
införande
##asi
##etto
inriktad
flat
##aturer
alarm
familjel
##öö
##kre
##amente
##komlig
reply
valfritt
kapitalet
##jamin
##historien
fredagar
##ston
ofrivill
inspelningen
##pist
##rutiner
##skalen
##damm
rin
inta
saudi
rösträtt
anläggnings
definitionen
##bonn
öra
##andag
selma
bevakning
##bens
##ästt
##höjden
reporter
##ifikationer
##1).
dee
häller
arbetsgrupp
spektakulära
julp
punk
osäkert
wen
##roman
myser
biträdande
drivkraft
##sköna
utefter
semifinal
anvis
betonar
bortglöm
gambling
##elös
##00,
halter
personbil
##gåva
##diagn
##wards
##stävling
filtrera
förekomsten
laktos
player
angelägen
ramlar
##teckningen
äldreomsorgen
ramav
##direktör
försent
##kapten
ogilt
vårdgivare
hjältar
nedladd
schysst
gryta
helene
##hållaren
protected
challen
försvag
hårdrock
##mh
##kassa
biologi
bjur
##centret
storyn
##läggas
luftfukt
segla
avvakt
##materi
apart
advan
bota
##lind
hjulet
pulsen
##imo
vadå
höjdare
befintligt
##världs
tecknar
uppfrisk
kompliman
365
##ståelse
##förbrukningen
##bänken
##pendent
cannabis
acceptans
proportion
pepparkakor
anonyma
gotlands
##fos
jok
"...
rutor
which
ömsesid
målvakten
produktivitet
tupp
angiven
välfärds
reducerad
genomförda
##åster
rört
adobe
unger
skrapa
hållt
##strumpor
##fota
##sfot
hemt
##ådär
lätthet
vyer
noterat
framkant
##cakes
betald
konsumenterna
##10,
##luck
ankar
##vret
##rundan
kunga
eye
##rits
skrot
fodral
gigantisk
##räft
##röret
medlemsstaterna
doser
##skyrkan
grunda
höfter
integrera
##ådet
225
babb
garnet
grillad
pigment
rönn
trium
intrång
wit
julkort
grundlag
##ques
##ified
##aterial
##spartner
estetiska
##konsolidering
##uitet
reservation
##gest
##wart
##operation
##släck
påsken
amortering
mexico
switch
##irus
lil
##snygg
flow
traktor
granskar
tags
orienter
##tefter
predika
##ogna
fbi
isbn
ljuss
specialpedagog
##medlet
demokratiskt
##py
different
oväntad
elektriker
gap
inram
##opa
##offa
kot
dramat
skattebetal
##sorganisation
tårna
##värmare
slampa
bohuslän
liberala
##food
rät
kliar
matsalen
akta
välkänd
begagnad
##inerade
skandal
vintertid
##lyss
visum
##allader
ärliga
skickliga
presentationen
##rött
pål
ratten
##fallande
##framkallande
mete
vift
arkitekter
köld
boost
norg
utnyttjande
frilans
fotografi
fördelade
##sköt
##hästar
##operativ
klinker
jordbruks
bög
mcc
##gning
depon
motivationen
sydväst
hyrde
omgiven
##ommon
genren
stormen
##savdelning
värdepappers
##yota
##äkring
##ay
30,
(2010
luckan
ataganden
tillkommit
prioriteras
##änker
##iskan
##shult
drön
insekt
##odor
färjan
andelar
vilhelm
vek
tönt
stadskär
frustrerande
##los
##ysch
brutalt
smörgås
spinning
tragiskt
arvika
jasmin
singapore
obes
##--------
##grunda
industriell
lotus
##merande
barbro
måttlig
##represent
sylt
föranled
pornstar
##cks
##ugna
##entin
tillverkningen
##ränta
cookies
värdelös
batterierna
tidskrifter
skalet
##iserande
nelly
dagsljus
beaktande
förvandla
okomplicerad
##badet
##kåren
ödes
bruce
hello
valley
uppförande
amy
framgå
##kontot
dk
hog
##body
##bladets
##entligt
ordern
##ique
##mobil
basis
ashley
variationer
markerar
##slu
##typer
dialekt
snabbis
##apos
##artat
kes
ofar
stämpel
##2:
nöjer
##boenden
utsågs
##scykel
antika
portal
##motorn
##ämnande
strålning
##vakta
börje
docent
##fäste
##sedan
rain
##passet
taste
##vy
vegetarianer
spansk
##antalet
förrgår
##brom
##kens
##slott
burit
vänersborg
uppfriskande
##sförmed
tillbringat
##run
pav
ifred
beteendet
riktlinjerna
fuktig
folkom
##evi
mathias
##spolitiska
select
visioner
avvikande
konstnärlig
miljövänligt
##nelse
delux
delårs
pekade
##jorda
tights
##bass
##otyper
##vanlig
trust
filmade
##rs
hannah
dominant
visionen
förebilder
hjälpsamma
handpenning
arrangemanget
##terings
videopoker
biljetterna
norrbottens
##edal
adekvat
##xi
##gränser
tillförs
mänskligt
mön
fängelset
fisker
kycklingen
vingar
katrineholm
zu
##snur
fyrtio
förutse
konstruktionen
sok
hawa
linked
magdalen
##sbalken
(?)
mugg
vassa
vidareutveck
187
sadan
medverkat
tillbringar
strukturerad
nör
likasin
christoffer
##hushåll
schampo
##arie
skylten
lämnades
experimentera
##endast
saknad
bemannings
##izz
utkast
prickar
ultraljud
##strålar
simning
##emperatur
redovisningen
##down
##ressen
##free
blonde
tränger
vaccination
moz
cams
figh
kliv
##börjar
julgr
##sdotter
koppel
flexibelt
kartlägga
sambandet
chefredaktör
slätt
trädde
oskyldig
active
benjamin
ombyggnad
##övare
##komliga
walk
##färdiga
förstud
initiativet
##kunder
##rabatt
åhlens
biod
curry
kappa
virka
ftsr
törn
bestämda
##ssch
petr
##ollo
##ogram
gröv
##husets
överlämna
##kyrk
##onna
lotteri
illustration
##93
babys
##enkel
##borr
##mäter
blus
##iper
##sbrev
återstående
adren
bedömas
grillat
##lett
aka
skojar
fasaden
palme
mastercard
prioriteringar
beväp
flirt
upplåt
bröstvårt
frustrerad
arbetsmiljön
##amo
googla
linkoping
medverkade
bakplåtspapper
##rn
##brå
##läder
hyrbil
inaktiver
lagets
uttalat
##2018
##sbek
natural
akademin
involverar
pjäs
##ilding
elite
ofull
##inklusive
övertygelse
##analyser
alltifrån
krafterna
maur
värmdö
godmorgon
dussin
vrå
##bräda
ignorera
bröstcancer
##ador
##gorit
kalaset
avlägs
tillämpningen
##hammed
roa
örhängen
imponerade
majs
##isarna
ockup
##represen
avslöjade
fotografer
berättigade
häg
##!!!!!
miles
jersey
prisbel
oll
##gripande
eftertrakt
##snär
##yllda
jensen
klistra
toaletter
deprimerad
härstammar
reflektioner
(15
ensamt
utövar
utgiven
renod
maraton
synpunkt
##slandet
chrome
kvarvarande
clips
osten
##stiftning
award
läsarna
##ssås
analog
sisådär
inträffa
järfälla
kommersiell
tox
##bonat
artific
bitcoin
##planter
isåfall
teckningar
uppges
##spänning
direktivet
kurt
djungel
monetär
förståelsen
##sgrad
##burk
boys
partnerskap
förhandlingarna
##style
##natten
krossa
faktist
behållare
litteraturen
##unner
gate
robb
##nötter
steam
fosfor
16-
lurad
lättast
stickade
##antz
comeback
fokuserat
##lamentets
mikrovåg
##husk
vetenskapen
22,
##broms
##säkra
spec
##sträcka
##friheten
kommentars
ersättningar
##83
brinna
prisut
##öje
##asen
##umpa
pierre
##recens
litterära
regionens
##yper
studiet
skollagen
knäppa
argentina
varna
styrande
käpp
##licens
strej
målare
regisser
främlingar
22.
##aling
2011,
varumärkes
operativsystem
reta
1930-
pinne
kolesterol
##edlar
trogna
visdom
förnybar
observationer
9:
##atin
##riken
häcken
##sfamilj
##amerikanska
##wis
hata
##sticka
smyck
gumman
utformat
ekosystem
misstanke
##02
##mänsk
solskydd
##uto
btw
kurv
fixas
##ssektorn
tai
graven
provin
operationer
eksjö
avbild
externt
monopol
överste
bränslen
technology
undervisnings
##mängd
laddad
##zzi
höns
knubb
skönare
),
nev
utvän
förbjudna
inställda
ficka
löptid
##ssituation
##klot
torsk
majest
församlingar
dansare
pand
##product
mascara
begravnings
##ffar
vampyr
primärt
kamrater
frågetecken
införskaffa
jay
backe
##delarna
##plagg
##ättas
##språket
andrahand
serverades
##åkare
task
##svecka
##polisen
##tillbehör
avveckling
wilhelm
fördelningen
##kaffe
much
stay
viken
##stiderna
registret
##uvan
wallen
samtalen
##lingor
betes
låser
akties
anlitar
klappar
tillhörighet
arton
nycklarna
stärkt
erhållit
insatserna
fä
##rådar
slock
jennie
beröring
integrerade
provtagning
##cirkul
events
utökad
gentlem
minuterna
##minnes
##mora
byggnaderna
självrisk
offentliggör
##skid
effektivisera
##människa
mormors
användande
lv
##icyn
grejerna
##[1
rekommenderad
##gio
jog
fyrverker
organiserad
publicerats
##elby
##ormer
beor
kemisk
kristinehamn
fron
##låtande
##vinning
avancerat
##formad
herrens
proteiner
amatörporr
requ
ramla
spark
vegeta
avbetalning
snig
##halvår
fjärran
spänner
halvleken
självaste
spag
samtala
##fördelning
universal
sängkläder
##kommissionen
exploatering
(4)
jobs
##gänget
##iop
vg
##svalet
bärbar
termen
hemmamatch
förskollärare
##dryck
utser
tröttnar
pretty
lokalisera
##puts
3-1
##psykiat
leveranstid
##ningssystemet
##-26
##kniv
anden
värderas
##umo
jor
trek
utökade
##event
jungfru
handelsbanken
jason
##olyckor
energy
omröstning
##ierat
canon
orgie
kvällstid
##äckad
##planet
kulturell
##lang
agendan
##åke
##administr
##slitteratur
performance
##seffekt
strumpbyxor
##arat
svind
brösten
hopplöst
##utflykt
loc
kongressen
misslyckats
pure
bäste
byggandet
corpor
nell
bemöta
##dog
##ekort
haka
bädds
kommen
mallorca
##eth
##ound
musika
torkat
##ningssam
america
åtgärdas
vred
ludvig
sittplatser
demonstration
##ommar
märkes
aminos
vimmer
##vattens
skrubb
##inkomsten
##grill
föräldrars
##-29
bonuss
inredda
beställnings
inlösen
sammanfattar
where
tempor
svenskan
presenterat
fortune
antisemit
omvandlas
medlemsstat
kompensation
click
finess
##kunskaper
komponent
minusgrader
##anti
kullen
hemland
innerligt
uppfödare
installerar
##uar
förväx
##lagg
bucks
##minuter
underrättelse
slalom
amp
##veckor
incheck
##4).
##soff
puck
tillsätta
stång
grytan
anette
inflation
mekaniska
hakan
##frö
bush
hampus
kontrollerade
koncernens
##kem
logo
löna
ungen
utfördes
teat
##mering
påpekade
telefonsex
granskningen
##aki
##vic
anka
vite
barnvagn
klasserna
##boxen
##gryta
##sskill
lukta
##förvaring
##säkert
asper
banden
helgon
25,
##diskuss
pressade
sedermera
manual
uppgav
överskr
##texter
##utredningen
fastställande
##agatan
kundernas
##sben
oron
level
slöjd
france
supporter
sovjetunionen
affärerna
drastiskt
fruktansvärd
##iu
iss
##båten
##spets
stubb
kakao
##uttryck
##inställningar
(0
elevers
skapelse
tryggheten
tfn
pres
fling
etablerad
dvärg
engine
sinnet
småg
stoppas
hsb
##förbin
##företr
##instans
sparken
##anläggningen
##ense
broar
oöver
attacker
designat
giltighet
meningslöst
##px
rusar
tipsen
porrsajter
##änkta
dömd
tonen
genomgår
släkting
##seln
omtänk
alva
##ells
styrke
tränga
invalid
tolkningar
övertygande
nyhetsbrevet
småhus
journalistik
milt
##kritik
dedik
##ementen
private
elektric
##okt
säljes
fokuserade
2005.
atlanten
samordna
åsid
uppsatta
angeläget
slös
##fö
##sbud
klassas
innehavare
##ries
ove
martina
elds
##derliga
##psi
##boka
##makten
##urch
3-5
stenkast
innlegg
##power
duga
rikare
montage
##kapacitet
##trädanden
##-0,
(:
knall
ritade
smoothie
brother
dynamisk
##avägen
oseri
sälen
prägel
vrider
gratisporr
##puss
kompan
##flyttning
##resultaten
folkomröst
pornografi
ende
##skriver
industriella
chev
##gos
kommitte
superhjäl
parametrar
generat
fyllning
preparat
nyrenover
fastställd
beslutsfattare
##debut
mack
##översikt
sydamerika
arbetstagaren
##strarna
landstingets
zara
pyr
volontär
##fyra
##viks
bugg
sour
offra
##olerans
##erav
##gjut
daily
jonna
vetemjöl
avvikelse
sikta
##anpassad
uf
kax
frikt
noteras
drivmedel
##81
okunn
sensor
reviews
tillsatser
##klockan
##sledningen
diagnoser
sommarlovet
redovisnings
brunch
slet
tree
kniven
uttråkad
##jock
köl
##tten
##tagits
lakrits
##stekniker
planlösning
pågå
vidtas
##restaurang
ojäm
driften
dagvatten
dug
tillvar
förbannade
schemal
tiv
cafeer
##bonnemang
tillkännag
elände
ronneby
vätskan
##kis
unibet
huvuden
blanketten
kompetenser
##xter
sakt
##inerad
svenske
mognad
samverka
barr
krångligt
definierar
##sax
cav
klot
sugar
striden
magdalena
valfrihet
millimeter
relativ
hembesök
23.
##print
bent
missbru
tvilling
vertikal
##läggs
insam
sophie
##leverantörer
söl
endå
vapnet
##kläderna
##bc
expedition
hissen
portugis
klubbarna
##yror
mango
avesta
sponsorer
##91
balansera
##äsong
##säljare
hudens
snapchat
transporteras
åldrande
takl
ideologi
##ätra
sjutt
tankes
argumenter
##usta
anse
väkt
##överket
prinsessa
##serfarenhet
kruka
colomb
##.),
##ningarnas
##ssjukhuset
##hä
##svår
logi
##protein
gående
##atorerna
danielsson
medborgarskap
gryt
dyraste
hänvisa
rabatten
återkoppling
zar
dalen
bebisar
microgaming
hyl
fraiche
panelen
##born
gripen
varefter
bedröv
samverkar
obefint
mottagit
##svag
##shund
##uffören
##ningsgrad
bekvämlighet
##heng
cia
paren
twist
##sbandet
##strafiken
webbhotell
##olof
nybro
##steatern
upptäcktes
##stone
hood
påminde
italiens
##förhör
##anställda
uppge
##tillfäll
realistiska
better
fiction
##ometr
bann
tjänat
contact
##tävlingar
##stena
##distans
bridge
nakenbilder
##imp
##time
##karta
stäv
##designer
vättern
uppdragsgivare
##uvor
##tavla
earth
palats
marathon
invandrar
rekreation
##igo
kel
##räng
sahl
värn
buren
morbror
vegetabil
distriktet
##attack
##skapten
##horn
same
##/09
medicinskt
strukturen
##final
biter
vettig
avklarad
association
setts
ändrad
barnomsorg
##fd
##you
bjuden
##30-
##edare
5-10
grubb
rymma
cougar
munchen
drivande
fakturering
##sväsen
isabella
90%
godt
reklamen
##årar
madde
##skedjan
nudist
missupp
##spromenad
räddningstjänst
##oso
##bent
bevaras
smeknamn
##vant
folkt
hemvist
knepigt
sörmland
avbetalningar
sahlin
maximera
uttalade
utgåva
kommunikations
pho
##shäst
##känslor
##nätverk
anhängare
prioriterade
##beteende
formella
##slägenheter
##/05
lättläst
##tträd
spam
utdel
årskurserna
##7:
flee
tacksamt
##emär
186
neo
mocka
skattskyld
entertainment
##iljan
omkull
##sfient
##plattform
skogarna
enl
##kades
##journalen
värmande
propaganda
toyota
anställde
ljum
##vinter
milano
traffa
antioxidanter
toy
katalogen
relaterat
implementera
today
awards
oddsen
instruktionerna
##omo
##jära
##onus
ads
##skärmar
##slingar
cuckold
höl
##starkt
inlett
##mottagning
havregryn
trovärdig
imm
##osaur
påpek
prognosen
##pell
kudden
stephen
förväntans
motsvarighet
##cers
gamers
medell
##aldo
##värken
drogs
omständighet
cond
##studen
medeltid
vimmerby
friluftsliv
##lou
##jandet
deger
grind
##filmerna
bakgrunder
##nadsväckande
inventering
rd
##dukter
##friend
bifall
walter
linkedin
motioner
stressigt
1500-
medelhav
sammanlagda
odlas
luckor
lantmäter
kelly
ingenjörer
definitioner
sjukskriven
avsnitten
ändringen
inspirerat
ände
organiska
##användningen
höstterminen
##uens
kröp
bemanning
institu
tilltalar
##ali
70%
ropa
blink
uppland
dell
mallar
släppts
##zu
##trapp
likna
vilsel
procedur
likasinnade
inflyt
##leverans
##änningen
magister
kaffek
brukare
##länd
##kulturen
övningarna
##roner
begått
beviljats
bekantskap
##lister
vagnar
##journalist
(7)
wilma
madele
##lingarna
storhet
dubbelsäng
##osyn
riz
jodå
palestin
bländ
mäktig
vinnar
nicole
accepteras
flydde
session
nämndens
uppmaning
##ssv
##premiär
##vändning
erfarenheten
nionde
tyskarna
##snära
flöt
elizabeth
postnummer
##tum
incl
neon
##verkad
nominerade
degc
lucky
botkyrka
välskött
bukt
##farlig
kings
utlopp
varelse
skandina
##riktiga
spridas
xvideos
amerikanskt
anslutningar
##präg
kis
##blåst
koloni
skolav
plockas
##producerade
##helt
##tjej
##shotell
kula
bubbla
simmar
vetlanda
##djup
akter
solut
##lektion
harris
infört
jösses
varade
kollaps
massera
skansen
ställda
##arma
##platserna
störning
tvättade
innebörden
##slit
##åliga
pumpar
måttet
nämnder
huvudman
anställningen
ugg
färskt
kragen
nostalg
apparaten
underverk
häpnadsväckande
överträ
justerbar
påtagligt
reflekterar
motors
sexliv
verktygen
phu
ipod
klam
##färgat
mulet
inbörde
ljuvlig
##ventioner
##esis
##prylar
tveksamt
innehålls
##jobbet
schabl
##ografin
##entligen
educ
trängsel
campingen
diskuterat
självständiga
##rolog
##sbanan
amning
konvertering
sou
förvånade
smalare
långivaren
fou
märkta
utomord
linux
aktiverar
gädd
##rec
##änta
pyn
##scenen
odlar
judarna
inkommit
mellersta
träningskläder
##scan
imon
svim
studs
##gångarna
ändrades
utlanings
eklund
klarhet
verksamhetschef
##/03
dialogen
europ
köras
varierad
-1
115
##medic
payp
##skravet
försvarar
##eus
##yeur
nel
avslappnande
maximala
uppbyggd
##nest
ate
##ydnad
friskare
doktorand
redovisade
konstaterat
##rif
##)...
sik
##shirts
##starten
eventet
##deltagare
huvudpersonen
##tyg
##torn
tea
##bränna
guldet
##sanpass
##sidrott
##renovering
robotar
västerländska
##snö
##padd
avoka
förol
factor
ingått
nordväst
tältet
##zel
##esam
##lampan
fotat
bromsar
##lr
##lunch
1980
oklar
##/04
##wich
bråka
tanka
motiverad
räkenskapsåret
##felt
gröd
kand
##skriter
##tidning
##otiska
formatet
synvinkel
##grädde
again
torsdagar
professional
klappa
skyller
rakade
systems
tunnare
skamlösa
upprepas
##/01
##dram
guard
##bärande
damerna
##koncernen
rall
smyger
ögonsk
##områdena
##änkningar
##pix
##vap
##skonferens
textilier
runtomkring
##ysk
allsvenska
överraskade
lol
avslutningsvis
##cirkel
skälen
fyrhjul
öresund
uppföljare
##feber
discover
växterna
databasen
##kav
8-
möss
gled
producerade
##yran
gösta
##sbestämm
sensation
bilhandlare
##6).
java
världsledande
belg
##kammare
##oxid
klädde
uppkommit
riksbanken
mätta
das
##sskyddet
impul
jättemys
strukture
understöd
##.30.
##iday
obalans
pang
##fönstret
##halvåret
beräknade
nästkommande
##hman
##säckar
granit
värdena
##skicka
sept
##kroppen
##underlaget
samtycker
##små
##lönen
##shallen
sjöberg
beredning
knopp
sydde
##hållandet
##tri
kofta
hassel
utbildar
##greg
utökat
4)
trampa
##störning
nedbryt
intensitet
midja
avviker
sekvens
revolutioner
föder
turbo
andnings
gammaldags
##massan
granskas
resurserna
##ärd
bokas
expandera
berättigad
beräkningen
närvara
indikation
##wik
startas
hormoner
önskvärt
##rapportering
##????
##näring
byten
ofatt
viktoria
gräsklipp
nytänkande
##ude
ufc
vra
pictures
##kommentarer
##märkta
##rörelser
gäldenär
staterna
söndagens
##php
zel
byts
##bussen
pinter
##fk
##sledaren
svettig
pumpen
sektionen
##iang
##parad
hushall
##joner
jäklar
headset
godkännas
##pact
1988
myter
analyseras
dejtingsajten
into
examensarbete
wol
2004.
##riktning
stiftelse
##alo
##igas
natts
ladies
tjänsteman
slutgiltiga
##kd
vilo
atelje
firman
shower
marketing
debattartikel
aha
ölen
availa
sneakers
norrlands
försiktiga
härj
pull
utanpå
cider
vikter
##bränn
förödande
sjukgymnast
storasyster
heminredning
jr
##ilen
andlig
canada
sändes
evidens
##ruta
makar
shang
##förändring
##sväng
versa
##givnings
tjocklek
utsetts
transporten
##sätet
bankens
höjning
beställas
pendeltåg
suz
##smetod
josefin
lydelse
bloggande
exklusive
##endel
atlas
smask
##pumpen
spack
backup
tabeller
evigheter
filme
napol
synder
ansökning
tsk
därvid
sadeln
undervisar
köptes
mikrofon
höras
##bolagets
verifiera
positionen
hyresgästen
##shöv
note
theo
ekman
kritisera
progressiva
fik
too
småt
nutida
fokuserad
oppositionen
csn
flik
##skifte
##ultron
hämtning
prestigef
##föreningens
förvirring
justeringar
15%
##strategier
strukturerat
##löf
bått
##bladen
avtag
måsten
##umera
##sakade
square
glutenfria
dejtingsidorna
edit
marc
tajt
laura
åringar
dejtingapp
pvc
##otion
skumt
båstad
sänkte
##ostnader
fastställda
##div
",
##icle
infall
kartonger
tillstånds
bjär
sluss
virke
färgat
hästens
äventyret
##agera
##sskäl
##färgen
##skategor
##åtgärder
inloggad
kulturarv
tillförlitlig
##sländer
huvudr
kvalet
samfäll
1985
hang
påtaglig
##stiftningen
%,
##förtjän
dragning
legitimation
##åtar
drunk
operativa
kriterierna
avväg
fibrer
svansen
förhåller
ansträngningar
##hjärtat
##strö
kulor
duschat
skjutit
slussen
##frun
twi
förvaltare
organisations
##cams
jum
develop
##språng
utrednings
traum
tranås
##oi
##nig
cyn
dalarnas
känslomässigt
##vart
1,0
smörja
listade
angelica
inlärning
##xxx
##other
##hygien
jimmie
ångesten
köksbordet
riska
andrea
rastlös
trivdes
förankring
tillämplig
organisationens
1960
onytt
##ittning
##skällor
väljas
kortfristiga
##ärtor
hoppning
keps
shad
##bildningen
föregaende
mötesplatser
tejp
mariestad
apa
##nästan
force
arthur
framstå
strömmar
allafall
sammanträdes
styrelseledamot
##bd
annonsering
##krok
##rygg
årsta
drottningen
##dia
appro
giftiga
underst
hjalmar
avkastningen
##larm
##jd
soppan
besvaras
##dful
bah
##risen
##attnet
##skampan
långsamma
##ementet
##stagare
##bie
langt
director
besegrade
afro
sockret
##300
varsitt
intäkterna
##feld
dani
##skillnad
##rättsliga
högskolepoäng
##okej
påmind
##pton
##sburg
gast
löpa
sirius
misslyckades
dealer
servrar
utvärderas
motiveringen
##luster
##eringarna
##stjejer
client
##40.
##ttrakt
##bekräft
replik
belyser
utvil
rabbit
motiverar
pålitliga
hemlösa
kompetensen
kvalitativa
rentav
##roit
24-
##bytet
avokado
smutsig
tapeten
anslagstav
masturb
förbrukning
dimma
busshåll
vinkl
föredöm
känslighet
spenderades
grace
telen
röstat
exotiska
ridhuset
spån
pingst
guys
lounge
uppgång
##sec
elm
knivar
mälard
kristin
##;.
##bbade
subt
däcken
kategorierna
döv
##iserats
starter
svängde
##sappar
markar
mäklaren
omtalade
rumänien
arbetande
##äte
logg
cloud
stöds
##mission
svaghet
##ändig
jullov
trendiga
inkommande
mångfalden
##word
kavaj
försvunnen
handikappade
klätter
amerikaner
##hou
##maten
bokstavligt
regelverket
sq
lönsamt
upphört
upprepar
maskinerna
##20,
##ols
##dikt
allan
påven
##ologier
lansera
##kle
##krar
retorik
##sverksamhet
##sduk
##skål
##lights
rumpor
systemen
innovativ
omväxlande
##foten
##injen
kinder
##ury
##itekten
bitarna
stickad
framtagna
testamentet
fysi
smhi
##bäcken
##orienter
synligt
orimligt
parkeringsplats
##tors
karib
fleece
fusion
förmin
##sområdena
##hjulet
##äggande
danske
överförs
folkpartiet
##inom
##ställde
mördade
##några
orginal
yrkesverk
involverade
urvalsgrupp
##smöten
knyter
torsten
kostymer
ritat
##årigt
sexigt
sexton
grönområde
överlägset
lanseringen
##bilaga
bunke
erin
iris
invigningen
##fågel
1986
nerför
evig
ovär
surfar
trummor
##jal
##innet
##kolla
peng
gissning
småsaker
branschens
##runt
bris
inlå
härad
införas
ambassadör
redogörelse
##fynd
releas
vildsvin
##allad
##kandid
pälsen
spenat
academy
hårfärg
kristendomen
##ery
##ikos
träl
offret
styling
##sskyl
brian
smugg
avsaknad
polisanmäl
solnedgången
buda
koder
##isternas
duschar
automatik
repa
återin
enhetschef
förvärvade
köpcentrum
interaktion
##röda
##slägenhet
listat
rödvin
bekräftade
##bio
hay
##illas
##lena
##ples
adams
##förstör
##portfölj
målskytt
kommunikationer
##öjer
putin
nostalgi
demokratisk
slutna
återhämta
webbläsaren
##representerade
##äld
skita
försum
omnämn
hänvisas
akademisk
aktiviteterna
##icas
##illin
säck
paypal
##sköterskor
##rena
##uiden
chefs
##student
fullsp
fienden
profilen
serverade
##örelsen
jagade
2.5
coun
kungens
administrera
##bbyn
##undan
makro
tillåtelse
##ändamål
ägande
förbann
##ety
##skidor
avskr
##cerande
mästerverk
##jel
##kända
ylva
läckert
##esar
:))
##partier
lauren
##06
##elf
fetma
##byggnads
graders
##burkar
frekvent
##ärmad
would
##skrider
ohlsson
##råkigt
##uppfyll
##tekniken
rusta
malays
elbilar
tillmötesgående
##istrar
mattsson
60%
tesla
legend
slagen
tortyr
visats
##bloggare
ltd
funder
bevilja
tidskrävande
##första
flugor
varsåg
##hof
##iks
hån
mast
##jämt
1987
racer
brände
grävde
insjuk
stog
molnen
barnfamiljer
##sajten
knappa
voyeur
fiff
fyfan
langu
salen
matsmäl
uppmanas
##yy
mäts
2018-02
tier
kated
startsida
##käll
1.5
reum
riga
liknade
geografiskt
dokumenteras
stigen
##aggregat
##ipe
vt
##salt
2-4
symfon
nervöst
stipendium
##iav
mff
lagstad
1(
##björ
förespråkar
omgivningar
ivan
dilemma
nickade
symtomen
förflytta
upphandlingen
saudiara
oy
avgår
musen
##skadade
äckliga
värmlands
framkommit
framställa
sav
four
nutr
##sident
##gruppens
onsdagar
upphandlingar
##city
släpa
klädda
hamster
sandberg
haven
scrap
bilagor
dubbelrum
cp
##krist
krock
sluts
gruppsex
##isken
##sdagar
firat
förin
kassör
inbjuden
##utiker
smyga
falskt
tystnaden
##pappa
hatten
lindes
potenti
berättas
##teater
skrivandet
crist
luren
lyste
pippi
gymnasi
insikten
översväm
applå
bleka
##blankett
##säkerheten
sollefteå
gnu
vems
censur
spelats
bestånds
högtryck
##50,
hits
zero
kommenterade
##nå
##rell
miljövänlig
uppmärksamheten
likvärdig
läkemedels
##spärr
könet
löjt
##tagaren
bortaplan
föregångare
##keby
tumör
##filosof
deluxe
såvitt
initialt
rödgröna
teoretisk
##höga
##burst
booli
avfärd
emer
##esystem
förstörde
##30,
##good
##bygge
##unnet
gräver
södert
medfört
extraordin
##få
ungt
skutt
pressar
begrunda
pepparkak
teoretiskt
ansvarstagande
foc
chile
datat
empati
##behandlingar
legendariska
4-6
elg
give
madeleine
1:1
##städerna
hindret
kondomer
motorcyklar
##lys
##dhet
##kedjor
wonder
besegra
enskede
jogging
sommardäck
kommersiellt
##kriget
delikate
chanserna
##bun
mataffär
ck
##ream
##ilitet
gevär
obehagliga
were
##steater
föreslagit
städningen
christopher
efterfrågar
konfirm
bestraff
terrorism
##infar
2009,
detaljplanen
radios
autonom
casinos
##camp
keep
tubes
begynn
defekt
pts
2500
##andelar
beskydd
popular
magazine
container
moraliska
18.00
audio
könen
riven
nattetid
##oment
käkat
stigar
älvd
bygde
resår
bieber
tillväx
arbetstera
##fox
gom
bjudna
##ställningarna
majestät
muntliga
renoveringen
##icon
5,5
gag
##accep
##turen
arrangören
##slots
palace
sökord
firande
##fasta
partille
korruption
intervjuade
##lt
##nöd
lymf
gödsel
##ssjukdom
anmälde
cigaretter
spelningar
##emor
inva
smick
mördaren
spricka
scatt
##orterna
faktisk
##yrket
##legitim
centre
24,
frn
##plade
hold
tvättstuga
demo
lönsam
##strålning
desc
kollektivt
##olor
munk
gallerier
passagerar
badar
intent
vågorna
pinterest
anmärkningsvärt
dall
##elagen
##havande
##aliserad
herrgård
##thers
viker
vårter
välutrust
påbörjades
sammanslag
##ödsel
10.00
lotto
##koncept
melodi
inbjuder
behandlat
pornstars
1,6
kaniner
korthet
klättrar
gällivare
specialiserat
ömt
##höjning
undrat
bevarade
korridoren
upptäckts
##fans
friday
synkron
##edon
läxa
skapandet
besöksadress
fruktansvärda
##kup
taj
slow
föräldrarnas
bey
blinkar
manhatt
vattentät
belöningar
vindkraftverk
6000
påverkad
##08
##smötet
kristoffer
skådespelaren
##chs
jude
tatt
ensem
komedi
testoster
bostadshus
miljöd
tätort
bevisat
nordvästra
##anza
##maker
##skulle
##ängder
puder
##pressen
garanterad
naket
##emanget
avunds
##smodeller
konsumera
dekorationer
konservativa
##sbelopp
avrund
sydney
potentiell
##leby
23,
##bakat
coca
romerska
##hända
gripande
elektricitet
överklagande
15-20
mässor
kränkningar
board
##uthyrning
generöst
omfattningen
##girls
utrop
karis
hyfsad
safari
code
##emente
periodens
##imm
isf
orken
smultron
informeras
##dri
##lax
ear
##lden
##mur
samiska
anderson
lektionerna
elle
##hållas
hittats
ortoped
knullfilmer
föror
rådde
nedför
kortfattat
utmaningarna
goth
målas
##lv
##ödes
##kammaren
##konstnär
osannolikt
nisse
mindful
rebecka
redigering
##lex
vev
inriktningen
pennor
värmde
dödades
behandlad
monterade
##driga
krus
radon
##begräns
##vanligt
##profiler
hyllade
finanskr
kontraster
german
basilika
##wing
leop
muntlig
scandic
vegan
metabol
##producent
##7).
##ovan
lif
pam
push
##stranden
äldreboende
##bomb
##handla
förtjänst
obehaglig
avseenden
söderberg
permanenta
diskuterades
kly
alma
aggressiv
bilmärken
kronoberg
årtionden
##konventionen
##egen
badat
utökas
vackrare
paradiset
inkluderande
##shän
uppgå
längder
##bry
##space
stars
sören
såpass
omvandla
kalix
##[...
##lunds
växell
inspektion
vibrerande
grundvatten
##kastning
tipsade
uppfattat
stränderna
##bir
kontaktsidor
femma
##respond
privatliv
gåt
implant
hallands
##årdar
bokad
##skyddad
##politiker
deklaration
##isy
##jög
börs
tävlat
attraktioner
cin
##iater
fact
justit
klackar
visuella
inneboende
##cu
##räknat
##sboende
påstås
googles
höstlov
internets
tydlighet
överlycklig
krigs
things
höganäs
krut
inbeg
investerat
television
föroreningar
##ursen
twin
death
skryta
laddare
yrkande
svält
county
pensel
monterad
tallrikar
hour
ragnar
##inspektionens
##assa
hvar
betjän
##hip
##vande
##ruppen
##avgiften
##onde
female
själar
utredare
then
##motstånd
fullfölja
glukos
grejor
superkul
##sföretaget
##lip
cs
raps
åratal
nyttan
rörigt
avsugningar
utrikesminister
##ovo
nors
studios
väninna
security
ukrainska
reklamation
##!!)
##inkomst
charter
livmoder
uppvärmningen
econ
clear
försvarsmakt
arbetskamrater
##veri
##craft
husägare
utfallet
##direktivet
##/20
##sind
##jämför
lindqvist
hyresrätter
##sugn
##heimer
pluggade
centern
flaggan
industrier
liberalerna
##snivån
bränder
bönderna
collected
nederbörd
##herre
edge
infr
erhöll
badkaret
beskattning
##ukor
älven
designers
naturskydds
gow
##kvinna
##nyckel
valts
vemod
##äkerhet
custom
formas
resans
kvantit
invändigt
depå
##åndare
förgy
spola
##sstudier
##optimering
beskrivit
tilldelats
fastighetens
osm
rss
aron
epost
##smuseet
##räkningar
##ija
pse
solcell
uppfatta
appliceras
klimatpåverkan
##ricehamn
elfsborg
skribent
personbilar
##cla
##armen
##stegen
simpel
delegation
styrdokument
##edt
##tapp
##smässiga
##oil
skadades
byggnadens
förhoppningen
##ulter
satsade
tillåten
##årsjubileum
rekryterings
boo
##vfall
revansch
fördjupad
eftertanke
västvärlden
why
bevisar
korttid
klickade
ansökt
galning
##okal
135
självbi
grundval
skadligt
utpl
harald
försörjnings
##%,
##järvi
local
##sböcker
förenar
070-
koffe
tomats
injektion
experience
landsbygds
traven
uppstån
hårbotten
olympiska
00.
born
idyll
lasar
myste
##annel
##entliga
nathal
singeln
dosering
golfklubb
växthuset
trig
öken
gynek
terminal
försämras
överensstämm
##uuu
##roprakt
lindex
interiör
övar
ungas
flyttades
diana
arbetsdomstolen
fs
mfl
##oljan
förö
lcd
##aktier
##avsnitt
bärande
utbredning
##dir
##något
##vakter
övertala
##isson
##prinse
fruar
hiphop
tamp
##sboken
utgift
##gmail
##larnas
yttra
talman
litegrann
##uppgifterna
inkomstskatt
##sbesök
genuin
handtaget
skådespelarna
fle
wat
dukar
lärdom
republiken
vetenskaps
uteservering
ananas
##skontakt
angivet
förneka
##400
##perto
farsta
omsättningskrav
hotad
blunda
sfär
kitty
släta
##smännen
framställs
sjukpenning
statsbidrag
##eler
##erien
##slängd
fossila
frukten
säkerheter
utsm
pricken
prima
elisabet
##försäkringar
##dagars
utsättas
fastställt
paradox
stationära
##ydate
liban
twilight
upphörde
uppfördes
värdighet
hälsosamma
spänningar
##sco
tals
guidad
existera
tisdagar
##ppe
##peter
begår
chang
höjde
lärarnas
förskräck
##ssy
utv
##tränad
befar
##smottag
leonard
garantin
muntligt
##akar
##odox
17-
sagts
kvaliteter
##oa
##zin
##skrit
##skylt
mutt
lagrar
kontext
torrent
hårdvara
gräsmatta
##eks
##aktigt
##recensioner
birth
vargar
##hout
##stål
åg
fotar
graden
förgift
objektet
##ches
sket
##frukter
##spriser
lappar
bobby
täcks
borden
plommon
sög
##baren
rynkor
##atisering
nybyggda
investeringen
tet
##etera
##poker
ljög
predik
skadorna
bevarande
programvaran
##oge
sundsvalls
##spray
himm
johans
umgicks
sons
uber
##manuel
madra
viska
ulricehamn
skyddat
##historier
##shögskolan
bim
##marin
##pannan
obekväm
engagerat
registreringen
rä
smakprov
valpen
##ledningar
patenter
matematiska
facebooksida
bour
##sstart
##innehav
boknings
##cts
##mam
doggy
slipa
cartoon
högljud
artisten
michelle
knapparna
storslagna
jury
tjugof
konvertera
##dess
horse
bageri
##kategorin
läsningen
tjeckiska
30.
##illes
follow
jämtlands
portföljen
klippan
utsätta
sorten
högstad
kompisen
avis
goss
##valitet
fucked
tillväga
välbes
##infektion
leggings
tatueringar
fell
##mängden
smitta
sammanställt
arr
sugg
##katalog
förlåta
##ryd
##chans
price
förson
cigarett
##temperaturen
##elns
##ätande
neurolog
available
duo
skadlig
##transport
uppmärksammat
##modul
##making
gnälla
etniska
skärgårds
motiverade
##kig
##pelet
kanot
generald
##målade
högklass
avslappning
intellektuella
##ompan
äcklig
avgöras
##shel
madrass
spädbarn
sträckte
önskelista
observation
tjänade
##positioner
##seffektivt
kvällsmat
kajak
##bitarna
##packning
##kos
cut
##sleden
förnamn
independent
finansieringen
##wear
färja
##äckning
mullig
kyrkoher
influensa
ng
##mier
bab
##handtag
feminism
##rådgivning
##berättelsen
beng
röja
safe
benämning
ypperligt
##sbor
##stämma
vägra
vinerna
jurister
##dyn
överlevt
ian
vittne
##ografisk
galoppen
uttryckligen
kastat
##åde
pors
ägget
inställningarna
pus
incid
##isserna
entusiasm
förbjuden
språkliga
##hast
##reta
##idakt
döpt
kirurgi
utförde
lekplats
nätcasino
##hela
##sven
modo
##stedts
bifogade
fördjupning
sfi
parten
besvärligt
busa
slum
spika
diarre
leasing
##spång
delfin
tillät
välförtjän
dömer
12:
50,
köer
familjehem
##nö
linder
slitet
##tis
##sskap
bastun
tentan
acceptabelt
1984
##föringen
##ises
##skov
wet
##ierar
##valen
renings
lungorna
förbättrings
aterbetalningar
hust
##bergen
##utiken
##area
bytet
omsätter
hjärtligt
##shöj
##trådar
helvet
manuset
##kategorier
göt
gripa
uppdelad
##ödda
romantiskt
##niss
##omon
amar
##slinjen
områdets
##zym
paper
förser
##uki
##hyttan
heden
uppköp
np
##solen
eken
##ymnasiet
pensionen
##bett
##emen
smakl
minder
optioner
huvudsaken
sap
##revliga
spännings
##buck
bromsa
vederbör
kommissionens
13:
rott
##sinter
svante
konsumt
utmärker
målgrupper
##stolpe
babes
manikyr
skriften
skulptur
sydsvensk
bistå
lockas
##dragning
emission
behärskar
försän
zombie
lum
kardem
framhäv
education
livsmedels
##izer
(8)
##inans
##seger
köpe
##skurser
värderar
inhandla
tillställning
främlingsfient
2%
avytt
förena
tårtor
##skraften
ideellt
kostat
allmänn
##:-/
avnjuta
förbudet
##hjälpmedel
kattungar
spontana
egenskaperna
boot
knöl
nöjet
trean
surdeg
##sspr
##växande
vilade
institute
##600
abs
##ttack
##historik
bankkort
presterar
##ict
volley
debuterade
utnyttjade
sovj
speltid
##-2.
arboga
skälig
barnmorskan
##äckade
accent
pokemon
##bk
hott
rensat
dinosaur
##stidningar
överklaga
spelautomat
förbundskapten
gk
alved
##sbef
bacc
##länges
levnad
myndighetens
bikin
celebr
onanera
utsprid
inombords
##klimat
strind
update
anmärkningar
##8).
hanter
slöseri
nybörjar
boul
rugg
flora
##nationen
prospekt
organisatoriska
##strong
elefant
unionens
##cul
##chal
tillt
##växling
stängning
1,3
##bearbet
beundrar
##sno
##top
()
##rish
##lämna
gurk
resonerar
##skostnaderna
##knull
anrika
tjugot
lärandet
##ffärer
analytiker
förändrings
bä
broad
algorit
bedrivas
destinationer
ägander
havsutsikt
##will
##skall
##karriär
förens
stenarna
koreanska
konstruktioner
hörna
glädja
kläde
##sof
pk
##svamp
nort
##smässan
##verktyget
broschyr
gärningar
##kampen
milen
##kliniken
skrivar
förstörd
##sanläggning
##jölk
##fasen
##ingade
läsår
rundtur
##04
##kasse
medelinkomsten
##usik
asa
##iansk
##iffer
miniat
##wc
rymligt
away
mager
väckar
störd
minuts
petite
svavel
pilgrim
terrorist
norrköpings
dramatisk
jordbruksverket
bc
##galan
alban
terrängen
turneringar
allmänhetens
##ägt
zim
##skortet
kontinuitet
vegetariska
##agent
##eliten
##marknader
bordsspel
kiroprakt
motorvägen
böja
large
##spolisen
djävulen
besökaren
enk
välbe
##mätningar
mossa
virvel
mekanisk
amma
mara
pornos
manöver
konventionella
##arena
##snytt
hång
malmös
nyförvär
##meddelandet
medarbetar
tillverkarens
guidar
ledsna
påstod
förnekar
##zza
sku
bisar
ballong
##eleverant
pakistan
tilldelades
intra
osynliga
elen
grundskole
friskis
jelly
stenung
kören
utnämn
detroit
rasistiska
specialiserad
förundersökning
vod
##sskor
alan
otrygg
europeiskt
konstateras
##alas
1800
bricka
lus
fern
najs
##bygger
paradise
tolerans
##torna
gädda
rimligen
trailern
solceller
##ping
dagg
vals
##kärlek
karus
spöken
tränas
##sanläggningar
beställare
##ilton
lysek
framträder
likviditet
##arac
##priv
unic
nöjen
välkänt
identiska
mjölby
fjärdedel
##åget
pelar
nationer
misslyckande
##nygg
arren
##länning
sminka
##bakgrund
grundat
luss
##stabil
sändas
##promenaden
##tter
##skompetens
##anställning
förvarings
##bokade
enjoy
justiti
omgivningarna
##pinnar
klant
destill
nyfödda
investment
##brud
##yoga
1975
artikelnummer
##:(
##vey
##firande
stringtro
inkluderat
##jp
##kung
folksam
varuhus
våldsam
espresso
färdighet
##uri
sic
rachel
riddar
jämnare
explorer
arrester
fjärilar
skaft
##fler
##ipan
gaza
skvall
poet
stipendier
##sförvaltningen
skjuten
##smodellen
skridskor
akup
##ägande
porto
oregel
vitvaror
religionen
##ieras
flin
wine
värdig
påbörjar
##konsumtion
forskaren
bredda
engström
barndomen
innehaller
kritiserar
religioner
förvirrande
stum
##arning
öknen
cypern
årsstämman
betydelsefulla
djävul
##spartiet
barfota
ledningar
festivaler
förbättrat
##sep
bug
##sedel
militärt
förvärvat
##låtar
psykiatri
fansen
förmår
fransar
förlåtelse
##ordnad
muskul
slängt
testamente
##stull
##vända
bian
##esiska
##hjälpen
norges
##sklubben
##fakta
karen
##gymnasiet
smäller
##förhållande
avdelnings
personligheter
##kvarn
##orrar
##artist
proven
arkivet
känsligt
årstider
##nätdejting
##emy
##ivor
stl
teve
meteor
intel
portar
studiel
offensiv
tow
genomskinliga
##800
##vetare
blodsock
broccoli
åtagande
systematiska
##otypen
rencont
sändning
manhattan
1970
utreder
framkommer
hills
pratas
förmånliga
instru
områdes
pressad
kompakta
konsolidering
##örs
##kningar
pjäsen
konsultation
melan
onorm
##addy
##förda
släk
kompass
våfflor
påståendet
##hud
##lis
casumo
dessför
metaller
stadsbibli
11:
15:
wis
omsätta
patriar
långpromenad
:.
##nätter
varierade
mio
##bridge
kompatibel
stunds
figuren
motstånds
monterings
vandringen
##umi
##ible
##brikat
##smedel
##riktade
sprint
hyresrätt
metoderna
skrymslen
överklagas
##,,,
##smör
##astan
fine
##studio
erica
ointressant
blodprov
##sub
branta
grillning
grönsakerna
mint
rundor
socion
decennium
##view
utgått
landsväg
lavendel
##-100
##asch
fondens
fullbord
tillgangar
antecknings
podd
ugns
coffe
tapetser
101
köpta
bifogas
slumpmässigt
##gransk
##soffer
##ästare
roligast
garderober
kraftigare
framemot
##wegi
oo
jisses
utvärderingen
##lid
##ässig
kulör
10.000
sexleksak
##röja
china
följeslag
uppträdande
##haw
falu
header
pricka
sallader
cirkulation
preferenser
trafiksäkerhet
wy
lidl
komvux
axelsson
##kali
##skro
gips
käre
primärvården
##urin
hdmi
oförsk
förträff
145
##...).
hugga
hatade
rating
##beteckning
föräldern
njutit
förskjut
idrottare
##wald
##mhärt
koranen
lobby
fotbollsmatch
ester
reakt
##isionen
##ömda
##motiv
##ässan
flan
norberg
fullmakt
nokia
tm
##grejer
guvern
introdukt
##ubben
eksem
väp
etiop
miljör
ryckte
##stidningen
svagheter
installerade
##eer
14:
##hinnan
2008,
excellent
##9%
ynka
##esedan
##catalog
smärtor
virtual
##sleverant
personals
integreras
##formuläret
affärssystem
##härd
djär
ober
##stugor
grisar
förrådet
virtuell
utdelningen
##expert
##makare
regnat
beslutas
inbördes
balkonger
##esex
sökes
##visionen
##tidigare
outlook
##beställning
dv
##innas
bruket
multipla
accepterade
dessförinnan
##klet
blockera
portarna
steka
därinne
karamell
##-1.
##hlon
parlamentar
##seftermiddagen
##bäv
##chan
##fåglar
##chanser
konfer
##ischer
tilläggs
kommunfull
subvention
##sålder
prognoser
##icke
defa
##iliate
bilresa
överenskom
##07
##super
displayen
##osh
##sbit
trass
omvärld
##goda
peta
##poster
uppladd
lettland
heat
reglem
madison
lamporna
parfymer
slits
trumm
läromedel
rok
ärke
simmade
##ovär
##ators
nörd
##målning
intima
tittare
##pay
mälaren
radikalt
uppföljaren
##nom
##oral
jamie
tobbe
båtarna
förskolans
##mottagningen
testosteron
##sbyrån
church
åberop
förbunds
kansliet
bloggandet
rasar
öring
danderyd
nödvändighet
##nia
1920-
elits
##andning
##isolering
premiärminister
##daq
##walk
##minnen
krisp
kalkon
##kontrakt
lekfull
nikotin
pionjär
förbinder
perfektion
rumstemperatur
##yx
haw
##resurs
vakuum
motsvara
inflyttning
ara
yttr
##förråd
##profilen
tiotusentals
loop
##sour
saw
url
##robot
faser
##drivande
##olutionen
hälsopro
6,5
kombinerad
##marks
ibra
uppföra
##rådgivare
promenerar
noggrannhet
##mok
##katter
##övande
supert
riksdags
västergöt
stadshuset
byr
##årsdag
##märkning
##vetenskapliga
hage
nyem
krage
##värdena
stickat
##allsvenskan
##skontroller
flirta
prövar
utforskar
##ede
zum
smycke
##certifikat
systrarna
jol
extr
avlast
inbyggt
utförligt
bukett
baserar
filippa
akvarell
rinnande
datingsida
paragrafen
vattenkraft
##hamnen
moget
medaljer
etnicitet
genetiska
realistiskt
##annan
allm
fert
direct
aktiespar
diskussionerna
##-1,
##radet
medge
berika
arrangörer
omhändertagande
fingerav
##utten
jama
vane
insändare
skålar
comfort
publikationer
##new
vu
##åligt
webbutik
meningsfull
slavar
##spedagog
stolarna
hah
##oy
##bred
##slutet
##social
pensioner
##stron
batman
spridda
missnöje
fotograferade
##bow
täpp
##sgruppen
##eria
##sdjur
stöv
småska
##inriktad
bibliotekar
##uret
bonnier
26,
förtär
triang
motgångar
##biff
##hytt
utomjord
garanterade
##uber
brutal
amazing
sight
tilda
##givarna
##ökningen
greppet
checklista
kru
härrör
challenge
rikets
domarna
barnkalas
sjöl
födelsedagen
##9).
##trots
##sskada
##farligt
ingela
##rustning
hemligheten
##skala
##stycken
pappor
##utbildad
alltjämt
motståndarna
650
voro
förts
döende
lärorikt
invid
mördad
##kategori
tröttna
signalen
mopp
112
2.1
##bröst
pseud
skanska
funkat
svampar
##senlig
##emangen
masken
österlen
##fotografering
rengöringsmedel
##sligt
hava
atlet
gustavs
arbetarna
##mej
##blått
dirty
##storget
kyligt
evelina
uppvakt
##centrat
kabeln
tycktes
lämplighet
måluppfyll
intelligenta
##jukdom
tomter
##medvetna
verksamhetsplan
##ovi
##ijer
pamp
##metall
laglig
silkes
skitsnack
##fläckar
semest
cellerna
##care
##hyra
##stant
fasa
##portalen
bortser
product
vintras
producerad
svit
hundägare
hierark
departem
erektion
##arts
memor
##ekonomiska
##denna
helig
prövat
tummar
glamour
fysio
utbyta
##:11
##efil
##kala
##slyft
##funger
##rummen
adrian
dyster
bokmässan
##kh
diego
idealiskt
##ofon
butter
utvilad
telefoni
egendomen
freja
skuggor
standar
tunneln
israeliska
kurva
klienten
##konjunktur
demen
ladug
sammet
varven
spektrum
bedömnings
sjukskrivning
##enser
stram
##smaskin
bemött
sötaste
##väma
##dress
bifoga
skvätt
stängas
förbränning
mervärdesskatt
##ånare
vell
oaccep
ledamöterna
principerna
##scenter
change
tjänstepension
otänk
intuit
dansband
kompisarna
biltillverkare
bp
##sskåp
lost
##areller
vargen
multiplic
does
krim
baseb
laxen
björkl
förberedelserna
##libris
alvedon
deltagar
svensken
argumentera
mvh
##uller
inrym
hansen
korrigera
uppgradering
fastigheterna
##inten
evaku
bruden
stanley
arbetets
längesedan
kulturhuset
##ågen
##ikens
tion
hyllar
inlagd
kocken
nathalie
lösenordet
spjäl
förfallo
sökningar
---
rans
sjör
##länken
##förläng
borgar
parkett
##skansliet
charmigt
uppdelat
barnkläder
australiens
civilingenjör
##itid
own
guidade
pappersk
##coll
##zoner
1900
##sindex
vinbär
preliminära
meningsfullt
gräl
dalar
köttfärs
spårvagn
efterträd
barnmorska
##gdpr
##iance
uppkall
utlösning
villaägare
kommunalråd
##yts
femt
forska
rycker
##hotellet
federal
tecknas
bokningen
ställningen
bloom
genrer
blomman
flygplatser
översättningar
##bruna
##ändskt
akademien
markering
förtydliga
träningsmatch
adjö
befor
nytill
delstaten
##sersättning
utmärkelser
triat
option
backarna
lyckligare
mj
jäsa
kabin
delmål
hawaii
parmes
angräns
coaching
greta
##eteraren
cott
##jackor
2003.
veget
tillkom
ifrågasatt
##cz
##holt
inpå
##villigt
bestick
bidragen
blanketter
introducera
balett
tilläggas
##sat
##icer
##entlig
hälsot
fördjup
(30
##ideer
##klarna
matar
trösta
fiskare
##sinstitut
##change
grant
firades
södermanland
##sforum
teleg
franch
vårdar
natrium
schablon
väderprognos
##rosor
ärmar
djurens
människas
mailadress
harda
soffor
godkännandet
nypa
medias
överva
abc
dömts
strejk
norwegi
olikheter
rysslands
vibrationer
##03
##flag
omfam
värds
ockuper
försäkrar
::
ritar
förhall
turista
installerad
##okk
pai
##steam
dott
##infarkt
##utskick
morsan
ryktet
notering
##itär
(0)
takten
beviljat
##ikum
0,2
##itering
olyckligt
skönheten
##ici
##slinje
flyta
färjestad
##!".
##-199
hålen
##uppgång
högtalarna
##befor
##https
##behovet
bestått
preventiv
bidragande
hash
spör
nissan
##09
godo
lira
##smakande
fp
##srel
gosa
##avstånd
##karaktär
inrätta
tf
##oney
näv
male
##våning
frankf
klargöra
advokater
godkänts
affiliate
##bestämmelser
##sorganisationer
möd
nash
views
vätske
##ttjänster
oförändrad
village
mixer
jättegott
restriktioner
##skalas
##ringning
fiskarna
relevans
skrattat
uppsatsen
hastigheter
##skytte
##sarbetet
colombia
territorium
##älte
##alten
plog
vene
##udding
faror
##ledarna
##rishamn
ekipage
väldans
##elektronik
##sutbyte
lundin
##beredare
venedig
dysfunktion
dödas
holiday
ballonger
3-0
pucken
osynlig
outfits
österut
##smö
16:
emily
bemärkelse
##dringen
champin
##ättningar
maträtter
skildring
behandlats
elitserien
##sförvaltning
funktionärer
##sey
##uni
fobi
sean
wallin
hellström
##safari
buljong
pik
##varade
tände
affischer
1%
##sfast
##brevet
tjänare
östergötlands
dow
sagol
senap
rostade
##stillfälle
tabu
trot
##listen
brita
bortskämd
influenser
##korna
##lider
##thene
zetter
persilja
0,1
sabb
gavle
blanka
menyer
sanering
slim
dylan
konventionell
##äkning
prist
##grenska
handlare
trögt
benägna
##sregister
reduceras
##mr
arc
intar
lycksele
[...]
