[PAD]
[UNK]
[CLS]
[SEP]
[MASK]
##er
##en
##▁s
##et
##▁d
##▁f
##▁o
##in
##▁m
##or
##an
##▁h
##▁t
##el
##▁b
##▁v
##▁a
##▁i
##il
##▁k
##ar
##▁og
##▁p
##st
##re
##om
##le
##li
##▁n
##▁for
##ing
##▁g
##ed
##▁det
##te
##ke
##eg
##▁å
##▁er
##on
##▁til
##▁en
##is
##ra
##▁u
##ter
##▁av
##al
##▁på
##de
##▁som
##at
##▁l
##▁j
##ig
##sk
##▁med
##ne
##ene
##id
##ik
##ør
##▁st
##pp
##un
##as
##ver
##▁in
##ler
##ag
##▁sk
##se
##tt
##▁de
##▁har
##▁at
##am
##lig
##ol
##▁et
##▁ut
##kke
##kt
##and
##▁vi
##▁r
##der
##jon
##▁jeg
##es
##▁den
##år
##ro
##▁om
##▁ikke
##ste
##▁gj
##ri
##▁opp
##ker
##ang
##▁du
##▁men
##ett
##▁re
##ning
##ent
##ru
##ær
##▁-
##▁al
##▁hv
##ere
##▁no
##▁kan
##ak
##▁fra
##▁1
##▁var
##ur
##▁inn
##▁e
##for
##gg
##▁2
##it
##je
##ser
##ul
##▁el
##▁li
##▁sp
##▁be
##het
##ad
##▁an
##ss
##▁le
##▁kom
##mer
##ks
##▁sam
##ende
##ot
##▁ble
##ens
##▁så
##ap
##be
##ikk
##▁kj
##▁nor
##asjon
##ge
##us
##▁bli
##▁c
##▁seg
##▁vil
##ve
##ok
##øy
##elig
##▁må
##enn
##▁un
##od
##▁hel
##ære
##▁han
##▁bar
##▁pro
##▁si
##ut
##att
##▁etter
##▁over
##eng
##▁(
##isk
##▁dette
##så
##▁se
##▁der
##sen
##▁eller
##▁tr
##me
##ell
##sp
##▁skal
##kk
##iv
##▁ar
##av
##▁bru
##net
##▁ved
##▁ø
##▁før
##▁også
##ling
##ort
##ist
##▁kon
##art
##ner
##ir
##▁ny
##▁20
##▁år
##yr
##øre
##men
##ft
##▁sel
##▁man
##ud
##else
##old
##ant
##dig
##sl
##▁hvor
##▁and
##▁kl
##yn
##beid
##est
##▁fin
##øp
##gj
##▁noen
##▁min
##os
##elt
##skap
##unn
##ikt
##▁være
##ov
##ff
##ingen
##▁da
##▁mer
##▁tid
##ske
##▁noe
##iske
##all
##og
##▁dag
##▁her
##▁ha
##▁få
##ob
##▁alle
##▁nå
##▁deg
##var
##øl
##▁bl
##▁had
##▁andre
##legg
##▁hadde
##ært
##▁kv
##▁under
##▁dat
##um
##den
##▁når
##▁kun
##▁selv
##▁blir
##▁meg
##ale
##▁god
##em
##▁pl
##sm
##▁gr
##▁hun
##itt
##ass
##ster
##ier
##ennom
##akt
##▁vel
##per
##ann
##▁to
##øn
##▁fre
##▁hva
##▁denne
##dt
##▁sin
##lit
##del
##▁ver
##▁gjennom
##▁mang
##hold
##jer
##▁per
##lige
##..
##lere
##▁sy
##ygg
##jel
##ger
##▁sli
##▁nett
##▁mot
##▁201
##du
##▁stor
##▁bare
##▁bil
##øk
##tid
##det
##iser
##dr
##▁sl
##▁3
##ly
##nes
##sker
##ab
##ien
##tte
##▁arbeid
##rå
##▁po
##alt
##▁my
##dre
##vik
##▁eg
##iktig
##inger
##▁ra
##▁enn
##dan
##opp
##▁uten
##dag
##▁or
##▁komm
##▁høy
##▁fort
##▁"
##vis
##im
##ek
##00
##▁mange
##elle
##▁pr
##▁gjøre
##▁w
##ber
##▁reg
##alg
##jem
##yl
##let
##iden
##▁vært
##sten
##▁mu
##før
##▁gjør
##ket
##▁lag
##▁dating
##▁tilb
##ia
##▁litt
##▁din
##ie
##...
##▁mye
##▁beg
##son
##▁ser
##▁oss
##▁del
##kl
##▁hver
##ans
##▁<
##ksjon
##▁frem
##ry
##▁hen
##ast
##▁ek
##▁tre
##>>
##▁gra
##▁inter
##▁gang
##▁bå
##▁<<
##lem
##▁kont
##ater
##ic
##▁alt
##▁sv
##▁ta
##gen
##ekt
##▁dis
##▁flere
##utt
##enter
##▁fikk
##▁sammen
##ken
##▁norge
##ult
##▁bet
##pe
##▁19
##set
##stil
##▁får
##▁sn
##▁spil
##▁mø
##ev
##lighet
##▁ned
##ten
##▁mar
##▁sm
##enger
##ings
##▁slik
##form
##di
##▁sø
##inn
##ninger
##▁4
##ord
##itet
##som
##vet
##▁forsk
##▁kjøp
##▁dem
##▁første
##ert
##▁vår
##ige
##▁igj
##he
##▁føl
##mp
##ød
##▁disse
##▁pros
##ellom
##▁pre
##▁sex
##▁5
##▁by
##stem
##▁br
##▁jo
##kj
##▁viktig
##▁kunne
##▁land
##dom
##▁mil
##▁siden
##▁nye
##ede
##▁mellom
##▁kommer
##▁igjen
##ull
##▁hvordan
##gang
##ret
##land
##▁vir
##▁barn
##jene
##▁både
##ningen
##▁rett
##sjon
##hand
##arbeid
##▁lang
##▁bed
##▁ly
##▁van
##ake
##ch
##eb
##▁grunn
##▁går
##ub
##▁fors
##▁øn
##▁person
##▁bruke
##▁kr
##ulle
##▁sik
##▁gi
##gi
##ønn
##▁ve
##▁enk
##ets
##ven
##▁helt
##▁utvik
##▁fl
##▁nær
##pl
##este
##no
##eld
##ide
##▁hele
##▁dere
##sb
##▁vå
##øm
##▁hjel
##▁hvis
##▁gå
##atte
##pt
##ion
##▁run
##ode
##▁annet
##elsen
##▁job
##▁la
##▁forb
##▁vis
##ener
##▁skj
##▁godt
##▁ber
##rift
##▁hå
##lag
##tak
##▁bruker
##rett
##kter
##riv
##kon
##▁sier
##inner
##ram
##▁ans
##▁ty
##pen
##nd
##▁ma
##▁stør
##▁ti
##▁legg
##▁fol
##▁like
##elser
##eder
##tere
##slo
##ål
##▁gir
##).
##▁vid
##▁y
##▁far
##tes
##▁norske
##▁hjem
##▁fun
##▁norsk
##▁200
##▁fr
##ali
##▁store
##▁all
##▁mor
##øs
##▁akt
##oll
##▁oslo
##met
##nen
##isjon
##▁of
##jekt
##ost
##ire
##▁sen
##▁tilbake
##▁6
##ente
##oner
##▁ingen
##▁skulle
##aker
##▁blant
##eller
##▁tidlig
##▁spes
##▁samme
##▁ten
##▁kommun
##ine
##sel
##formasjon
##▁par
##tem
##gan
##over
##▁løp
##rupp
##▁mo
##▁form
##▁nok
##pro
##▁rundt
##▁bruk
##▁ch
##▁vet
##▁produ
##jø
##atur
##▁blitt
##▁polit
##▁tra
##pet
##fil
##like
##▁kri
##føl
##anse
##▁bak
##asjoner
##▁plan
##▁veldig
##kker
##▁bes
##▁kn
##elige
##fer
##ac
##▁fly
##▁kra
##▁siste
##ug
##sert
##sy
##▁bygg
##dd
##ole
##ate
##▁stat
##heten
##heter
##▁begyn
##▁tro
##aler
##▁finne
##▁mest
##hol
##tter
##ette
##▁hol
##if
##▁tar
##satt
##▁bo
##▁sine
##▁menne
##ive
##▁ev
##erne
##ark
##▁stil
##ess
##olog
##les
##▁mat
##rer
##▁ham
##und
##▁nord
##▁fil
##▁ad
##▁ønsker
##▁lig
##▁bra
##▁innen
##▁fer
##alit
##▁informasjon
##▁forhold
##kom
##skje
##▁klar
##▁gikk
##▁sak
##▁tillegg
##▁beste
##etter
##▁tek
##▁ville
##edet
##▁våre
##ma
##▁kre
##▁videre
##ttet
##ring
##▁7
##iet
##▁derfor
##▁kanskje
##sh
##▁dr
##app
##kket
##▁hos
##▁bedre
##alen
##tis
##ga
##▁venn
##▁bør
##slag
##▁por
##▁gam
##▁stud
##▁tur
##ill
##bru
##▁hov
##urder
##▁inne
##▁mulig
##▁styr
##▁sj
##▁prø
##▁vin
##▁spør
##ører
##▁fri
##▁sa
##styr
##▁valg
##▁åp
##▁egen
##op
##▁mid
##▁su
##valg
##▁ant
##eter
##anske
##▁delt
##iver
##kte
##▁tjene
##▁hand
##▁mål
##ksom
##mid
##▁8
##sf
##▁str
##asser
##▁18
##rat
##▁.
##▁ord
##pr
##▁hoved
##min
##▁spesi
##▁fø
##▁ting
##▁rom
##▁kvinner
##▁fått
##▁gratis
##usjon
##▁gl
##handling
##▁ne
##▁lever
##▁kam
##stre
##far
##▁tak
##semp
##med
##ust
##▁mulighet
##▁gener
##▁intern
##▁samt
##▁sit
##entlig
##gr
##▁on
##▁tidligere
##vel
##▁folk
##▁sikker
##▁eksemp
##▁10
##▁mens
##▁fag
##▁ulike
##▁opple
##▁res
##▁sitt
##▁fot
##▁menn
##føre
##▁end
##▁lu
##▁best
##ges
##▁organ
##▁hans
##red
##▁sett
##▁fordi
##▁fram
##entet
##▁liv
##▁møte
##▁helse
##nings
##▁søker
##▁off
##▁dam
##elen
##▁gode
##▁full
##gjør
##▁viser
##gram
##asjonen
##bar
##atter
##▁sør
##▁områ
##▁besk
##▁prosjekt
##▁jobb
##alitet
##istor
##ister
##res
##▁øy
##▁unn
##rag
##elder
##unkt
##▁vurder
##▁lok
##▁nav
##skapet
##▁komme
##iner
##sj
##ind
##ider
##▁fe
##▁fyl
##tr
##▁syn
##▁9
##uss
##▁nytt
##asse
##▁lov
##▁tv
##▁th
##▁eks
##ise
##stand
##▁stø
##olen
##▁fant
##ps
##▁te
##une
##dri
##▁fle
##▁ung
##▁fakt
##▁kar
##▁aller
##▁utvikling
##søk
##▁gjen
##▁trenger
##▁mann
##dene
##▁ro
##▁tatt
##▁inst
##▁jenter
##stilling
##ogg
##▁fj
##ib
##ivt
##▁beh
##hus
##▁pris
##yd
##ele
##▁hvil
##▁bok
##amil
##▁først
##▁bid
##ay
##▁prob
##▁kontakt
##stå
##▁medlem
##▁tror
##),
##po
##ultur
##▁lær
##▁he
##▁bor
##des
##▁deres
##▁hus
##▁ol
##▁skri
##ført
##sept
##fter
##▁rå
##▁natur
##▁svært
##heng
##▁barne
##▁eng
##mel
##ard
##rakt
##sv
##ivitet
##▁innlegg
##▁gre
##inne
##▁the
##▁ofte
##▁sent
##ank
##▁finnes
##▁forel
##anger
##▁aldri
##ite
##tert
##oks
##▁virk
##▁start
##par
##▁ben
##gå
##▁kjøpe
##000
##▁slutt
##▁verden
##▁kjent
##enge
##ys
##▁stort
##▁eksempel
##jør
##▁annen
##▁result
##ian
##▁dersom
##▁tok
##▁mennesker
##sn
##▁mus
##utter
##▁alltid
##▁skap
##▁gjort
##▁gjelder
##▁oppd
##▁part
##▁samarbeid
##▁verd
##▁hjelp
##vir
##tet
##▁mindre
##ond
##ikken
##kur
##▁ste
##▁spørsm
##▁forskjel
##▁bilder
##▁famil
##▁mener
##ighet
##▁hvert
##▁as
##▁histor
##ikker
##▁sol
##enes
##▁hånd
##▁15
##▁eu
##▁endr
##▁kor
##▁tilf
##▁kli
##▁måtte
##▁ute
##▁hal
##▁skjer
##▁bestem
##skelig
##▁små
##ytte
##▁finner
##20
##▁svar
##▁red
##stra
##▁søk
##▁løpet
##▁arbeids
##▁hø
##▁mark
##asje
##▁står
##▁kultur
##▁henne
##▁ja
##sket
##stad
##▁utfor
##ening
##▁*
##▁di
##▁større
##▁vide
##▁skole
##▁måte
##▁us
##▁des
##na
##▁ansvar
##tek
##konom
##unnskap
##▁økonom
##▁am
##str
##tidig
##▁porno
##▁tem
##▁dre
##allet
##▁leder
##▁enkelt
##▁sje
##esten
##▁tekn
##▁kommune
##▁0
##▁vann
##▁ster
##iali
##ade
##bl
##▁rel
##▁prosent
##▁ju
##ille
##øker
##▁side
##under
##pper
##▁ligger
##▁dø
##▁ang
##▁brukes
##ivå
##bygg
##agra
##til
##ign
##▁grupp
##sdag
##▁:
##bo
##org
##▁sc
##▁nød
##▁kjær
##▁behov
##▁lå
##▁dy
##osi
##▁kal
##uder
##verk
##▁mass
##sted
##▁ga
##nad
##▁enkel
##ffekt
##vendig
##▁samf
##▁resept
##▁fortsatt
##kning
##▁ditt
##▁milli
##reg
##▁sted
##▁fast
##▁kjære
##▁plass
##▁organis
##▁lø
##enner
##▁art
##▁tiden
##io
##ropp
##syn
##▁sh
##▁vanskelig
##▁dine
##▁12
##kes
##orde
##▁neste
##▁langt
##▁viagra
##▁kontr
##▁hold
##1.
##bil
##off
##sak
##▁2017
##▁syk
##ip
##age
##sene
##▁so
##▁1.
##▁løs
##▁stra
##assen
##▁hot
##tre
##by
##▁satt
##spl
##▁utt
##olle
##▁virkelig
##▁kunnskap
##▁try
##▁kjærlighet
##ow
##▁utdan
##dust
##ager
##▁ungdom
##▁syke
##▁17
##▁sær
##▁mån
##sess
##▁vårt
##sett
##▁spesielt
##▁kort
##▁forv
##▁dager
##▁ganger
##rasjon
##▁pres
##▁skre
##gende
##▁hatt
##▁felle
##fri
##end
##ott
##▁krist
##yttet
##ensjon
##are
##lys
##▁sosi
##gjer
##led
##▁laget
##▁krav
##▁norges
##midler
##▁nasjon
##▁livet
##uler
##▁kir
##▁følge
##▁video
##▁ret
##▁samtidig
##spro
##▁erfar
##▁heller
##▁spørsmål
##▁is
##▁feil
##leder
##▁veg
##▁program
##sikt
##▁vanlig
##ikke
##elef
##▁allerede
##▁lett
##▁opplev
##ubb
##agt
##▁regist
##▁hvorfor
##akke
##▁avt
##▁bas
##veg
##▁ett
##jen
##▁gjerne
##▁topp
##▁forskjellige
##▁legge
##ansen
##get
##▁app
##▁fem
##▁ter
##▁gamle
##grupp
##▁ferdig
##nt
##▁liten
##▁lite
##▁bort
##▁ca
##▁voks
##▁gjorde
##ck
##▁senere
##▁tor
##tatt
##entene
##udd
##gre
##sfor
##▁råd
##▁effekt
##▁16
##line
##▁miljø
##▁rekke
##ina
##ha
##▁x
##▁fleste
##▁stand
##▁hjelpe
##gjeng
##▁øv
##vil
##▁fire
##atet
##▁lenge
##▁hjer
##dustri
##▁blogg
##bef
##▁problem
##▁brukt
##ont
##føring
##grunn
##▁interes
##▁hvem
##▁jan
##rik
##spunkt
##▁ka
##▁betyr
##▁bre
##vi
##▁dan
##▁holde
##-1
##▁konkur
##▁pos
##oden
##ong
##▁kunst
##følg
##▁kjø
##▁spill
##▁mine
##▁bolig
##menter
##ice
##vid
##akk
##▁forn
##▁hav
##▁kjem
##▁nødvendig
##mark
##rig
##▁behandling
##ubli
##rist
##▁riktig
##▁mitt
##▁tiltak
##▁euro
##▁dra
##▁rep
##likt
##fl
##▁sommer
##▁klok
##▁dermed
##▁kap
##▁funksjon
##ball
##▁mob
##▁akk
##▁ab
##▁kvalitet
##mene
##syk
##▁dagen
##vor
##▁arbeidet
##vere
##▁besøk
##▁,
##▁dok
##va
##æring
##▁nesten
##▁dire
##ksomhet
##▁aktivitet
##berg
##ral
##▁kjør
##▁ener
##▁kropp
##▁kur
##▁gitt
##▁fjer
##▁rapp
##ativ
##▁likevel
##▁grad
##rukt
##▁14
##▁rask
##andre
##▁bur
##▁dår
##▁internasjon
##▁arr
##vert
##gt
##▁avsl
##▁online
##▁utfordr
##▁gud
##▁hu
##▁faktisk
##▁vær
##▁stem
##▁vest
##▁ganske
##▁met
##holder
##▁sette
##▁tru
##yndig
##▁ko
##ct
##ingene
##▁fok
##▁kroner
##kken
##▁komp
##▁/
##ummer
##▁kost
##▁ekte
##▁hør
##▁30
##anser
##▁sing
##la
##▁største
##▁utvalg
##▁minst
##▁betyd
##▁etab
##▁ris
##▁byg
##kluder
##▁dri
##akker
##qu
##ce
##▁13
##lagt
##urat
##▁felles
##unnet
##▁mod
##▁damer
##orer
##▁sty
##▁vei
##▁lagt
##ses
##▁ing
##▁star
##▁tilgjeng
##▁bel
##terer
##▁pas
##områ
##▁støtte
##▁nev
##ka
##▁tan
##▁begge
##sø
##svar
##fe
##▁nr
##▁int
##fører
##br
##▁bek
##▁produksjon
##fra
##rykk
##alte
##ått
##lene
##▁stre
##ori
##▁deler
##▁årene
##sam
##▁kraft
##▁enda
##▁personer
##>>.
##▁2.
##ffe
##▁lar
##▁forstå
##sport
##▁forskning
##▁dom
##ban
##ateri
##▁nettst
##▁lin
##▁økt
##▁akkurat
##mann
##ivers
##ærer
##▁anbef
##▁omf
##▁tjenester
##kra
##følge
##▁ansatte
##up
##jell
##▁mott
##ftet
##▁199
##▁tilbud
##▁gar
##▁konkurr
##▁undersøk
##▁lo
##▁utro
##▁slike
##orte
##▁kvinne
##uelle
##▁priv
##▁2016
##petanse
##rige
##▁es
##teg
##▁regjer
##▁publi
##sd
##▁massasje
##▁ind
##ningene
##drett
##▁joh
##▁system
##▁ekstra
##jeg
##▁stedet
##▁sann
##▁synes
##ennende
##side
##kjent
##".
##kv
##isen
##part
##▁oppf
##mber
##▁liker
##▁hennes
##▁seks
##bud
##▁z
##fin
##▁co
##▁ob
##▁hjemme
##ktor
##▁bidra
##▁lage
##vær
##elefon
##▁ban
##▁situ
##▁kontroll
##uer
##▁stad
##▁kart
##▁nei
##lingen
##pa
##▁innhold
##▁tot
##▁egne
##▁søke
##▁ram
##▁ses
##rit
##▁ul
##▁navn
##▁selskap
##▁takk
##meld
##▁enkelte
##▁egentlig
##▁bud
##bruk
##▁hens
##▁em
##løp
##▁spiller
##ialis
##▁vise
##bet
##▁året
##▁lese
##▁event
##2.
##▁%
##utvik
##afil
##▁im
##▁venner
##▁kveld
##fall
##▁mel
##▁penger
##▁bestil
##▁leng
##jekter
##▁spille
##lert
##▁imidler
##disjon
##iller
##0-
##▁imidlertid
##▁it
##▁lære
##▁særlig
##▁altså
##▁utenfor
##▁saken
##▁samfunn
##▁bilde
##▁pop
##oen
##▁univers
##▁disk
##ins
##▁halv
##tering
##▁but
##▁oppg
##▁unge
##▁timer
##▁kil
##ron
##▁verdens
##▁eldre
##kere
##▁sikkerhet
##▁mag
##▁drift
##delig
##▁foret
##▁lev
##▁mobil
##▁ak
##▁eneste
##▁dårlig
##fol
##▁pri
##yt
##oven
##raf
##▁millioner
##ologi
##heim
##▁salg
##▁sikre
##går
##▁11
##▁forslag
##▁høyere
##▁serv
##▁data
##▁dyr
##▁ide
##▁nak
##ats
##▁...
##▁hverandre
##▁cialis
##▁legger
##står
##▁landet
##▁2015
##linger
##▁alder
##▁oppdater
##▁pa
##mere
##▁les
##liv
##▁eien
##ytt
##▁pass
##aks
##▁inkluder
##▁elekt
##▁tran
##▁vekt
##▁gjenopp
##▁test
##▁død
##rum
##kn
##▁barna
##▁25
##ino
##adet
##▁risik
##amp
##isert
##▁skjed
##▁dess
##tern
##▁pra
##▁jun
##▁veien
##▁elev
##avt
##▁oppl
##▁tap
##▁bergen
##iene
##▁begr
##▁fokus
##▁aut
##▁oper
##skudd
##▁fantast
##▁klart
##▁(1
##▁antall
##one
##▁barneh
##ym
##▁området
##▁prosjektet
##▁prøve
##▁peri
##året
##▁spennende
##▁prof
##▁100
##▁byen
##▁åpen
##urer
##▁anal
##▁ven
##ike
##▁forteller
##▁håper
##aten
##▁sver
##usen
##ånd
##siden
##▁utdanning
##▁industri
##▁gått
##her
##▁holder
##atene
##råk
##▁kamp
##▁tilgjengelig
##sta
##▁mon
##▁funnet
##ålet
##▁innenfor
##▁imp
##▁jobber
##øte
##▁øst
##▁musikk
##▁id
##▁oppga
##201
##urt
##▁ifølge
##▁slag
##▁eget
##van
##▁utgang
##▁russ
##▁uke
##▁anlegg
##▁fortset
##ue
##man
##ves
##duksjon
##▁teg
##▁eiendom
##▁bry
##ssur
##▁psyk
##▁kjenner
##▁fjor
##nn
##▁startet
##▁il
##omm
##holde
##▁lønn
##▁dig
##▁ei
##lemer
##▁jord
##▁erot
##▁fordel
##uten
##▁fa
##▁skyl
##▁region
##ore
##aller
##ppe
##▁ann
##▁marked
##▁idrett
##▁lille
##▁gutt
##▁hvilke
##▁kompetanse
##▁popul
##▁film
##▁sykdom
##▁begynte
##itter
##ående
##▁instit
##ator
##▁luft
##minist
##▁skolen
##▁ge
##▁arrang
##▁natt
##▁lenger
##▁insp
##▁tradisjon
##▁klubb
##øst
##▁minutter
##▁kvinn
##▁års
##nor
##▁bygge
##dige
##isin
##▁kjønn
##▁bu
##spill
##hengig
##ht
##ation
##▁led
##▁forf
##▁telefon
##▁produkt
##▁skriver
##▁følger
##▁fest
##▁kjøre
##▁poeng
##▁forsvar
##▁2014
##oler
##▁forh
##sjett
##indelse
##8.
##uts
##▁deretter
##▁finn
##▁begynner
##▁høyt
##lede
##ou
##▁jente
##▁fav
##▁hotell
##ansett
##▁utrolig
##▁fint
##0.
##entlige
##▁høyre
##orten
##▁kommet
##▁høre
##3.
##ansk
##dal
##▁utstyr
##på
##atisk
##▁oppr
##▁møter
##eren
##▁velge
##ai
##▁nivå
##▁skrive
##▁nærings
##▁skog
##▁uansett
##agen
##▁født
##▁gjøres
##▁dagens
##▁let
##▁morgen
##▁posit
##▁tenke
##▁bakgrunn
##▁amer
##▁forkl
##akter
##kret
##▁forbindelse
##▁knyttet
##skin
##▁krig
##▁sende
##vol
##ikasjon
##inst
##aksjon
##▁3.
##komm
##▁opplys
##▁snakke
##ack
##ca
##rom
##▁sep
##plan
##giv
##▁jul
##▁vite
##▁tør
##▁tema
##▁trening
##▁avgjør
##beide
##snitt
##▁utvikle
##bok
##▁fores
##ensen
##plass
##▁bi
##▁fall
##▁till
##▁fylke
##▁okt
##tallet
##▁via
##▁skape
##▁50
##▁design
##>>,
##▁mis
##ative
##mt
##rifter
##▁opprett
##nå
##int
##▁mai
##▁behand
##▁ska
##▁trygg
##▁ski
##▁favor
##▁altern
##post
##▁eier
##▁politiet
##pros
##▁tom
##▁prøv
##▁rø
##deling
##ons
##føres
##kene
##▁inns
##▁energi
##▁strøm
##▁påvir
##▁søknad
##▁materi
##ument
##isering
##arer
##▁følgende
##▁sil
##▁myndig
##▁stopp
##▁søn
##▁trond
##▁aug
##▁norm
##▁tred
##▁medlemmer
##▁alvor
##▁handler
##▁ele
##▁vold
##▁fjell
##dus
##▁stadig
##▁skje
##skrift
##▁burde
##but
##▁forl
##▁åpne
##▁uker
##▁usa
##fte
##▁beveg
##▁måned
##ink
##uelt
##▁gammel
##▁go
##dat
##▁meld
##▁esk
##da
##▁ba
##▁reise
##▁kjente
##jef
##▁apr
##▁fys
##▁kommunen
##▁ark
##kkes
##▁nov
##nene
##▁barnet
##▁direkte
##abil
##dde
##▁pe
##▁sykehus
##okke
##▁me
##▁selskapet
##▁universitet
##stene
##▁voksne
##anter
##organ
##9.
##▁foto
##▁ren
##kkel
##▁oppdag
##▁service
##gift
##øse
##enten
##ytter
##▁kry
##hør
##▁ho
##rep
##menn
##▁presen
##▁nem
##iljø
##▁oppdrag
##▁gjenopprett
##arbeidet
##▁passer
##▁flott
##▁viktigste
##▁administ
##▁detal
##▁glad
##▁fotball
##øv
##▁rette
##▁amerik
##unt
##▁internett
##▁cas
##▁inve
##▁forbru
##▁sjel
##bin
##▁vok
##▁date
##▁rik
##▁sånn
##otek
##fold
##▁chat
##▁ressur
##▁bedrift
##øren
##ja
##vern
##alet
##ester
##▁sikkert
##▁døde
##avn
##ktøy
##▁pu
##verket
##▁utgangspunkt
##giver
##",
##sider
##▁vedtak
##partem
##co
##▁lys
##▁gu
##ksis
##▁midt
##▁finans
##▁benytte
##▁transport
##asjer
##▁tilgang
##ograf
##▁aks
##▁regn
##▁kons
##odet
##▁lege
##▁digit
##fritt
##▁masse
##▁tilbyr
##▁funger
##fo
##4.
##▁steder
##oret
##▁regel
##▁snart
##▁prakt
##▁esc
##▁moder
##▁øke
##▁generisk
##▁bod
##ers
##▁basert
##▁oversikt
##▁sand
##▁setter
##▁tren
##▁naturlig
##▁tu
##ksjoner
##▁pot
##▁fac
##▁grunnlag
##▁stav
##▁sist
##aling
##mes
##onser
##lende
##utvalg
##fag
##▁arbeider
##gjøre
##▁hev
##▁føler
##▁sport
##▁stå
##▁nø
##▁oppmer
##▁tilp
##lik
##splan
##▁fornøy
##ferd
##▁hom
##isere
##▁lokale
##▁vek
##▁problemer
##denafil
##▁traf
##▁ur
##▁foreldre
##bart
##▁fas
##essig
##nere
##spekt
##resent
##▁feb
##▁krit
##▁tips
##▁retning
##lipp
##landet
##▁klokker
##▁prøver
##▁jobbe
##kraft
##▁val
##▁ag
##▁fo
##▁planlegg
##▁vinter
##▁sto
##▁årets
##▁elsker
##iste
##▁konse
##enting
##▁måneder
##▁langs
##ju
##ta
##▁skrevet
##▁ring
##ørdag
##▁ønsket
##▁ellers
##bu
##ebo
##▁holdt
##▁kroppen
##▁single
##▁fry
##▁forut
##7.
##6.
##▁bilen
##nev
##ssy
##kningen
##lev
##▁offentlige
##▁lyst
##▁do
##▁registrer
##▁raskt
##▁familie
##▁medisin
##▁sannsyn
##serv
##▁sverige
##▁erfaring
##delser
##ativt
##person
##terte
##▁bevis
##▁bestille
##mu
##▁nøy
##▁lik
##▁lokal
##pre
##▁sosiale
##▁lørdag
##▁mist
##▁bjør
##▁super
##igheter
##▁slett
##▁skil
##skole
##▁viktige
##▁mand
##▁klær
##ko
##middel
##kjen
##ømme
##▁folke
##▁gjennomført
##hetene
##▁inneholder
##▁områder
##▁post
##▁utviklet
##▁innlegget
##▁sentral
##▁sku
##▁viste
##els
##▁tross
##▁web
##▁måten
##▁tredje
##▁forsøk
##▁foran
##▁offentlig
##iker
##▁profil
##▁ex
##▁yn
##▁velger
##sbe
##skaper
##▁pasi
##uttet
##▁helst
##▁sønn
##følgelig
##▁perf
##▁registr
##▁hy
##▁vant
##▁hvilken
##uar
##▁set
##utvikling
##▁sky
##▁ir
##visning
##▁kirke
##▁prosjekter
##▁bon
##ium
##iere
##kjøp
##▁2013
##,5
##▁forbed
##za
##itte
##▁samlet
##vå
##uell
##▁brann
##▁trom
##▁juni
##▁redu
##▁reis
##▁sve
##▁trondheim
##elsene
##▁daglig
##▁stille
##▁muligheter
##▁4.
##▁skjøn
##▁hygg
##▁nærmere
##▁new
##▁unngå
##▁198
##dagen
##▁nemlig
##ateg
##▁tall
##sa
##ingsm
##sessen
##▁trå
##▁venstre
##▁endringer
##▁selvfølgelig
##lå
##▁enten
##▁praksis
##▁blod
##▁fremtid
##▁000
##▁styret
##▁styre
##▁fantastisk
##▁nettsteder
##▁muligheten
##bare
##urn
##▁endre
##▁nettopp
##▁klare
##▁tun
##otte
##▁gul
##▁lærer
##▁leve
##▁car
##sering
##▁alene
##▁norw
##▁sitter
##ligere
##▁fine
##▁historie
##▁endelig
##mar
##▁mør
##esp
##serer
##▁lav
##nader
##tekt
##oren
##▁blå
##▁språk
##årene
##ssen
##likk
##livet
##▁40
##▁vit
##stat
##▁mannen
##▁eskorte
##gene
##5.
##lo
##▁økonomi
##skolen
##ming
##▁klarer
##▁virksomhet
##▁bildet
##▁oppnå
##▁interess
##▁dro
##somt
##▁ytter
##▁krever
##▁gro
##▁valgt
##▁tusen
##▁opptatt
##teres
##stid
##veien
##▁verdi
##▁meter
##ald
##▁hjelper
##▁internasjonale
##kant
##▁forskjell
##løs
##fj
##▁kjæreste
##▁fiske
##▁forsik
##▁inneb
##mon
##jed
##▁føre
##▁januar
##▁porn
##ild
##ante
##ensi
##▁hin
##▁tydelig
##ska
##batt
##▁dist
##▁facebo
##30
##▁sammenlig
##▁bank
##ham
##▁tenker
##råd
##▁fisk
##▁grun
##▁'
##hel
##øke
##▁lyd
##▁resten
##partementet
##anlegg
##▁glem
##▁familien
##▁rek
##aven
##▁organisasjon
##ren
##▁stavanger
##▁produkter
##▁2012
##kort
##▁fro
##▁privat
##▁ref
##▁styrke
##▁spillet
##ies
##varer
##▁ident
##▁(2
##stendig
##eks
##com
##▁opprinn
##▁navnet
##▁engel
##øt
##▁søndag
##▁jer
##▁budsjett
##utte
##▁størr
##▁uts
##eltet
##dere
##▁høst
##▁tilsvar
##ales
##vare
##ho
##▁vurdering
##▁ry
##jema
##▁greit
##kont
##iz
##▁qu
##▁dram
##▁opplæring
##ipp
##▁skikk
##▁bib
##▁dele
##bel
##ologisk
##▁konf
##▁ed
##▁hei
##ity
##▁fortelle
##▁bro
##erte
##▁hum
##▁regjeringen
##▁fart
##▁san
##akere
##aget
##mens
##sty
##drag
##▁neg
##▁kombin
##▁kommunikasjon
##ph
##▁gangen
##▁spe
##▁sider
##▁fører
##rev
##undet
##rar
##▁stol
##visjon
##▁virker
##-2
##delt
##▁yr
##▁vist
##deles
##vin
##▁kong
##▁ingenting
##▁turen
##▁tjeneste
##▁ru
##▁are
##▁gren
##▁konst
##▁facebook
##▁resultater
##▁heter
##▁reseptfritt
##tember
##▁dame
##sper
##akket
##▁time
##▁uav
##▁trykk
##▁består
##▁meget
##▁:)
##▁brans
##▁fu
##▁befol
##▁artikk
##▁arbeidsm
##▁log
##▁forrige
##▁hud
##▁bygget
##▁kampen
##▁slå
##▁defin
##sler
##ruktur
##▁målet
##▁båt
##ilig
##▁skjedde
##▁att
##....
##▁datingside
##mod
##drene
##▁medier
##▁ledd
##ile
##ellen
##hver
##øver
##plassen
##▁vare
##▁komment
##apir
##▁midler
##▁merke
##esjon
##▁dokument
##▁kat
##ollen
##▁olje
##▁kunder
##vand
##▁mam
##▁tab
##▁nærme
##▁snakker
##▁avtale
##serte
##!!
##▁fyr
##▁naken
##▁team
##king
##▁ass
##▁pensjon
##▁overra
##▁ødel
##▁plasser
##sorg
##▁brukere
##▁jev
##▁fredag
##▁slutten
##▁legges
##▁lettere
##▁dato
##ober
##▁ønske
##▁selve
##▁sagt
##vember
##ple
##▁ky
##▁klass
##▁nettet
##setning
##delsen
##tok
##▁sat
##verre
##▁bereg
##nte
##▁tilby
##usjoner
##▁rappor
##lin
##▁interv
##oder
##▁delta
##▁sammenheng
##▁veil
##▁huset
##▁prem
##▁henhold
##sep
##▁kob
##oller
##▁virksom
##spil
##▁fang
##▁drikke
##of
##rapp
##▁september
##kel
##▁abs
##▁fungerer
##▁christ
##▁saker
##kkelig
##▁verktøy
##▁utviklingen
##▁197
##▁august
##orden
##▁ves
##▁sendt
##iør
##▁bal
##rivil
##▁gjeld
##▁kolle
##sember
##▁betydning
##ith
##."
##forb
##50
##▁klokke
##▁sig
##▁øk
##▁varme
##kan
##▁nasjonal
##▁tysk
##▁gjennomsnitt
##gra
##▁slags
##▁2011
##▁kurs
##/1
##jenester
##kjør
##▁21
##▁standard
##▁leverand
##▁løsninger
##▁ku
##▁oppgaver
##allen
##▁billig
##▁24
##forsk
##bas
##▁samfunnet
##▁lun
##▁hensyn
##nett
##▁spise
##▁skjønn
##▁jobben
##▁vurdere
##▁opplysninger
##▁sexy
##▁5.
##▁elevene
##▁totalt
##han
##mål
##▁vak
##fly
##▁oppfølg
##styret
##▁innebærer
##▁produs
##▁mars
##▁bidrar
##inget
##▁heldig
##▁motor
##▁organisasjoner
##▁makt
##istikk
##full
##fort
##▁free
##▁personlig
##▁lager
##▁represent
##iss
##▁kos
##▁partner
##▁profesjon
##▁omt
##ørene
##▁november
##▁elektron
##▁invester
##▁ph
##ah
##▁april
##▁rus
##plikt
##drer
##▁besl
##▁skjul
##▁kateg
##▁fornøyd
##▁relev
##emm
##▁unna
##▁høye
##vok
##▁sjø
##▁nyheter
##▁svart
##▁sentrum
##▁begynne
##▁innbygg
##▁af
##▁bøker
##▁refer
##▁vedlike
##ledning
##sut
##▁desember
##▁virke
##skl
##▁høsten
##▁hit
##▁kjæresten
##▁spr
##▁meng
##▁brukte
##▁tvil
##▁formid
##▁gruppe
##aen
##▁jakt
##▁flotte
##▁starter
##▁2018
##▁europa
##▁innov
##▁øyeb
##enta
##▁analy
##▁tett
##▁foren
##▁gis
##▁sjekke
##▁autom
##prosjekt
##gere
##ekte
##▁juli
##organis
##ama
##▁bære
##▁indiv
##▁drøm
##▁grønn
##▁sannsynlig
##▁rolle
##▁øker
##▁tekst
##▁stein
##sse
##sset
##▁ok
##stud
##len
##▁begrens
##▁com
##▁markeds
##aland
##slin
##ften
##ssel
##▁ene
##▁interesse
##▁forfatter
##▁dessuten
##▁ivar
##▁amb
##▁perioden
##▁omsorg
##▁tri
##vide
##▁betale
##▁møtte
##▁kjøkken
##▁resultat
##▁fig
##▁elever
##engene
##▁frivil
##ane
##▁resta
##▁escort
##▁hj
##hjel
##▁stoff
##▁lengre
##▁grunnlegg
##ikere
##venn
##enfor
##fest
##▁invi
##▁hyggelig
##okker
##▁sant
##▁skikkelig
##▁jule
##▁terr
##rives
##▁snø
##▁sosial
##▁etabler
##▁høyde
##▁selvs
##resen
##forhold
##ffer
##▁bekre
##▁tilfeller
##rike
##▁jobbet
##▁fortsette
##era
##▁foreg
##▁oppfyl
##▁typer
##alist
##▁hovedsak
##apotek
##▁måter
##▁nettstedet
##▁opphold
##ris
##▁skade
##▁type
##▁bom
##gifter
##▁trodde
##▁gjeng
##▁avhengig
##yrå
##▁datter
##▁ep
##▁oktober
##▁inkludert
##▁glede
##stoff
##ekter
##▁godkjent
##▁åpnet
##▁forvalt
##▁borte
##skra
##sle
##▁starte
##skj
##▁doku
##skil
##▁moderne
##▁fir
##▁boken
##▁gutter
##▁hodet
##melding
##yen
##stillinger
##▁utfordringer
##▁sal
##usere
##▁driver
##▁jes
##▁yo
##stein
##rene
##▁blom
##smann
##øtet
##enne
##ved
##▁ful
##.1
##ledes
##gn
##inister
##▁sukker
##▁punkt
##gangen
##alif
##▁avvik
##▁sterke
##▁sjekk
##▁perfekt
##use
##▁dessverre
##kjente
##▁thai
##▁nettapotek
##ata
##▁lavere
##▁km
##▁sti
##▁begynn
##▁gjennomføre
##▁publik
##▁filmen
##asjons
##▁2010
##itra
##alog
##bladet
##▁bestemt
##▁hopp
##▁smak
##program
##▁22
##▁mic
##▁aktiviteter
##▁opplever
##ansvar
##▁nt
##▁redusere
##▁rør
##▁nasjonale
##▁rob
##▁relig
##rådet
##▁markedet
##iktet
##▁private
##ment
##▁fal
##ruar
##▁smer
##▁utover
##arbeide
##▁oppleve
##▁kjøper
##ix
##▁sesong
##▁rygg
##▁pen
##▁overfor
##engt
##dire
##skyl
##▁registrert
##satte
##▁enhver
##ident
##▁velkom
##▁årsak
##▁merk
##▁rut
##▁spor
##▁leser
##▁alternativ
##▁reguler
##▁enkle
##hvert
##▁represen
##ittel
##▁inntil
##vek
##▁va
##▁slikt
##▁gull
##▁visste
##▁can
##ongen
##tene
##▁risiko
##▁mamma
##▁tol
##▁tilsvarende
##▁grøn
##ski
##vist
##mester
##undersøk
##tekn
##▁stilling
##▁sch
##▁fred
##▁lange
##stemet
##▁bloggen
##elden
##▁sign
##▁feng
##jenesten
##▁priori
##▁butikk
##▁populære
##▁forber
##▁forret
##▁versjon
##▁196
##▁kjører
##▁spillere
##▁valgte
##▁journ
##førte
##ement
##▁pol
##▁ori
##åp
##attet
##▁økonomisk
##ena
##▁osv
##▁john
##▁venter
##▁isl
##▁tas
##ork
##▁etablert
##▁aner
##isjonen
##▁meste
##▁yngre
##▁enklere
##▁hvit
##▁generelt
##vit
##▁resultatet
##vann
##▁levitra
##onom
##fyl
##veis
##▁lei
##▁opt
##▁dob
##▁spar
##▁sek
##▁selvsagt
##▁hensikt
##området
##usjonen
##▁restaur
##▁bildene
##▁bekym
##▁farge
##▁send
##astet
##▁mart
##start
##▁samle
##okk
##▁berg
##▁vinner
##må
##▁eksp
##ffet
##onn
##▁februar
##synet
##▁inngå
##▁arbeidst
##▁nab
##▁fortsetter
##hav
##sken
##▁rød
##▁formål
##rem
##▁gift
##▁mr
##skomm
##uft
##▁kjøpt
##▁øvrige
##polit
##▁kjempe
##▁forsv
##▁utsatt
##▁favoritter
##huset
##former
##▁godkjen
##ete
##imot
##▁økonomiske
##▁hører
##▁farger
##ros
##▁tver
##▁fritid
##fr
##▁sterkt
##▁tanke
##▁skrev
##rere
##▁ansvarlig
##enske
##▁sterk
##▁ple
##▁casino
##lid
##▁absol
##eleg
##▁konkurranse
##▁situasjonen
##▁gøy
##▁studenter
##▁menneske
##▁utgjør
##▁rim
##▁prins
##srett
##▁klarte
##nende
##▁oppfølging
##▁eksister
##vende
##sloven
##rør
##▁europe
##stet
##▁radi
##asset
##▁homo
##▁forskrift
##tra
##▁vedlikehold
##▁tillit
##ach
##▁møtet
##erer
##edag
##▁boka
##▁tyn
##▁individ
##sstil
##▁muse
##ital
##skri
##ologiske
##▁kalt
##økt
##▁1,
##arder
##▁vakre
##enet
##trykk
##alene
##▁teknologi
##laget
##▁potensi
##▁194
##▁voksen
##▁60
##itu
##▁cl
##▁varier
##revet
##produksjon
##▁vent
##▁2009
##▁innvand
##▁trafikk
##▁tø
##ienter
##▁sle
##▁kunde
##th
##atiske
##▁engelsk
##▁studie
##▁politiske
##▁fullt
##uren
##▁nrk
##▁grunnleggende
##▁con
##utvalget
##af
##▁kvelden
##▁redd
##▁vanligvis
##▁bred
##isi
##ebygg
##▁vekst
##peratur
##▁band
##▁vanlige
##▁kommunene
##▁sang
##kår
##nær
##ns
##▁forholdet
##asjonene
##▁skatte
##▁hjerte
##somme
##▁sw
##spros
##▁skrift
##sid
##dighet
##▁rommet
##ika
##▁forstår
##▁vider
##▁milit
##ktør
##▁karakter
##ksjonen
##ringer
##▁regler
##▁undersøkelse
##▁stemmer
##iserte
##▁sitte
##▁ekteskap
##irasjon
##▁uttrykk
##▁danmark
##miljø
##als
##delingen
##ben
##merket
##▁inspir
##▁nevnt
##▁frank
##):
##▁spørsmålet
##fot
##▁johan
##▁kol
##etøy
##▁oppfor
##▁jern
##dret
##gave
##▁videoer
##gruppen
##utdan
##ødsel
##▁eksper
##▁avgjørende
##▁6.
##eland
##▁flyttet
##▁tenkt
##▁papp
##▁invol
##▁student
##▁reiser
##øyt
##▁kå
##kam
##▁parker
##▁politi
##spart
##▁ennå
##▁port
##▁historien
##▁torsdag
##sopp
##mor
##deren
##▁mennesk
##aut
##▁programmet
##▁bab
##▁grupper
##▁tråd
##▁treng
##▁stund
##ms
##▁utg
##▁utn
##ania
##5,
##▁tenkte
##▁satte
##▁gru
##▁sentra
##▁imot
##▁ivaret
##▁mandag
##▁prote
##punkt
##▁regjering
##▁gleder
##▁opplevelse
##▁ytterligere
##▁kvalif
##▁såk
##▁røy
##▁oppdatert
##stemer
##▁tj
##lever
##▁ettersom
##▁hor
##instit
##▁utført
##▁kostnad
##▁amerikanske
##▁pluts
##▁hardt
##2,
##▁skaper
##▁tilsyn
##▁10.
##ure
##▁omtr
##▁beskjed
##▁energ
##stander
##▁handling
##▁flytte
##eliv
##▁vedtatt
##▁pc
##▁retningslin
##si
##ørt
##▁klikk
##▁spesif
##øtt
##▁betydelig
##dating
##▁sommeren
##har
##▁bedrifter
##ias
##attende
##▁spørre
##▁hundre
##▁ke
##holdt
##▁område
##▁kjøtt
##▁sykkel
##▁varer
##mot
##iler
##▁erfaringer
##iti
##▁periode
##ash
##▁opply
##sminister
##utning
##▁sko
##kor
##▁utvid
##▁pengene
##▁vari
##▁verdt
##▁fremdeles
##sre
##orier
##▁23
##00-
##▁live
##æren
##▁normalt
##repet
##▁nettsted
##kost
##▁åpner
##spo
##▁absolutt
##▁detaljer
##▁tann
##▁von
##▁opps
##▁vente
##▁eval
##▁bef
##▁plutselig
##▁vg
##atelse
##▁slapp
##senter
##▁sørge
##▁ment
##sc
##▁omtrent
##▁høyeste
##▁mangler
##▁hil
##▁ni
##strøm
##▁selger
##▁match
##egående
##▁tilkn
##▁interessant
##▁mc
##▁orienter
##▁årsm
##asitet
##▁konkret
##▁klubben
##ase
##aktig
##▁goog
##▁kjærligheten
##ians
##▁snakket
##▁tidspunkt
##▁disp
##▁norway
##▁derimot
##gte
##▁prest
##slaget
##▁deilig
##▁sir
##▁erik
##sens
##isjoner
##handel
##▁maskin
##▁nordmenn
##▁tim
##▁endring
##parten
##▁publikum
##▁filmer
##▁tir
##▁tilrett
##▁toppen
##▁jon
##ensk
##▁retten
##abel
##▁aker
##▁seng
##industri
##▁sildenafil
##▁nylig
##bygging
##▁benyttes
##▁isra
##▁forhånd
##iger
##▁mal
##sette
##▁oppgave
##▁skol
##kar
##norge
##▁fysisk
##butikk
##▁tilfred
##▁lek
##fjord
##▁vik
##▁spre
##▁cm
##▁musk
##vs
##▁utenland
##▁nummer
##▁politisk
##mb
##▁underhold
##▁2008
##▁problemet
##▁regnskap
##alis
##akken
##▁bist
##▁skjedd
##▁tilstre
##dy
##seres
##smessig
##▁glob
##▁innsats
##▁slo
##stillingen
##▁gjenoppretting
##▁klasse
##▁spesiali
##ana
##drik
##▁uken
##▁husk
##delse
##▁seri
##▁wh
##▁innom
##isme
##▁endret
##kommende
##urte
##▁debatt
##fun
##▁våpen
##mo
##▁arbeide
##▁velkommen
##▁suk
##▁ledelse
##steder
##▁aktiv
##▁seier
##▁viten
##▁husker
##▁fatt
##▁resp
##▁ressurser
##▁forvent
##▁unntak
##▁forutset
##au
##aske
##▁trener
##10
##▁felt
##▁vinne
##høy
##▁bestemte
##▁prisen
##departementet
##▁tå
##3,
##▁kjenn
##▁rad
##atør
##▁aktuelle
##troll
##▁bland
##▁straff
##▁pasienter
##▁drept
##▁beskriv
##adal
##▁trekke
##▁strand
##nummer
##▁umiddel
##▁tromsø
##▁presse
##ikkerhet
##▁vannet
##▁forsikring
##▁uavhengig
##▁utb
##mat
##▁nærheten
##andid
##▁sentrale
##ogn
##▁oppe
##ansert
##▁papir
##▁skad
##▁forbruker
##▁mi
##shus
##▁motiv
##▁vekk
##telse
##▁disku
##▁foreldrene
##▁frykt
##▁lave
##▁klima
##nivå
##▁senter
##▁utform
##▁anbefaler
##▁bord
##▁ekstre
##▁kommuner
##▁gave
##▁videregående
##▁7.
##ung
##gaver
##▁bevisst
##▁kle
##▁resultatene
##▁mening
##▁itali
##▁sesongen
##▁ill
##▁inntekt
##▁stabil
##▁stjer
##▁alvorlig
##▁relativt
##rette
##▁fis
##▁cam
##▁sov
##▁besøke
##▁brit
##jeneste
##▁kontaktann
##▁beskri
##plasser
##▁situasjon
##alisering
##ettet
##▁administrasjon
##▁utvikler
##▁oppdaget
##-)
##▁forebygg
##ick
##▁statens
##▁oven
##▁fremst
##▁ungdoms
##tom
##▁strateg
##▁arbeidsgiver
##skog
##▁oppmerksom
##vne
##hun
##▁kreft
##sprogram
##unst
##▁veiled
##▁undersø
##▁onsdag
##ines
##▁tirsdag
##4,
##▁føle
##▁løsning
##▁forand
##▁spilte
##produ
##skriv
##behandling
##▁forståelse
##kal
##▁effektiv
##handler
##▁mente
##okrat
##vei
##▁vises
##▁you
##▁omfattende
##rid
##bane
##gruppe
##▁interiør
##▁tenk
##▁inspirasjon
##▁heldigvis
##cir
##▁oppmerksomhet
##▁forsknings
##▁konser
##▁pat
##ight
##▁him
##▁bjørn
##▁uttry
##▁russiske
##▁priser
##▁størrelse
##pass
##▁interessert
##▁not
##▁begynnelsen
##▁pasient
##møte
##▁flykt
##▁tyskland
##▁jesus
##▁fremover
##ange
##▁optim
##▁fredrik
##olf
##▁8.
##▁jentene
##▁middel
##▁grå
##sti
##▁hår
##▁faren
##▁merket
##▁refle
##ds
##▁engas
##anten
##▁jur
##▁hard
##▁favoritt
##-3
##byg
##▁haug
##skon
##▁pan
##værende
##▁litter
##▁with
##▁lignende
##▁nyte
##▁hentet
##▁middag
##▁hente
##▁personlige
##▁øver
##6,
##▁uk
##▁våren
##adalafil
##▁hverdag
##▁rettigheter
##▁jf
##▁forsiktig
##stedet
##▁slått
##▁na
##▁tadalafil
##▁kjenne
##▁bunn
##▁rapport
##▁nedenfor
##tiden
##redning
##▁hørt
##▁google
##▁engasjer
##▁spesielle
##hva
##pene
##▁løse
##▁skjønner
##arbeidere
##▁tilfel
##▁trans
##▁tids
##appen
##▁dagene
##▁praktisk
##▁fug
##▁åpent
##▁supp
##▁nordland
##▁vakker
##▁ramme
##ls
##▁visst
##circa
##▁adcirca
##ti
##▁utgangspunktet
##▁gruppen
##▁ferie
##informasjon
##standen
##▁bos
##æringen
##hjelp
##▁forklar
##▁kron
##pris
##▁anne
##▁vitenskap
##egn
##▁gjeldende
##essige
##▁åtte
##▁faglig
##▁politikk
##▁folket
##▁andel
##skiner
##▁buss
##▁gjer
##▁bestemm
##9,
##▁finansier
##▁forest
##▁arbeidspl
##▁kraftig
##yttelse
##gu
##▁ap
##▁diag
##ars
##svis
##▁jap
##verks
##▁hvite
##▁planen
##▁hemm
##ci
##▁ventet
##ote
##▁sur
##sson
##▁deltaker
##▁uly
##▁systemet
##delag
##kast
##1,
##▁vennskap
##▁desig
##beg
##▁kristians
##▁eventuelt
##▁erotiske
##ellene
##▁minim
##orter
##natt
##hjem
##▁delen
##ppet
##▁tog
##▁vardenafil
##▁xx
##7,
##▁svarte
##onse
##▁fortalte
##▁identif
##▁informasjonen
##▁homofil
##▁bad
##▁eksempler
##områder
##ømt
##ton
##agelig
##iserer
##▁helg
##▁ole
##ande
##my
##øtte
##▁helhet
##▁bidrag
##▁skatt
##▁spen
##▁dør
##▁rapporten
##grupper
##beh
##▁gen
##▁kop
##▁stiller
##.>>
##▁ør
##▁pil
##▁skyld
##▁nettverk
##▁president
##▁drive
##tegi
##▁neder
##▁fantastiske
##▁enor
##▁israel
##▁tel
##▁hotellet
##▁mote
##▁planer
##▁lover
##▁prosessen
##▁øyeblikk
##▁fortell
##▁symp
##▁rimelig
##▁vindu
##▁ale
##▁ac
##▁tilskudd
##skyld
##ikler
##▁redusert
##opplys
##▁q
##▁temperatur
##▁nakne
##saker
##kninger
##▁falt
##▁fare
##▁slit
##▁15.
##▁sav
##ty
##▁adre
##dens
##bå
##▁lesb
##▁tilstrekkelig
##ame
##▁innovasjon
##▁pappa
##apt
##brudd
##ekom
##▁kontin
##sto
##▁sjef
##▁ær
##▁drar
##ato
##▁kjøpte
##▁we
##▁trolig
##▁195
##legging
##▁øynene
##▁vol
##▁innholdet
##tekter
##▁beløp
##▁fett
##▁oppt
##▁handel
##▁aust
##▁anner
##▁stortinget
##etten
##▁sammens
##klubb
##▁vivan
##uk
##▁ukjent
##▁wor
##▁vivanza
##dør
##▁fylkeskomm
##▁tw
##øya
##▁trenings
##likter
##▁fjerne
##▁intervju
##ering
##▁fremme
##▁forsker
##▁glass
##verdig
##▁umu
##ønster
##▁studier
##▁overrask
##▁bus
##mm
##▁handle
##▁)
##▁indre
##▁kje
##▁just
##▁ros
##▁2,
##▁maks
##▁mistet
##sg
##▁spis
##▁myndigheter
##aktivitet
##lim
##▁kamera
##kvens
##ktig
##▁fru
##ura
##▁foreløp
##▁biler
##▁advok
##▁guds
##▁annonser
##▁rot
##▁barnehage
##▁sid
##ich
##▁igjennom
##▁læring
##▁overfl
##stemm
##▁prosess
##▁avtalen
##▁staten
##▁evaluer
##▁sens
##▁intro
##▁skuesp
##atikk
##▁master
##00.
##▁vind
##▁fødsel
##orien
##▁tegn
##▁tal
##skriften
##▁grav
##struktur
##▁teknisk
##▁hjemmes
##▁fengsel
##▁odd
##▁brev
##▁>
##▁hed
##▁foresl
##ssp
##edagog
##▁flest
##▁ner
##▁salt
##▁gjennomføring
##▁bibli
##▁kro
##kkende
##▁kontrakt
##▁skader
##zz
##▁28
##▁omfatter
##▁forbud
##▁gri
##▁kvalit
##▁spilt
##▁tanker
##▁dit
##▁undersøkelsen
##▁fritt
##bi
##▁gjest
##hvor
##dring
##▁digitale
##▁høg
##kob
##▁gravid
##▁internasjonalt
##histor
##▁annerledes
##ior
##▁dialog
##▁russland
##▁sunn
##gjort
##▁anledning
##▁starten
##▁kristne
##avene
##budet
##▁status
##ica
##▁mik
##▁kristen
##▁grunnen
##▁bekl
##▁gal
##▁media
##økene
##dann
##▁ødeleg
##▁ball
##▁kjøretøy
##▁eksisterende
##▁trygt
##jo
##▁virksomheten
##▁treff
##▁mad
##▁sub
##elighet
##▁studer
##▁rekru
##▁syns
##nevnte
##spr
##▁reaksjon
##▁åpning
##unkter
##henger
##▁svenske
##▁klin
##▁sår
##▁galt
##arbeider
##gående
##▁opprettet
##▁26
##mentere
##utstyr
##▁utl
##▁ordet
##▁dav
##▁konsent
##▁sender
##▁80
##▁levere
##▁arkite
##.)
##kre
##idler
##▁nil
##▁kul
##▁former
##▁kjørte
##▁frukt
##lis
##▁server
##▁artikkelen
##▁skyldes
##▁lond
##▁løy
##▁dyre
##▁revisjon
##▁alko
##▁skjønnhet
##▁ånd
##ellet
##▁logg
##▁respekt
##▁snakk
##letter
##▁plast
##▁forbedre
##▁--
##▁bytte
##øndelag
##▁wil
##▁omk
##assert
##▁evne
##▁nyhet
##▁positive
##▁legen
##▁befolkningen
##▁len
##nem
##vn
##▁spesial
##▁undervisning
##▁9.
##▁total
##istisk
##▁innb
##▁øvrig
##▁nettsiden
##elefoner
##ada
##▁settes
##▁løpe
##mas
##▁gjent
##▁12.
##sesser
##skjema
##▁11.
##▁bø
##▁krigen
##aket
##▁forplikt
##risk
##ktoratet
##▁etterpå
##▁dokumentasjon
##▁klokken
##▁sivil
##▁mm
##vent
##grep
##▁lurt
##▁skip
##stin
##▁general
##▁son
##▁opptak
##▁integ
##▁loven
##▁profess
##▁ordin
##medlem
##▁trene
##ømmer
##iteen
##▁suksess
##▁jenta
##▁kne
##▁jevn
##▁utslipp
##▁helgen
##▁trinn
##▁komfort
##avgift
##▁lot
##▁møtt
##▁ferd
##▁forbered
##iddel
##▁tide
##▁27
##▁rog
##▁present
##▁røde
##▁arranger
##ordin
##▁aksep
##▁sats
##▁førte
##▁nes
##vekt
##▁publisert
##▁tilhør
##▁revol
##▁laste
##▁figur
##▁plu
##▁økte
##oper
##▁gjennomføres
##▁skjema
##veks
##▁doll
##▁ii
##▁70
##▁lest
##ferdig
##oritet
##▁arkiv
##stru
##▁ufor
##▁lam
##▁forum
##▁verdier
##▁skoler
##▁sendes
##its
##abet
##▁krimin
##spolit
##▁strå
##▁leg
##bum
##▁umulig
##▁spania
##▁kommentar
##▁titt
##ometer
##▁stemme
##▁engang
##▁samsvar
##▁rent
##bruks
##▁etc
##ølv
##hånd
##▁london
##▁endte
##▁detalj
##▁minste
##vekst
##▁17.
##▁col
##▁sof
##anen
##▁selskaper
##edrag
##aner
##▁automatisk
##kven
##▁årlig
##kap
##elly
##▁bio
##▁kaller
##▁funksjoner
##▁191
##forening
##oc
##▁universitetet
##▁institutt
##▁nede
##▁aktører
##▁utføre
##▁utlandet
##▁enhet
##sje
##▁skul
##▁don
##folk
##▁veier
##▁avdeling
##▁forvaltning
##▁bygger
##▁instru
##▁underholdning
##▁tekniske
##rørende
##▁prim
##ari
##▁velg
##▁benytter
##barn
##▁prøvde
##▁umiddelbart
##▁kred
##▁slekt
##▁grader
##▁trekk
##▁nasjonalt
##▁selge
##▁christian
##▁35
##ose
##▁leie
##kjenn
##ense
##▁solid
##▁stu
##▁rekl
##pren
##▁posisjon
##bilder
##▁2007
##▁utsikt
##ics
##▁tilfelle
##▁kirken
##-0
##mannen
##▁tider
##ish
##▁angrep
##▁sar
##smannen
##▁bakken
##▁retningslinjer
##skjer
##▁real
##nede
##mi
##inge
##▁bærekraft
##▁fi
##▁fær
##▁overvå
##abr
##▁ryd
##▁ansvaret
##▁nettsider
##messig
##▁følelse
##▁tilretteleg
##▁xxx
##▁deltok
##spør
##▁dikt
##▁smart
##▁etterhvert
##felt
##▁leke
##▁reng
##▁organisasjonen
##▁vesentlig
##fi
##hl
##▁valget
##▁unnskyld
##▁ki
##søker
##▁verk
##ssjef
##▁gass
##avtale
##rings
##akelse
##▁begrenset
##fart
##▁offisi
##▁litteratur
##▁begynt
##▁munn
##▁økning
##litt
##▁batter
##▁aktive
##▁illust
##▁erst
##▁je
##yll
##▁behovet
##▁kalles
##▁omgang
##▁sum
##ape
##▁forny
##▁0,
##sberg
##▁listen
##fjell
##▁tjenesten
##40
##verdi
##▁snill
##▁planlagt
##▁undersøkelser
##▁følelser
##føringen
##sområ
##▁nyttig
##▁slipper
##▁;
##▁huske
##▁vondt
##smål
##▁rev
##setting
##yrer
##▁innkjøp
##▁ledere
##▁omkring
##▁dollar
##▁driv
##▁egg
##▁leil
##▁benyttet
##▁lykkes
##▁tilpasset
##▁internasjonal
##▁foreløpig
##▁sjelden
##▁bodde
##▁opprinnelig
##antene
##klar
##▁farlig
##▁demon
##▁kontor
##▁motstand
##ligheter
##▁støtter
##aly
##▁(3
##▁kvinnen
##▁sikt
##▁kunstner
##igin
##ifte
##▁minne
##▁hvilket
##▁apo
##▁vedkommende
##▁lurer
##▁milliarder
##▁faste
##▁dommer
##▁smar
##▁melding
##arked
##sr
##▁landets
##formen
##dringer
##▁bransje
##/2
##▁diagno
##▁kvart
##▁england
##▁synlig
##▁stod
##▁håret
##▁treffe
##▁statsb
##▁kristian
##▁div
##▁aktivt
##sjoner
##▁understre
##▁situasjoner
##▁forven
##▁institusjon
##spiller
##▁runde
##bor
##▁tenår
##▁mill
##▁kapittel
##▁sold
##▁kandid
##su
##▁20.
##inke
##▁positivt
##▁kapasitet
##settes
##▁oppbe
##▁barnehagen
##▁forelig
##▁psykisk
##▁utvalget
##akte
##▁kamper
##▁ford
##skapene
##kvenser
##snivå
##▁nytte
##gar
##▁typ
##▁tilt
##▁firma
##▁ligge
##▁eventuelle
##▁bygning
##▁dokumenter
##▁stam
##▁olav
##▁demokrat
##▁entre
##asen
##▁kjend
##▁jæ
##▁skru
##▁behandlet
##ood
##▁relasjoner
##▁nødvendige
##▁fremtiden
##▁vedlegg
##▁nettdating
##▁stats
##▁mottatt
##▁14.
##ail
##8,
##▁mangel
##▁underveis
##▁tilfredsstil
##sjonen
##sik
##▁karri
##▁opplevelser
##▁erotisk
##▁symptom
##▁næring
##//
##▁passe
##▁slår
##område
##▁(19
##ssam
##▁stress
##▁opplevd
##▁193
##▁faller
##▁samarbeidet
##▁butikken
##▁erotikk
##▁flert
##dørs
##▁avis
##▁tradisjonelle
##iel
##ilitet
##▁orden
##▁18.
##▁leverer
##▁naturen
##▁bruken
##▁jam
##ction
##▁solgt
##tur
##dommer
##▁liste
##inen
##deler
##▁spesiell
##▁følte
##slige
##akten
##▁lands
##jet
##bes
##-,
##pos
##▁char
##▁lars
##▁tilfeldig
##▁relevant
##▁leter
##▁martin
##angen
##▁forsøker
##▁nydelig
##▁kontaktannonser
##lia
##bær
##▁mol
##▁ekster
##▁økende
##▁positiv
##▁varm
##vise
##▁90
##inder
##▁tyske
##▁betaling
##ulere
##▁au
##▁inform
##▁moro
##▁alkohol
##istiske
##▁nærmeste
##▁artikkel
##øve
##bord
##dyr
##▁oppstår
##▁forskjellig
##▁materiale
##▁bla
##samling
##selen
##▁rettet
##oer
##▁engasjem
##▁rolig
##▁mester
##utdanning
##▁lokalt
##▁marker
##▁tyr
##▁sektor
##▁hevder
##kr
##slig
##▁22.
##▁juster
##▁vurdert
##▁retur
##▁innbyggere
##▁ankom
##▁kone
##rader
##fisk
##▁kjed
##virkning
##▁skriv
##▁datingsider
##delen
##▁morsomt
##skom
##▁forbi
##▁datama
##agg
##funn
##sbru
##▁sannsynligvis
##inter
##▁blomster
##▁avsluttet
##ander
##▁idag
##▁religion
##nu
##▁origin
##▁etablere
##▁tilnær
##avtalen
##▁studentene
##▁nm
##▁frisk
##60
##▁bir
##▁møtes
##▁samling
##▁hode
##habil
##iktige
##://
##▁formann
##▁eld
##sord
##rikt
##▁fullstendig
##▁raskere
##bøker
##▁egnet
##▁mult
##▁gjens
##▁13.
##▁utbet
##▁ideer
##▁kurset
##▁ført
##▁amatør
##▁arkitekt
##▁dekke
##▁knut
##▁nu
##▁motiver
##▁ettermid
##▁york
##aken
##mun
##▁veiledning
##▁håp
##▁inkluderer
##▁godkjenning
##▁skaffe
##▁kristiansand
##▁thom
##▁plassert
##▁maten
##▁hørte
##▁manglende
##▁europeiske
##fulle
##▁svare
##vensjon
##▁drø
##▁melde
##▁hau
##belt
##amen
##vest
##isten
##▁stim
##bon
##▁16.
##borg
##▁redde
##▁2006
##ley
##osjon
##▁fisker
##▁minner
##▁inntrykk
##rettet
##▁spiser
##spor
##ioden
##▁foredrag
##nok
##▁modell
##▁utel
##foren
##por
##mus
##forbund
##▁lat
##▁500
##ykke
##▁reiseliv
##▁kilde
##▁initi
##iten
##▁kundene
##▁enige
##cy
##setter
##▁lab
##pan
##▁nest
##▁landbruk
##▁støy
##åringen
##ba
##▁eid
##▁struktur
##▁ansatt
##▁beskytte
##▁ww
##▁typen
##tten
##stilt
##▁påvirke
##haug
##isse
##▁dagbladet
##onen
##▁hall
##oter
##▁distri
##▁festiv
##▁hjertet
##▁måle
##▁arne
##▁møt
##▁lærere
##▁fortj
##▁levert
##banen
##▁fotograf
##▁likte
##▁hindre
##▁innspill
##skv
##▁korre
##▁nøye
##▁hjemmel
##▁kategorier
##stav
##▁kaffe
##▁trekker
##▁tillatelse
##▁områdene
##▁fik
##▁press
##user
##▁29
##▁analyse
##▁ovenfor
##:00
##▁viss
##▁ledende
##▁beklager
##▁paul
##▁ferdigheter
##▁mangfold
##▁sor
##rak
##inde
##able
##▁hverdagen
##▁formålet
##▁enig
##stjer
##▁def
##esel
##port
##▁skriftlig
##▁peter
##▁terror
##▁sentralt
##▁logistikk
##▁utmerket
##▁fleks
##▁levende
##▁utdannings
##hi
##sent
##▁camp
##▁scen
##▁attrakt
##ppene
##▁faen
##▁hell
##▁ledet
##prob
##▁forekom
##▁teknolog
##▁ske
##▁frig
##▁penis
##▁konfer
##▁foregår
##ktige
##meldinger
##▁såkalte
##▁årsaken
##▁bygd
##▁myndighetene
##▁svensk
##▁fan
##være
##▁peder
##▁forhandling
##▁sterkere
##▁serien
##▁petter
##ssenter
##▁fitte
##▁kreditt
##▁giftet
##terier
##▁eventyr
##bed
##▁innr
##▁sove
##agene
##ommet
##▁færre
##spektiv
##▁repar
##▁produsert
##▁kommunens
##▁konkl
##▁lyn
##▁kjørt
##ius
##tar
##▁fylle
##rapport
##▁19.
##▁pul
##ace
##▁helset
##▁romant
##▁moren
##▁rene
##ktiv
##rika
##ringen
##ny
##▁akershus
##▁matt
##▁forventet
##god
##▁kontrol
##amer
##▁presentere
##▁2000
##▁kjøpes
##egian
##▁sju
##▁vill
##sprosjekt
##øter
##▁digital
##▁slippe
##▁fungere
##▁egenskaper
##▁45
##▁kommentarer
##▁?
##▁verken
##▁kravene
##▁butikker
##▁oppstart
##▁stoppe
##▁huden
##jøring
##▁grense
##hu
##▁interesser
##▁opptil
##▁grenser
##▁tilpasse
##▁sykehuset
##▁følg
##▁professor
##▁fleksib
##▁mulige
##▁vm
##▁sms
##▁frankrike
##▁løsningen
##▁garan
##rekk
##▁turer
##▁invest
##▁beskrivelse
##▁nærmest
##▁rart
##▁gyl
##▁usikker
##ynt
##▁føles
##▁konsekvenser
##▁park
##▁næringsliv
##▁mek
##▁bob
##anke
##▁skar
##▁tvang
##▁banen
##imensjon
##▁merker
##▁sykeple
##▁direktør
##▁hjul
##▁grat
##▁personen
##sinn
##legge
##▁båten
##▁forslaget
##▁famili
##▁pet
##▁konstru
##alder
##feltet
##▁matem
##▁stikk
##▁fril
##▁senior
##▁partene
##hen
##18
##ansjen
##▁personopplys
##▁org
##bur
##▁arbeidstaker
##▁forklare
##▁oppgaven
##▁representerer
##▁lån
##che
##vene
##▁sun
##▁herlig
##▁preget
##▁hyl
##▁tingene
##▁nøyaktig
##▁kg
##sko
##-4
##helse
##▁spurte
##▁bredt
##illa
##▁melder
##▁øl
##▁undert
##▁dobbelt
##▁spare
##▁baby
##▁omgiv
##▁grunner
##prosjektet
##▁drammen
##▁brukerne
##▁190
##▁oppgjør
##▁natten
##▁metoder
##▁hurt
##attes
##sreg
##▁byrå
##▁takket
##▁3,
##ås
##▁install
##▁påvirker
##▁syntes
##aliteten
##opplev
##▁kina
##▁ytre
##▁opprettholde
##▁planlegging
##▁kostnader
##▁tale
##▁parkering
##▁klim
##15
##▁markedsføring
##▁pedagog
##▁fran
##▁uka
##ita
##▁utgitt
##▁samfunns
##▁vennlig
##arm
##inet
##▁ander
##▁enheter
##▁strategi
##▁vilkår
##ligheten
##press
##verd
##▁asyl
##lie
##øvere
##nr
##uter
##▁sjanse
##▁utarbeidet
##▁bevegelse
##havn
##▁dyp
##resse
##navn
##etning
##▁fjern
##▁norwegian
##ep
##skont
##rus
##▁kombinasjon
##▁programmer
##▁yrkes
##▁funn
##▁pga
##ukt
##edskap
##▁reglene
##▁prinsipp
##▁delvis
##hr
##løpet
##▁htt
##kontroll
##▁drepe
##▁op
##sby
##▁teater
##▁innstilling
##▁forskere
##▁fjerde
##▁yrke
##▁deltakere
##▁søster
##▁dans
##fa
##▁tilgjengelige
##ullet
##▁velferd
##oppl
##▁net
##▁areal
##ida
##▁gli
##▁sikrer
##▁halvparten
##lege
##stol
##▁2005
##ld
##▁koselig
##▁alex
##▁cont
##▁våk
##▁www
##▁uttal
##▁linje
##▁henger
##hev
##▁betalt
##bruket
##▁utenlandske
##▁radio
##▁kø
##▁midten
##▁tvers
##rel
##▁lykke
##▁21.
##▁høres
##etil
##▁stolt
##▁øyne
##alisere
##ulerer
##▁henven
##ativer
##▁vinteren
##▁brudd
##▁vurderer
##▁smerte
##▁tank
##▁fulgte
##▁storb
##▁kampan
##▁altfor
##ubber
##▁forretning
##▁pal
##▁gle
##▁agent
##▁besøkende
##▁islam
##▁sølv
##slet
##▁forsøke
##▁hjør
##▁vert
##ging
##▁bedriften
##▁historier
##▁maksim
##splikt
##ygge
##▁turist
##▁milj
##▁gjennomgang
##▁lanser
##▁ulov
##ctor
##enhet
##▁bryll
##▁virksomheter
##vete
##skrig
##▁ansikt
##way
##▁gate
##lagte
##▁platt
##sløs
##▁bedt
##▁håndverk
##▁frist
##skrifter
##▁deltar
##▁konflikt
##ned
##▁ringer
##liste
##▁dekker
##▁album
##øye
##byen
##▁vurderes
##leie
##▁velly
##eler
##:)
##igheten
##▁beskrevet
##▁:-)
##▁rike
##▁leverandør
##kks
##▁kreve
##25
##▁tilbudet
##amin
##▁lom
##▁kreves
##▁håndtere
##▁fler
##▁ekskl
##▁fulgt
##the
##▁tilknyt
##▁1000
##▁påpe
##▁kunden
##pte
##▁epis
##rav
##▁jac
##autom
##▁hagen
##▁rekrutter
##▁sover
##▁engasjement
##system
##▁foreninger
##▁ri
##▁sort
##▁gifte
##▁løper
##▁plikt
##▁bær
##posten
##▁prøvd
##foret
##▁advokat
##▁nettbutikk
##stående
##seson
##▁svarer
##▁entrepren
##▁fris
##▁kyst
##▁verre
##▁kastet
##▁forster
##▁mobilt
##▁terreng
##▁avfall
##▁singel
##▁overnatt
##▁iv
##▁seil
##vesen
##▁fortalt
##▁frivillig
##iseres
##▁last
##▁søt
##habili
##▁motta
##ilde
##vurder
##års
##▁hd
##jørn
##▁praktiske
##▁menneskene
##▁hån
##egg
##ksen
##▁sjansen
##▁ess
##▁stri
##▁frihet
##kkelen
##▁sammenlignet
##▁medarbeidere
##råket
##▁feir
##▁dei
##▁play
##▁opprette
##▁foku
##▁byer
##▁skiller
##serien
##▁gran
##▁utgifter
##ain
##▁paris
##▁samtale
##▁observ
##▁morsom
##▁fysiske
##▁kret
##øpt
##▁air
##▁dekket
##eu
##støtte
##▁behandlingen
##urs
##mos
##▁hendelser
##▁anders
##▁milf
##▁fordeler
##api
##▁gård
##minn
##▁bistand
##▁myndighet
##▁sliter
##▁østfold
##edlem
##▁utføres
##fø
##▁forestil
##▁ein
##▁ballen
##onym
##▁korte
##▁relevante
##loven
##▁kilometer
##▁kommunale
##sex
##▁oblig
##sjef
##kle
##▁borger
##▁sene
##▁forskjellen
##▁stasjon
##oppgaver
##▁forklarer
##atning
##ament
##▁gev
##▁dog
##▁kvinnene
##▁deltakerne
##ønne
##hører
##systemet
##▁cor
##▁frivillige
##▁identitet
##▁tilstand
##▁kirk
##▁vokser
##▁velvære
##skol
##vo
##▁bill
##▁beskriver
##▁lette
##▁turner
##kjøring
##1)
##▁stede
##▁klokka
##▁nat
##▁vakt
##▁visse
##asino
##ketøy
##▁faglige
##▁næringsm
##aden
##▁hund
##▁minimum
##▁jød
##fre
##rens
##▁jæv
##▁kontroller
##liggende
##▁mønster
##▁naturlige
##19
##▁artikler
##gjøring
##▁kontra
##▁thor
##jøen
##▁tit
##alisert
##▁up
##riske
##gård
##▁medlemmene
##uddet
##▁fylkes
##▁svak
##aser
##▁intens
##asjen
##▁koster
##▁hest
##kamp
##▁utvide
##▁befinner
##▁konkurransen
##▁pluss
##▁dvs
##atert
##▁behandle
##own
##rende
##eleder
##▁jør
##▁kilder
##▁unike
##▁slutte
##bry
##vidt
##▁bodø
##angel
##▁strikk
##▁city
##▁klat
##▁arena
##▁thomas
##▁konsekvens
##▁kompet
##▁lært
##ensasjon
##ømte
##▁ip
##▁nevne
##▁departementet
##▁effektivt
##ran
##ube
##▁produksjonen
##▁tanken
##▁fantas
##▁skapt
##▁lunsj
##▁gjennomgå
##▁religi
##▁island
##alle
##▁omfang
##▁kontinuer
##apper
##▁gjester
##▁størst
##▁stål
##sil
##▁avstand
##▁kok
##oft
##▁fylt
##edy
##▁beslut
##▁herunder
##kkene
##▁lavt
##▁sosialt
##▁grønne
##80
##▁utvidet
##▁museum
##rud
##▁sendte
##ikks
##▁skam
##▁øya
##kobling
##▁dreier
##▁rutiner
##▁bestemmer
##▁pause
##▁undersøke
##▁søte
##▁generelle
##ritann
##▁regne
##▁avde
##viser
##personer
##▁diskusjon
##▁overgang
##drift
##▁300
##▁utforske
##▁kritikk
##▁pupper
##▁tøff
##idrett
##gl
##▁konkrete
##▁administrat
##elses
##▁bag
##▁foreligger
##▁deltag
##wer
##forbundet
##ute
##▁produktet
##▁betaler
##▁kines
##▁mørke
##▁skille
##▁triv
##▁olsen
##partiet
##urens
##jul
##▁dens
##▁30.
##▁!
##▁registrering
##▁serie
##▁grunnlaget
##▁havet
##istene
##▁bevil
##▁innh
##4)
##litter
##▁søknaden
##rede
##12
##▁ryggen
##▁skand
##sland
##sfri
##▁antallet
##▁32
##dem
##førsel
##likevel
##▁negative
##ting
##▁sønnen
##verktøy
##▁nevnte
##▁vilje
##we
##▁bøl
##▁arbeidsmarked
##▁189
##▁sekunder
##▁fortsatte
##job
##sav
##▁36
##adem
##▁hurtig
##mentert
##▁utenrik
##▁opplysningene
##▁hotel
##▁overord
##▁alvorlige
##▁noens
##▁misten
##to
##▁elektronikk
##▁diver
##▁krevende
##▁show
##▁stab
##▁sjeld
##▁ledelsen
##▁likt
##▁storbritann
##▁daglige
##▁mac
##▁nom
##▁hender
##▁nettside
##▁selskapets
##▁sykdommer
##▁sjekket
##▁kvalitets
##ørte
##▁produktene
##orene
##analy
##rimin
##▁regnet
##▁verne
##▁innskudd
##▁avdel
##kul
##▁låne
##▁involvert
##boks
##spar
##▁kravet
##▁mun
##▁192
##▁tegne
##▁cup
##▁representanter
##inert
##ktet
##▁likestilling
##▁byr
##melig
##▁hull
##▁ære
##▁boliger
##▁undervis
##▁regi
##▁oppgrader
##▁hast
##▁arrangert
##ec
##▁kjemp
##▁massage
##sdatter
##▁utfordring
##▁hjemmet
##▁miljøet
##▁23.
##▁sambo
##▁kjemisk
##▁dårlige
##▁leir
##▁møteplassen
##▁trengte
##ansene
##▁danske
##▁besøker
##merk
##▁arg
##tif
##▁konge
##▁nar
##stu
##inene
##▁aud
##▁gav
##bler
##▁asi
##ppen
##▁feltet
##▁konto
##▁klo
##skelige
##▁avtaler
##▁fylkeskommun
##rad
##▁opprinnelige
##ønner
##▁nåværende
##▁profesjonelle
##▁oppbevar
##▁avgjøre
##▁escorte
##basert
##▁frokost
##▁ærlig
##▁aften
##små
##ational
##▁leveres
##▁mikro
##▁mengder
##▁orientering
##▁bøkene
##▁grundig
##melt
##▁ansett
##▁hunden
##▁foreslå
##sbehandling
##▁kunnskaps
##▁skogen
##▁utenom
##▁dum
##▁normal
##skilt
##▁leverandører
##▁pakke
##▁black
##▁oppsummer
##▁mulighetene
##▁statistikk
##▁teksten
##▁fjellet
##▁bursdag
##▁øye
##ktoren
##/201
##▁kvaliteten
##▁oppover
##retning
##alinger
##▁utstilling
##▁ordfører
##settelse
##▁temaet
##▁overbe
##▁kjer
##▁erstat
##oo
##▁metode
##skoler
##▁risikoen
##▁sta
##▁utnytte
##▁innfly
##▁karl
##▁hovedsakelig
##▁tildelt
##aking
##ansvarlig
##▁passasjer
##▁registrere
##tokoll
##▁bygges
##leve
##▁klage
##▁bonus
##▁trygge
##▁ulik
##▁steg
##▁evaluering
##▁tallet
##▁raske
##sarbeid
##delige
##film
##▁2017.
##ona
##▁deltakelse
##▁modeller
##legget
##klær
##▁anlegget
##▁forholdene
##▁arter
##▁tilknytning
##ule
##▁initiativ
##▁rulle
##▁parti
##ions
##df
##▁david
##▁innsikt
##▁synd
##▁nødt
##dalen
##▁diverse
##▁skuespiller
##▁åpenbart
##ding
##▁friluft
##▁sørger
##udsjett
##▁nærmer
##▁oftest
##▁kontinuerlig
##▁hag
##▁reiste
##▁plassen
##▁operasjon
##vitt
##▁visjon
##iat
##▁tekster
##▁pasienten
##▁forskjeller
##felle
##ya
##▁meldinger
##▁kommende
##▁igang
##▁presentert
##▁tverr
##▁obser
##igh
##▁strid
##▁konsept
##▁your
##appar
##bør
##givere
##▁uh
##▁hytt
##hengige
##▁forlag
##itivt
##▁utelu
##▁25.
##▁aksjon
##▁skadet
##rut
##result
##▁britiske
##▁perfekte
##▁framtid
##▁anbefales
##▁resul
##rommet
##merker
##▁kritisk
##▁troms
##▁inngår
##spillet
##▁human
##vanlig
##▁samarbeidspart
##▁sies
##▁stoppet
##▁fordelt
##osof
##hal
##▁sæ
##elling
##▁avgift
##▁designet
##▁tyrk
##minar
##▁interessante
##▁veter
##▁motsetning
##▁iverks
##▁jub
##▁farmas
##▁imponer
##▁selvstendig
##▁ender
##▁ekstremt
##▁bestemme
##▁utse
##dommen
##▁fellesskap
##▁slu
##▁virket
##▁varmt
##ulering
##70
##frastruktur
##▁hansen
##løse
##▁katt
##▁testet
##▁ettermiddag
##▁smil
##▁anven
##ella
##▁rehabili
##forskning
##stasjon
##▁andelen
##biler
##stit
##▁lind
##▁partiet
##▁jurid
##eres
##▁oppstå
##øpet
##▁kvinnelige
##▁hunder
##appe
##▁restaurant
##▁site
##lø
##▁alders
##▁maler
##▁bordet
##▁gutta
##ikerne
##▁riktige
##▁finnmark
##▁snar
##▁ende
##▁brun
##lek
##▁hendene
##-5
##tall
##▁sluttet
##▁glade
##▁ton
##▁vurderinger
##▁herre
##▁storbritannia
##▁fen
##kårene
##▁elektronisk
##▁henrik
##makt
##▁ntb
##▁marg
##poeng
##▁familier
##▁servic
##▁lad
##▁31
##kretær
##▁regionale
##▁beredskap
##▁tenn
##▁maria
##▁statsminister
##smessige
##▁liksom
##▁forhin
##date
##▁vo
##emark
##▁verste
##▁straks
##▁syv
##▁grep
##jøre
##▁miste
##▁belast
##▁utdann
##▁tjenestene
##▁menneskerett
##skraft
##,-
##▁skyte
##▁regnes
##vennlig
##▁drømmer
##▁ansiktet
##▁scan
##▁beskyttelse
##pas
##▁hyd
##▁tørr
##▁medisinsk
##▁sånt
##last
##▁bror
##▁kjøkkenet
##▁gay
##▁noensinne
##▁trygghet
##▁allikevel
##jord
##▁eldste
##▁fredrikstad
##istan
##▁yout
##▁innsat
##offer
##▁ringe
##inere
##▁rammer
##▁bit
##▁samliv
##inerer
##▁aksje
##▁stig
##ova
##▁tusenvis
##▁spillerne
##inav
##▁million
##▁tilst
##▁samler
##osisjon
##▁dyn
##stall
##▁gutten
##▁beregnet
##▁besøkte
##▁anmel
##▁reduksjon
##tale
##▁medfører
##▁helvete
##▁fylkesmannen
##edal
##ress
##bilde
##▁svaret
##▁anbefale
##▁generell
##▁skjerm
##wn
##▁allmenn
##språk
##▁bol
##▁forventninger
##▁big
##▁24.
##▁het
##holdes
##▁løfte
##▁kosthold
##▁sykdommen
##▁flink
##▁pi
##▁anses
##▁verdenskrig
##ual
##service
##øg
##▁kult
##ogra
##virksomhet
##▁nedover
##▁wind
##▁kompon
##ioder
##▁magen
##▁karriere
##▁tabell
##▁bakgrunnen
##▁kryss
##▁beholde
##▁militær
##▁historiske
##▁gjennomsnittlig
##▁bortsett
##▁forsøkt
##▁viktigere
##▁fjernet
##kir
##stør
##▁fattig
##▁colle
##▁alli
##▁33
##likket
##▁kaste
##somhet
##kurr
##ows
##▁stakk
##▁tonn
##▁kompli
##▁mom
##bert
##klasse
##▁utarbeide
##▁jack
##▁studiet
##▁spørsmålene
##▁søvn
##▁dimensjon
##▁telefonen
##innen
##▁mail
##▁vand
##▁mister
##skuddet
##▁ger
##forstå
##▁håpet
##seren
##▁italia
##▁ivareta
##▁inspirert
##▁foreslår
##▁prosjektleder
##▁jorden
##▁minutt
##▁systemer
##▁prin
##▁rogaland
##▁journalist
##▁nark
##vernet
##▁ødelagt
##▁hoteller
##▁leker
##▁uen
##▁nys
##▁danse
##▁vestfold
##▁hemmelig
##tein
##▁overrasket
##▁hem
##stekn
##▁mg
##▁comm
##▁tallene
##beveg
##▁teste
##▁elementer
##▁innført
##▁etterspør
##▁bestemmelser
##lån
##rering
##▁flyt
##▁befolkning
##con
##sevne
##eier
##▁skogbruk
##▁arre
##økonom
##▁speed
##▁ntnu
##anda
##▁4,
##▁fransk
##▁perm
##▁ukra
##▁garder
##▁produsere
##▁arbeidslivet
##ria
##▁biotekn
##▁engros
##▁brukeren
##▁klager
##do
##still
##▁bransjen
##ighetene
##personell
##unde
##▁dekk
##▁sertif
##prosjekter
##produkter
##nus
##▁opplevde
##rab
##stjenester
##entre
##▁klem
##▁landene
##bruker
##▁trump
##uller
##▁ull
##▁sag
##▁inte
##▁motivasjon
##▁front
##▁out
##▁dømt
##▁regulering
##5)
##undersøkelse
##prisen
##følgende
##▁sus
##lingene
##▁bæ
##▁etterl
##▁tant
##styre
##▁stilte
##▁trist
##ffekter
##▁bri
##kurs
##▁rust
##▁nødvendigvis
##rop
##▁bydel
##▁institusjoner
##▁vaske
##ader
##stiltak
##▁innkal
##▁fn
##▁kongen
##▁stift
##2-
##▁arrangement
##stiden
##▁ille
##▁gården
##▁holdes
##6)
##▁mottar
##▁snu
##▁vellykket
##▁opplyser
##bra
##▁2004
##materi
##uta
##▁taket
##▁innføring
##funnet
##▁utfører
##organisasjon
##▁nært
##▁shopp
##▁flertall
##▁skjermen
##øks
##▁lak
##▁stått
##▁redig
##14
##ssk
##▁følelsen
##▁28.
##▁bryr
##smøte
##▁apotek
##▁kjerne
##▁lengde
##▁oppfordrer
##ondet
##▁begrepet
##forn
##▁info
##▁fulle
##ssystem
##▁spenning
##visor
##▁forhåp
##cu
##▁farmasøyt
##annen
##▁gjem
##ilsynet
##▁behandles
##bildet
##givning
##▁takt
##▁styrker
##▁fak
##▁seksjon
##▁null
##ementet
##eloven
##rur
##▁mengde
##lir
##▁vanskelige
##▁drevet
##▁aksjer
##isteret
##skrav
##▁bibliotek
##▁adresse
##▁assist
##▁iph
##▁været
##▁opphav
##▁cre
##▁levering
##▁hovedstad
##omen
##▁bass
##▁34
##▁regner
##barhet
##▁betrakt
##▁26.
##skinen
##▁hytte
##ico
##▁inngått
##kjennelse
##holm
##ffen
##▁styring
##▁bærer
##▁ube
##ordning
##▁samarbeide
##elet
##▁mekan
##rert
##▁sjå
##▁pent
##▁seksuelle
##odene
##sky
##▁lil
##▁sidene
##▁premier
##▁pus
##▁sikret
##▁wik
##bak
##agram
##▁undertøy
##▁næringsmiddel
##kultur
##▁andres
##▁konsul
##▁vegne
##▁kommunestyret
##fs
##skal
##▁lete
##▁kapit
##7)
##ola
##menne
##kende
##▁dukker
##▁rødt
##▁faktum
##▁garant
##▁måltid
##▁27.
##▁overraskende
##▁populært
##norsk
##90
##ance
##▁franske
##▁dritt
##▁nøkkel
##ikal
##famil
##▁indust
##retter
##klart
##▁world
##ykker
##▁informasjonskap
##▁tøy
##▁forbe
##▁frp
##brett
##▁totale
##▁organisering
##legger
##▁fartøy
##▁lansert
##foreningen
##svalg
##kommun
##▁imple
##pix
##2)
##ited
##▁rum
##▁forholde
##▁musikken
##▁los
##▁bokstav
##▁forbundet
##akene
##▁harald
##▁grov
##esund
##▁samtlige
##▁utforming
##▁alternativer
##▁næringslivet
##lov
##▁regionen
##▁rund
##dres
##▁representant
##valt
##kka
##ague
##når
##▁cat
##▁carl
##▁øvre
##▁informer
##16
##▁utvalgte
##rerende
##▁glemme
##skost
##pot
##▁virkeligheten
##▁rand
##▁188
##deg
##▁kalle
##festiv
##▁pleier
##▁forventer
##▁drepte
##blad
##siktig
##veksling
##inerte
##▁unik
##▁begrunn
##programmet
##▁sites
##▁skum
##▁yog
##200
##13
##▁gunn
##▁forurens
##▁fukt
##▁tilhører
##▁dusj
##▁vars
##▁utendørs
##▁uro
##arch
##regn
##løsning
##veier
##▁fakta
##chel
##▁retter
##▁utfordrende
##▁vanskeligere
##▁væ
##▁bestilling
##▁såpass
##▁henge
##▁stillinger
##▁effekten
##vakt
##hov
##filmer
##▁anled
##▁foss
##▁lyset
##▁sannheten
##arn
##▁fanget
##▁tillate
##▁engasjert
##▁graf
##▁oppvar
##▁leger
##tting
##▁infrastruktur
##▁separ
##▁øyeblikket
##▁oppdage
##▁marie
##sfag
##▁reser
##▁reflekter
##▁involver
##▁skudd
##▁vidt
##▁latter
##▁oppgitt
##ams
##▁molde
##▁ideen
##75
##▁grensen
##▁150
##▁overgrep
##▁profiler
##inerende
##▁brutt
##verden
##▁tung
##behør
##▁årsmøtet
##▁møteplass
##▁organisert
##▁integr
##ini
##abelt
##miljøet
##▁handlinger
##▁årlige
##▁fersk
##▁ulovlig
##fug
##▁klassisk
##▁presset
##▁gjestene
##▁journali
##▁hensikten
##aktør
##▁øster
##▁effektive
##▁75
##▁fien
##▁eksklus
##▁uv
##▁tempo
##▁matematikk
##▁youtube
##▁bade
##▁canada
##▁likhet
##▁bekreftet
##▁foreta
##▁grønnsaker
##▁scene
##ze
##▁perspektiv
##krig
##ttene
##▁lede
##▁andreas
##vard
##▁2016.
##▁mos
##▁bryst
##baserte
##▁apple
##mede
##▁fornuft
##▁bærekraftig
##▁sjok
##skader
##▁vokse
##▁prat
##▁utgave
##sdal
##ård
##▁bis
##▁døpt
##▁bygninger
##sidene
##logg
##▁telefoni
##aren
##cel
##mbol
##▁støv
##▁programvare
##alp
##▁muskel
##▁politikere
##▁nysgjer
##▁rapporter
##▁knulle
##planen
##▁diskutere
##▁bot
##olje
##▁forfatteren
##▁rock
##▁materialer
##▁varierer
##▁poli
##▁hjemmeside
##▁døren
##▁pum
##▁anna
##▁kapital
##▁konsert
##ismen
##▁morten
##▁31.
##feksjon
##▁agentur
##▁blad
##▁league
##▁medie
##▁leste
##ilder
##▁utøver
##oteket
##▁atferd
##▁planlegge
##▁fabr
##▁slutter
##kking
##▁kjennet
##▁foretre
##▁dru
##▁farmasøytisk
##▁tungt
##▁engroshandel
##▁pale
##▁anska
##▁kjøle
##▁29.
##▁psykiske
##▁årsaker
##▁amerikansk
##▁bryte
##hei
##▁koble
##▁faktorer
##mende
##klokke
##▁forretnings
##ial
##▁iphone
##▁one
##kjenner
##rykket
##vold
##▁forening
##▁dypt
##▁inntekter
##▁avløp
##idig
##ye
##▁tjener
##▁trengs
##blogg
##ikasjoner
##▁gaver
##▁sinn
##▁if
##▁døgn
##▁muslim
##▁mak
##▁oppført
##▁historisk
##▁kontrollere
##lyst
##▁forelsket
##mosf
##▁eksamen
##▁definitivt
##▁søkte
##▁herfra
##▁profesjonell
##▁has
##produs
##▁2018.
##▁stillingen
##▁sakene
##dø
##skar
##▁hjernen
##iko
##▁mur
##▁ler
##aterte
##▁klassen
##ordet
##▁prosesser
##▁presentasjon
##▁yng
##▁gradvis
##▁dårligere
##▁rammet
##▁trukket
##abler
##▁modellen
##▁konkurrans
##▁hob
##▁cir
##▁stopper
##▁ubeh
##pør
##sal
##sprosessen
##▁nødnummer
##spes
##▁dags
##▁tils
##avnet
##▁instal
##pes
##▁formen
##▁forsøkte
##▁spilleautom
##▁ordningen
##▁poker
##opplæring
##data
##▁2003
##vart
##▁gulv
##▁robert
##▁samtaler
##▁tiltre
##bit
##▁samtykke
##edyr
##▁muligens
##▁foretatt
##▁måneden
##sser
##jent
##▁400
##▁anti
##innhold
##▁fokusere
##▁skilt
##▁max
##▁ras
##▁lyse
##-19
##ky
##▁bb
##▁konsentrasjon
##▁line
##behov
##▁filosof
##▁ikt
##▁vunnet
##▁golf
##hammer
##▁tillatt
##▁aktuelt
##▁austra
##▁tyder
##▁hels
##sleder
##▁forsvaret
##▁skjel
##▁mas
##▁tankene
##▁klasser
##▁løpende
##▁planlegger
##▁samhandling
##▁knapt
##▁skifte
##▁systematisk
##▁jø
##smod
##▁japan
##▁tone
##myndig
##▁eiendommen
##▁bioteknologisk
##▁balanse
##▁prisene
##▁objekt
##markedet
##▁ukene
##▁tapt
##▁midlertidig
##▁populær
##▁bety
##▁ekspl
##▁glemt
##▁isted
##boka
##▁fakult
##▁stilt
##▁knytte
##▁homofile
##▁skinn
##▁bind
##▁finansiering
##▁fing
##▁irri
##ora
##▁utbygging
##sbas
##▁konkluder
##▁typisk
##født
##▁mobile
##listen
##▁ali
##▁trøndelag
##innet
##▁vegg
##▁atmosf
##▁forstyr
##splanen
##cc
##sendt
##▁forkant
##▁tester
##inske
##ønder
##▁industi
##direktør
##▁plikter
##▁pårørende
##▁detaljvarer
##▁slipp
##▁ordentlig
##▁sistnevnte
##ån
##byrå
##▁påpeker
##vask
##▁spesialist
##astro
##lister
##▁vaks
##fullt
##rister
##▁meldt
##▁fasc
##▁swinger
##bing
##▁såkalt
##▁ifra
##melen
##shemm
##8)
##▁utbygg
##▁anonym
##17
##▁spurt
##▁fork
##▁marit
##renn
##rerte
##--
##▁betong
##▁hjelpem
##▁deles
##▁peker
##▁bandet
##▁barnehager
##▁kjedelig
##▁elsket
##▁bebo
##▁telemark
##▁sola
##iven
##▁sande
##lant
##▁rosa
##▁traff
##▁datab
##onert
##▁akadem
##▁lovlig
##oppen
##▁bidratt
##aver
##aksjonen
##▁sikkerhets
##▁innvil
##▁misjon
##iode
##▁kona
##▁plassering
##▁intel
##▁still
##ektet
##▁forhåpentlig
##▁inngang
##▁skutt
##hengighet
##opper
##ssyke
##ivir
##isiner
##hy
##seier
##▁etablering
##edia
##▁beina
##▁busker
##▁bånd
##ikon
##▁guttene
##selskap
##ric
##▁andersen
##▁solberg
##grad
##▁brø
##▁vib
##▁jævla
##▁utfør
##▁scanpix
##ipper
##45
##▁foretak
##▁symptomer
##ssitu
##okken
##▁twitter
##▁betal
##▁fange
##vd
##▁tår
##▁kors
##sku
##iteten
##adresse
##▁sult
##▁oppdrett
##gress
##onning
##▁svin
##oli
##ssystemet
##▁dn
##3)
##ii
##▁distrib
##iseringen
##▁bruks
##▁kortere
##▁tunn
##▁dukket
##out
##▁århun
##▁studi
##▁perioder
##▁invitert
##ografi
##▁brygg
##▁kast
##▁ungdommer
##jenter
##▁lund
##/0
##▁humor
##umentet
##▁kåret
##▁stengt
##▁(200
##ney
##▁byens
##▁fremmed
##▁beskrive
##▁temaer
##▁basis
##▁overlev
##▁følges
##▁eventuell
##arter
##▁beting
##▁metall
##yer
##▁from
##▁debatten
##sst
##▁videreutvik
##▁100%
##▁india
##▁deleg
##▁veggen
##▁maj
##▁fastsatt
##områdene
##gitt
##åring
##▁gram
##eth
##▁stram
##rim
##▁reager
##splass
##▁forsvinner
##▁kåte
##▁idretts
##▁søkemot
##▁(201
##▁satse
##▁innvandrere
##▁oppdatere
##▁kommunal
##▁fortjener
##▁belig
##▁investeringer
##our
##sikring
##▁framover
##band
##▁øvelser
##▁beslutning
##ble
##▁lesbisk
##▁kolon
##bal
##▁forre
##▁neppe
##sesongen
##▁tilstede
##-6
##wood
##▁motsatt
##▁himmel
##▁oppdrags
##ely
##▁thail
##▁svein
##▁revolusjon
##▁kule
##gir
##11
##▁love
##butikken
##atch
##▁sikte
##trøndelag
##gjennom
##▁redeg
##▁naturligvis
##▁statlige
##rerer
##▁vr
##▁scenen
##cam
##hop
##tv
##▁alf
##▁rente
##merke
##park
##▁heng
##▁morsomme
##▁døg
##▁arbeidsplasser
##ano
##▁håndball
##▁windows
##dra
##ary
##▁hedmark
##▁henholdsvis
##▁jens
##▁munt
##chat
##faglig
##iment
##▁bens
##pensjon
##▁gulvet
##▁brød
##▁bost
##▁tøn
##▁oppgavene
##papir
##▁offisielle
##▁tube
##▁angrepet
##brukere
##▁satser
##penger
##strand
##▁teamet
##▁ventil
##elde
##▁book
##▁innflytelse
##▁flyktninger
##▁hamar
##iness
##ness
##▁forlate
##▁signer
##▁inneholde
##▁trø
##▁inf
##▁tunge
##▁identifisere
##▁attra
##bransjen
##▁instagram
##▁forleng
##iks
##▁haugesund
##-201
##▁handlet
##sforhold
##▁presenterer
##fjorden
##▁37
##▁brasil
##▁lesere
##▁hoppe
##▁byttet
##▁tilhørende
##▁ent
##▁adgang
##▁uhel
##orge
##▁stilles
##▁kommersi
##▁opprør
##ime
##▁kjøring
##▁puss
##▁grens
##▁romer
##▁målene
##stert
##▁barns
##sperson
##▁helga
##▁personal
##▁agg
##▁kjennskap
##grens
##▁ran
##anna
##▁akutt
##▁trav
##▁lærings
##▁strekker
##kunst
##▁tilbehør
##etting
##æl
##ementer
##▁friske
##▁2015.
##▁bein
##▁endres
##▁sykehjem
##▁avslut
##▁imponerende
##▁finger
##selskapet
##▁vedtaket
##gikk
##▁hage
##ordningen
##▁nordiske
##▁nettle
##strid
##▁studio
##▁bryter
##▁foster
##▁kollega
##▁leilighet
##▁kose
##▁186
##▁thailand
##▁teori
##▁munnen
##▁stående
##▁this
##▁overalt
##ppel
##▁nære
##▁sos
##▁bj
##politikk
##▁parad
##leverand
##xt
##gruppa
##gaven
##▁sanger
##organisasjoner
##knings
##stisk
##▁søknader
##▁38
##utslipp
##▁jensen
##▁omtalt
##▁sandnes
##▁erstatning
##▁vakkert
##▁mes
##▁utfordringene
##▁barnets
##sforsk
##▁årsmøte
##funksjon
##▁tryg
##▁flyet
##▁divisjon
##▁sving
##forel
##test
##▁parter
##▁takke
##▁utseende
##foss
##oppgjør
##aktiviteter
##▁kjønnsle
##▁kvartal
##▁høgskolen
##▁studien
##▁forespør
##▁trakk
##▁bane
##moen
##▁kaldt
##ati
##▁skred
##▁havnet
##kreft
##▁registrerte
##▁toal
##▁øre
##▁lagene
##▁symbol
##ford
##onger
##orm
##▁stjerne
##▁cru
##bjørn
##erende
##▁forsvant
##▁studere
##▁etablerte
##lesund
##eten
##ouse
##ml
##▁bivir
##▁tilfellet
##ødte
##▁fremfor
##ara
##ryg
##▁snitt
##▁høyest
##▁dyktige
##▁oppvekst
##iligheten
##▁strøk
##▁lykkelig
##▁will
##▁rollen
##▁endringene
##val
##rening
##bro
##▁arbeidstakere
##▁syd
##▁agen
##▁potensielle
##perioden
##▁etn
##▁vitne
##▁55
##▁bekymret
##▁datteren
##appet
##▁blogger
##▁mennene
##▁that
##▁180
##serie
##▁evt
##▁spiste
##plett
##▁utk
##▁utdannet
##▁hvorvidt
##mert
##▁kull
##▁haha
##▁lytte
##▁militære
##▁arv
##▁ungene
##▁slappe
##▁teknikk
##▁happ
##lands
##▁>>
##▁endrer
##▁nedre
##iff
##▁offer
##▁more
##24
##gam
##▁heg
##▁navig
##▁skandinav
##▁phil
##act
##kommer
##▁seksuell
##▁barnevern
##▁sammenligne
##▁diskrimin
##▁hånden
##lf
##omet
##forsvar
##▁forebygge
##▁beveger
##▁jacob
##▁sunt
##▁materialet
##▁alderen
##▁fyller
##▁posten
##ware
##▁jevnt
##▁omtale
##▁søkere
##▁kjendiser
##▁bærum
##isser
##vesenet
##møtet
##▁understreker
##regi
##▁kunn
##stilbud
##▁college
##▁oppfatning
##bø
##fen
##▁penge
##▁bevege
##▁dansk
##▁ringte
##verdige
##0.000
##▁vokste
##▁appen
##▁frilufts
##nei
##▁stoffer
##▁morgenen
##atorer
##▁kontakte
##▁russisk
##administ
##pri
##▁sjøen
##▁inntak
##ulert
##▁drap
##▁antar
##>>-
##øvrig
##engde
##▁krefter
##▁villig
##følelse
##aksjoner
##▁oppleves
##mord
##muse
##▁utstyrt
##▁arab
##▁ødelegge
##næring
##ped
##▁guide
##▁forsvarlig
##sborg
##▁high
##▁hjerne
##arkiv
##▁kommunisere
##▁solen
##▁reist
##▁erkl
##dette
##avtaler
##▁forutsetninger
##▁forvente
##▁reklame
##dam
##▁nyhetsb
##▁dyb
##▁rehabilitering
##▁grunnet
##▁øverste
##stoffer
##▁nyeste
##▁oppfylle
##▁pin
##▁argu
##▁nedsatt
##▁svømme
##▁påvirket
##▁egner
##vind
##▁utøvere
##selv
##ografer
##helset
##▁illustrasjon
##▁dynam
##▁arbeidsmiljø
##legen
##▁agder
##▁termin
##▁soldater
##▁sees
##hael
##▁jak
##▁myr
##relse
##boken
##▁nederland
##vinning
##skip
##rinn
##▁ug
##▁skritt
##▁psykolog
##▁forhåpentligvis
##▁språket
##▁aktiver
##▁forutsetning
##▁fullført
##▁introduksjon
##▁prosjektene
##▁sjøm
##▁depre
##uen
##▁koste
##▁lagre
##veil
##▁enorme
##▁komplett
##interes
##▁veget
##undersøkelsen
##avisen
##▁medføre
##▁senest
##▁kalen
##▁helseforet
##▁sjokol
##▁trær
##legges
##▁mere
##▁krf
##▁yt
##▁salgs
##▁miner
##▁vennene
##▁opplevelsen
##▁høring
##▁strålende
##▁klikke
##▁støttet
##bånd
##▁øverst
##shemmede
##▁virkning
##rosoft
##▁epost
##▁hvitt
##▁iso
##fir
##▁skjøt
##▁ytelse
##▁planter
##▁bun
##saken
##▁fravær
##reise
##▁medlemskap
##▁boks
##▁skipet
##meter
##▁gratulerer
##▁overskudd
##oris
##arkedet
##design
##assdrag
##▁nettverket
##▁5,
##▁flat
##▁foreslått
##▁sim
##▁inviterer
##rul
##▁helsepersonell
##▁smerter
##▁geir
##▁oppfylt
##▁tittelen
##▁champ
##▁korrekt
##▁behandler
##▁girls
##▁inc
##▁utgift
##slov
##▁styremedlem
##skede
##▁kristin
##▁arrangementer
##▁magas
##▁sym
##industrien
##▁(4
##ages
##▁klubber
##▁oppdatering
##eper
##▁produserer
##ilbud
##▁volum
##▁mig
##▁rid
##▁mv
##ielle
##▁eksempelvis
##▁tønsberg
##▁forresten
##avdelingen
##ips
##▁lærte
##spillere
##▁holdninger
##kampen
##▁48
##stille
##batter
##isa
##▁tilknyttet
##▁plante
##▁kant
##▁larsen
##▁brå
##▁samarbeider
##jeld
##▁leiligheten
##grepet
##▁link
##▁blikk
##▁håpe
##▁flinke
##▁passet
##▁maskiner
##▁relasjon
##▁garantert
##unes
##▁galler
##klin
##cial
##▁regjeringens
##▁bygde
##▁intensjon
##▁asker
##▁sakte
##▁varsel
##▁forøvrig
##abeth
##go
##▁forberedt
##ani
##smenn
##▁tipp
##▁stolte
##▁merkelig
##▁klassiske
##attere
##▁malt
##▁tilbakemelding
##▁forår
##▁problemene
##øsning
##samlingen
##▁tore
##▁elske
##vannet
##▁australia
##▁trykke
##▁globale
##ddet
##tillit
##▁landskap
##▁innt
##tran
##▁grønt
##▁dild
##▁jevnlig
##▁underteg
##srevisjon
##▁hi
##▁stemning
##▁bygging
##▁kjell
##▁sem
##stolen
##▁konsesjon
##egen
##▁riv
##rup
##▁avgjørelse
##øft
##▁livsstil
##▁flytter
##▁langsiktig
##▁falle
##▁down
##▁39
##▁pyn
##▁sne
##▁kilo
##egrupp
##anlegget
##▁hord
##itar
##▁west
##▁forventes
##▁styrket
##▁moral
##▁polen
##ition
##arr
##0,
##▁kaptein
##▁hek
##▁troll
##▁fornøyde
##elag
##▁styrer
##elagt
##▁stole
##▁banken
##▁beliggen
##▁2-
##▁skapte
##ømm
##key
##▁vedrørende
##▁pak
##lement
##▁storm
##lar
##ward
##▁formidle
##stikk
##▁junior
##▁bringe
##▁distrikt
##▁trives
##▁eksist
##▁apps
##sektoren
##▁microsoft
##▁ferdige
##▁himmelen
##melsene
##▁løst
##▁hydro
##▁engelske
##▁kyl
##▁helhetlig
##22
##▁tapte
##▁kjeller
##havet
##▁elite
##▁kim
##fang
##▁boligen
##▁komb
##▁forbudt
##ssik
##▁grand
##▁størrelsen
##rafikk
##▁..
##atører
##▁http
##▁menighet
##▁liggende
##▁rh
##▁landbruks
##▁rune
##▁back
##▁produsenter
##hild
##▁prom
##ryt
##▁hitt
##▁reisen
##▁videos
##ww
##irektoratet
##▁bekjem
##▁regelverket
##▁pålit
##▁kartlegging
##▁187
##▁teknologien
##▁lokaler
##▁rettferdig
##▁analys
##▁feire
##▁kvinners
##▁speil
##▁flyplassen
##▁finland
##▁veileder
##amet
##▁vilkårene
##ther
##▁wal
##▁referanse
##!!!
##▁barnehag
##leg
##eled
##▁tradisjonell
##▁sjanser
##▁vig
##▁generasjon
##▁påske
##▁rig
##▁sykepleier
##▁bachel
##▁deil
##▁opptre
##fig
##ringe
##▁tåler
##▁parall
##likasjoner
##▁annon
##▁selskapene
##▁reserv
##ts
##smet
##spe
##institusjoner
##▁riktignok
##▁regelverk
##▁utdannelse
##▁buskerud
##▁forank
##▁taler
##▁piz
##▁besluttet
##øken
##▁anbefalt
##▁pedersen
##øyd
##▁dispensasjon
##▁hørings
##▁atom
##anne
##▁alternative
##▁oppskrift
##▁skolene
##sprosjekter
##▁foretrekker
##▁mobilen
##▁blu
##▁fortsett
##▁søkt
##sområder
##▁utgiv
##▁medisiner
##▁arm
##yk
##▁personlighet
##▁stock
##▁intellig
##▁laveste
##▁times
##stasjonen
##▁eleven
##▁oppdraget
##▁3-
##▁gleden
##▁pasientene
##ors
##ave
##▁hvile
##▁kategori
##▁styres
##▁fakultet
##▁gammelt
##▁lillehammer
##fallet
##▁ordinære
##ødvendig
##▁smør
##▁bygningen
##▁(1)
##▁sovjet
##▁mennesket
##alderen
##,.
##▁hytta
##▁åpnes
##enskap
##▁tob
##▁reaksjoner
##▁hellige
##▁intervjuet
##▁tilgjengelighet
##▁ulem
##anere
##500
##iering
##iter
##sgrunn
##▁tinder
##back
##▁behagelig
##ath
##▁utløp
##▁gjennomførte
##årige
##▁angel
##▁brønn
##▁døden
##▁svanger
##▁smartt
##▁utvikles
##egler
##▁terje
##▁komite
##▁dekning
##▁2001
##▁utfyl
##anserte
##fakt
##▁lagring
##▁kamer
##▁avisen
##▁reddet
##▁ås
##▁strikke
##▁inni
##oda
##▁medisinske
##▁bestand
##▁virkelige
##▁tida
##grense
##kapital
##▁rabatt
##▁riks
##▁innbyggerne
##▁mekt
##dte
##ettene
##▁partnere
##▁ask
##ressur
##▁utstyret
##varen
##▁badet
##ender
##▁destin
##▁global
##▁fløy
##▁liden
##▁kino
##ferdsel
##▁fel
##▁kontoret
##ussen
##▁michael
##▁personvern
##runn
##▁cro
##▁fat
##▁styrings
##▁drømme
##▁stiftet
##▁gn
##▁anskaff
##styring
##▁statsbudsjett
##▁treffer
##▁tvun
##▁hjalp
##▁util
##▁miss
##▁reduserer
##▁innk
##▁dekor
##▁derfra
##▁investering
##▁tiår
##▁jordbær
##▁2014.
##kkede
##▁hypp
##▁maskinen
##▁hittil
##▁asp
##beskriv
##▁hr
##▁enheten
##arden
##▁1:
##▁netto
##▁døgnet
##▁2002
##▁sok
##▁hevdet
##▁talt
##▁aftenposten
##▁garn
##problemer
##▁oks
##▁johansen
##▁viking
##▁hilsen
##▁mørket
##▁overl
##▁omsetning
##▁finan
##uligheter
##▁behøver
##▁syl
##▁evner
##▁ålesund
##que
##▁mengden
##pend
##▁kombinert
##9)
##syke
##selskaper
##▁solgte
##lam
##spolitikk
##so
##▁fargen
##kjø
##gjorde
##▁myk
##feil
##seth
##▁savnet
##smyndig
##▁rester
##▁konver
##partement
##▁faget
##▁havner
##▁barnas
##▁kunnskapen
##▁nyere
##▁past
##▁koordin
##▁vokst
##▁seminar
##ografiske
##▁enstemm
##▁gjelde
##▁religiøse
##▁kostnadene
##▁nils
##▁stj
##▁fed
##oth
##pert
##øyer
##▁rosen
##▁ankl
##▁arrangementet
##ira
##▁nivåer
##▁spist
##▁advar
##ikter
##▁bibel
##▁begrense
##▁oftere
##▁hordaland
##▁poenget
##▁veks
##▁;)
##▁ins
##▁aksept
##▁jar
##▁elektriske
##▁integrert
##▁ordene
##▁nabo
##▁avtalt
##▁forhand
##▁rute
##▁infl
##▁hf
##▁fins
##▁kreative
##▁kald
##▁bekrefter
##▁nyttår
##▁ordre
##▁drives
##elin
##▁angst
##virke
##▁avholdt
##innlegg
##senteret
##▁stykke
##▁nektet
##▁forbund
##▁overføring
##▁alminn
##▁bunnen
##▁uvanlig
##▁båter
##▁united
##▁kontakter
##▁forhindre
##ugh
##▁skyt
##▁shopping
##▁eøs
##forum
##igen
##▁annonse
##▁tiltakene
##dager
##▁overnatting
##▁emp
##▁pilot
##▁varslet
##pon
##▁samarbeids
##▁sørg
##▁riksrevisjon
##våpen
##▁tilbys
##nevnt
##▁mari
##sbygg
##▁harde
##▁ola
##anny
##iken
##alistisk
##▁inde
##▁omgivelser
##▁konklusjon
##▁tillitsvalg
##minister
##▁tidspunktet
##oil
##ineres
##▁liber
##?"
##▁business
##▁spilles
##▁hjemmelaget
##▁cent
##▁drev
##▁deilige
##▁kameraet
##www
##▁alp
##byr
##▁hammer
##stur
##▁mørk
##▁tillater
##▁nivået
##▁petro
##▁cum
##▁kafe
##▁roman
##faring
##▁etasje
##▁landslag
##istikken
##▁fli
##▁ambass
##▁begrep
##kser
##elat
##▁hensiktsmessig
##▁individuelle
##▁singler
##▁forskerne
##hodet
##▁søkes
##▁evig
##▁variasjon
##vika
##▁andro
##datter
##▁fase
##fast
##▁moss
##▁luks
##ktene
##sats
##▁bryllup
##▁war
##▁halvt
##▁entreprenør
##hot
##▁ps
##▁dal
##▁variere
##otika
##▁beløpet
##cker
##▁driften
##▁folkehelse
##dok
##▁magnus
##profil
##▁65
##▁forklaring
##armer
##▁arbeidsliv
##stider
##▁kari
##▁cap
##anset
##ibli
##▁cra
##▁sper
##▁virkelighet
##▁sjekker
##▁johannes
##dis
##nda
##▁spesifikke
##▁oppgir
##▁okk
##▁obligator
##▁reduseres
##▁sexle
##sdepartementet
##▁minoritet
##▁meninger
##▁lønns
##illet
##▁afrika
##▁selges
##▁foruts
##ettes
##▁eiere
##▁evnen
##frie
##▁forvir
##▁foreningen
##▁willi
##▁egy
##ikkel
##▁havne
##andel
##▁kampene
##▁innsatsen
##▁bredde
##▁betydningen
##▁185
##smøtet
##▁skjeb
##▁gjenstår
##▁fns
##lu
##▁ekteskapet
##▁power
##▁besøkt
##▁styrets
##▁tyrkia
##kjenne
##messige
##rot
##▁tilrettelegging
##▁rengjøring
##redi
##▁afg
##▁inkl
##kortet
##▁sandefjord
##▁bul
##▁sjokolade
##▁videoen
##▁gjenstander
##▁restauranter
##▁stk
##▁preg
##▁målt
##??
##▁dannet
##▁konvensjon
##▁passord
##▁fet
##▁club
##▁che
##▁takknem
##▁feste
##▁lidenskap
##▁utstillingen
##▁kysten
##▁skuffet
##▁kirur
##musikk
##▁shem
##seks
##▁fremtidige
##▁anim
##▁røyk
##▁gjennomsiktig
##▁henter
##▁streng
##▁melk
##▁skolens
##▁månedene
##sund
##▁jakten
##▁lure
##▁lod
##▁politid
##▁osl
##▁victor
##▁hyggelige
##▁metoden
##ålmod
##ksjonene
##stiske
##▁savner
##▁effekter
##bre
##▁fla
##▁diam
##bevis
##▁introdu
##parti
##▁moden
##▁representert
##angrep
##▁produsent
##velsene
##undersøkelser
##▁42
##bygd
##sområdet
##▁geb
##/3
##▁forvaltnings
##▁interne
##jern
##▁snap
##esterett
##begyn
##▁utlend
##strasjon
##mail
##▁may
##▁perman
##▁samboer
##maskin
##mag
##kten
##▁fylkeskommune
##▁intet
##az
##slå
##▁endel
##dagbladet
##▁servert
##aldt
##høg
##▁vog
##▁enstemmig
##▁grei
##▁elver
##følger
##▁korn
##hn
##smed
##▁gjennomfører
##▁mont
##▁forbedring
##analyse
##itive
##besøk
##▁innføre
##▁male
##▁rekruttering
##▁jazz
##ful
##finans
##▁abon
##▁æ
##▁tolv
##▁quiz
##▁ranger
##▁skiftet
##▁drifts
##ianter
##▁cy
##lings
##▁rådet
##▁regelmessig
##▁flørt
##▁overført
##▁bussen
##▁verdien
##illere
##▁hater
##oms
##▁gunnar
##førings
##▁utfordringen
##aton
##slutning
##▁kjønns
##▁avhenger
##▁høyesterett
##▁camping
##etid
##▁timen
##▁aff
##▁bivirkninger
##▁viet
##▁forbruk
##▁nic
##konfer
##▁00
##▁orgas
##▁samlede
##problem
##cer
##▁rapportering
##▁gunst
##▁pla
##▁1,5
##▁idi
##▁import
##▁unødvendig
##▁undersøkt
##▁ts
##samfunn
##▁fos
##▁tørre
##▁kab
##agder
##veksten
##▁nevnes
##▁read
##kontor
##▁klipp
##ledelse
##▁top
##▁ib
##▁oppfyller
##▁øvelse
##oty
##▁rich
##▁kjendis
##▁finalen
##▁storting
##▁primært
##▁personell
##▁tilsier
##▁informere
##ktes
##▁forbin
##▁eksterne
##bunn
##betaling
##▁vev
##▁internt
##▁stikke
##skade
##▁tilnærming
##▁nordisk
##▁tradisjoner
##▁generalfor
##sforb
##▁elektroniske
##▁tiltaket
##inga
##svir
##▁gjaldt
##▁lukket
##represent
##▁sjåfør
##▁heldige
##▁1/2
##▁noveller
##▁hundrevis
##▁rettss
##▁skr
##▁vegvesen
##▁reklam
##▁tendens
##▁kid
##smidler
##▁distribusjon
##▁måler
##▁ukjente
##▁brem
##▁kopi
##▁samles
##▁bosatt
##▁skilsm
##▁emil
##▁plattform
##▁sengen
##▁skjær
##▁jor
##▁telen
##▁hunde
##ionen
##▁skuff
##lad
##ool
##▁44
##▁tet
##▁43
##▁langvar
##sprob
##▁frie
##voll
##-/
##▁femte
##▁møre
##egnet
##▁poly
##ome
##▁samlinger
##agere
##gården
##▁humør
##reis
##▁arend
##yre
##▁kåt
##valtning
##▁kore
##▁billige
##stjenesten
##elever
##▁således
##▁berlin
##▁regional
##kler
##ilj
##▁elektrisk
##▁innvandrer
##▁sekund
##▁lisens
##▁invit
##▁deltatt
##agn
##ativitet
##▁banker
##umin
##▁døra
##▁dildo
##▁kvalitetssik
##▁helge
##▁analyser
##▁baker
##vinner
##▁rekord
##▁stortings
##▁trafikken
##▁fremgang
##▁selvtillit
##▁sliten
##▁rådgiver
##forsker
##ønnet
##konkurr
##valget
##lyd
##▁trykket
##▁definert
##▁2013.
##▁herreg
##oto
##▁plate
##▁innrømme
##▁byene
##▁innledning
##kompetanse
##▁spons
##slutt
##imer
##▁vri
##benhavn
##▁forbruks
##▁scoret
##årets
##▁delene
##▁underlagt
##box
##forslag
##ded
##▁arrangeres
##▁samleie
##hallen
##▁angri
##stasjoner
##▁kin
##▁sexleketøy
##befol
##▁rådmann
##▁cd
##▁tenåring
##▁kode
##▁stoffet
##▁påfølgende
##▁usikkerhet
##!)
##▁kandidater
##▁james
##regist
##▁ressurs
##enny
##▁kjærester
##▁uf
##▁datas
##møter
##▁gard
##▁kalde
##▁protein
##▁android
##▁asylsøker
##onering
##ferie
##tjenester
##▁gruppene
##▁åpenhet
##bank
##ittet
##kontakt
##veren
##▁selvmord
##foto
##,"
##▁levde
##▁prate
##ipedia
##▁revisor
##▁bibelen
##sområde
##▁smaker
##shem
##▁påmelding
##▁tax
##▁rest
##▁utbytte
##direktoratet
##▁swingers
##▁fyren
##▁sopp
##▁musli
##gaard
##▁møbler
##▁mottok
##sjekk
##▁liter
##▁protokoll
##▁håndtering
##prøve
##▁utgangen
##▁kjempet
##▁happy
##▁budsjettet
##▁nakenbilder
##▁rens
##▁depresjon
##▁kulturelle
##▁kriterier
##iva
##▁billetter
##▁beman
##▁kommand
##orn
##▁overt
##▁sittende
##▁roy
##gren
##▁oppvarming
##▁larvik
##apeut
##▁glipp
##▁hendelsen
##bred
##▁fond
##sbo
##slått
##leks
##hjul
##▁sveits
##▁skjemaet
##▁rydde
##▁usas
##▁statoil
##▁uøn
##▁toget
##▁rådmannen
##▁tilpas
##klokker
##▁delte
##▁negativ
##▁loj
##▁svake
##ony
##▁lengst
##▁trend
##wa
##frem
##▁mov
##▁sarp
##▁idrettslag
##▁forberede
##▁sed
##▁ettertid
##▁mannlige
##hjer
##øvelse
##▁formannskapet
##▁vask
##▁erfarne
##▁syssel
##▁konsekvensene
##▁intervj
##aus
##▁legemidler
##gjøres
##brev
##▁prinsipper
##▁pad
##ef
##▁utredning
##▁harry
##fru
##▁mobbing
##▁generasjoner
##▁kniv
##ical
##▁luften
##▁oppskriften
##▁etterkant
##kontoret
##ifter
##▁kno
##elatende
##▁tradisjonelt
##▁barnevernet
##▁opplæringen
##chen
##▁fantes
##▁hvorav
##euro
##▁greier
##iert
##▁est
##▁laks
##▁fokuserer
##▁personalet
##▁mage
##▁arbeiderpartiet
##▁avslutter
##▁definisjon
##▁sjefen
##▁syria
##komiteen
##▁skjønte
##sfull
##▁samferdsel
##▁sammenhenger
##ebr
##▁lou
##▁musikal
##løpende
##skontroll
##forf
##▁6,
##sløp
##▁gig
##gjørelse
##▁rein
##▁tvunget
##etningen
##▁fullføre
##ating
##▁eleg
##edlemmer
##▁velges
##historie
##tekst
##▁etiske
##▁forlot
##▁mottak
##▁københavn
##▁46
##▁fattige
##klare
##relser
##▁saks
##▁jernbane
##▁respek
##▁egypt
##▁ruter
##wh
##itiv
##▁aktørene
##▁havn
##avdeling
##▁labor
##-10
##▁120
##ualitet
##lok
##▁tegnet
##▁romsdal
##▁sørget
##▁asiatiske
##▁hushold
##▁norden
##▁håkon
##butikker
##▁lande
##▁kunstnere
##▁fortid
##iskap
##▁istedenfor
##stilsynet
##▁hekt
##▁tilsynelatende
##23
##▁journalister
##sign
##▁klubbens
##▁teoret
##▁oppdager
##play
##▁konstant
##▁forutsetter
##cm
##▁hær
##▁hverken
##▁våt
##▁fyll
##bøl
##ileum
##▁livs
##▁avdelingen
##▁spareb
##▁vurderingen
##▁revid
##▁forpliktelser
##▁oppnådd
##enga
##▁(5
##▁døds
##åsen
##utviklingen
##▁jose
##båt
##retten
##▁beliggenhet
##taket
##▁gjenstand
##▁opprinnelse
##▁daniel
##▁skøy
##▁grill
##▁dop
##▁skjønne
##bordet
##▁skjult
##▁nik
##▁vinduet
##▁forandret
##▁utle
##▁keiser
##▁prostit
##skrevet
##▁falske
##▁festival
##cher
##sem
##▁mem
##▁offent
##▁nabol
##▁hellig
##▁treningen
##igelse
##løst
##▁element
##klubben
##ekn
##▁tele
##kså
##▁lurte
##▁international
##▁runder
##▁ekstrem
##▁syr
##aktige
##▁automat
##skritt
##bolig
##▁ryt
##▁funksjonen
##▁nydelige
##▁strategisk
##øyene
##sperioden
##▁indi
##▁gy
##▁cirka
##▁interessen
##ugen
##▁kaster
##▁billigere
##blå
##▁avslutte
##▁que
##▁600
##regel
##▁nilsen
##▁planene
##kvalitet
##▁forstått
##▁avanserte
##▁anbefalinger
##▁od
##skop
##prøv
##ografisk
##ws
##▁henvendelser
##identen
##▁hobby
##uel
##▁home
##ementene
##punkter
##søkonom
##▁ker
##▁forebyggende
##oppdrag
##▁bonde
##▁åpningen
##▁ig
##▁mess
##vitenskap
##▁fordeling
##▁seriøst
##▁sarpsborg
##aliser
##▁begra
##-8
##fødte
##splasser
##skam
##▁make
##stjeneste
##▁mnd
##▁kjekt
##▁møtested
##▁trekkes
##▁gym
##jere
##▁forskriften
##▁tenner
##krav
##▁blanding
##▁dels
##mund
##▁ott
##▁avansert
##▁tydeligvis
##teret
##▁bekreft
##▁danner
##jes
##▁kartet
##▁vanligste
##▁elis
##▁knappen
##ray
##skene
##▁nedgang
##core
##▁fullmakt
##sprogrammet
##▁bakke
##▁stikker
##forskriften
##▁ledige
##▁prinsippet
##▁teller
##▁pap
##▁arbeidstid
##▁gjennomgått
##▁bidro
##kkelt
##oppgave
##istrikt
##▁langrenn
##▁dokumentert
##▁plant
##▁bang
##▁museet
##▁konkurranser
##21
##▁venninne
##▁møttes
##▁elva
##▁hastighet
##▁søket
##▁størrelser
##▁rektor
##▁oppdragsgiver
##▁tape
##▁bely
##▁omstendig
##▁negativt
##▁tilsvarer
##▁skjulte
##teriene
##▁skien
##▁kristus
##▁lesbiske
##▁spent
##▁veterin
##▁truet
##▁tabellen
##▁formidling
##▁dets
##▁fremstår
##sretten
##▁paret
##▁gjentatte
##▁fjord
##▁skjen
##▁scor
##ations
##▁høyden
##aritet
##▁partier
##▁47
##unge
##kart
##▁motsatte
##▁sund
##▁rov
##▁eide
##ras
##▁hat
##▁word
##▁variert
##kunnskap
##▁urin
##▁webcam
##▁fremgår
##besk
##bakken
##bygget
##▁bjer
##.,
##▁hms
##▁cu
##▁hovedstaden
##▁spekter
##▁gjø
##▁arbeidsplass
##delsene
##▁dokumentere
##priser
##▁artig
##hvordan
##▁angitt
##▁danne
##▁pleie
##annet
##▁effektivitet
##▁jula
##▁sint
##▁kunnskaper
##otter
##▁tømmer
##▁maling
##▁sære
##▁holdning
##sammen
##▁asf
##▁support
##▁instrum
##▁senteret
##▁lagret
##▁sekret
##▁bevare
##▁oppland
##▁plukket
##▁fungerte
##ikeren
##meldingen
##▁hjerter
##▁250
##▁pepper
##▁pur
##▁broren
##▁vennligst
##▁dug
##ao
##ax
##gri
##▁sammenhengen
##▁respons
##▁university
##▁lade
##▁relatert
##▁bodd
##svil
##▁acc
##▁tildeling
##▁møl
##▁utst
##▁vedtok
##ega
##urdering
##▁appar
##sykkel
##▁hester
##vig
##▁fortløpende
##▁utelukkende
##pool
##▁klærne
##parken
##vennlige
##list
##▁skrem
##▁strømmen
##▁oppkobling
##▁jakob
##gruppene
##▁innled
##▁bachelor
##klassen
##▁herren
##rukturer
##anken
##▁ingeb
##shistor
##▁count
##▁dører
##▁arrangerer
##atten
##▁act
##▁omd
##▁pig
##▁kutte
##oline
##▁yoga
##▁mottaker
##▁hang
##▁kvitt
##▁gjengen
##▁drikker
##▁pizza
##▁nokså
##ict
##▁romantisk
##skift
##▁grunnlagt
##▁asia
##▁2020
##leum
##▁bestemmelsen
##frihet
##▁north
##▁saksbehandling
##▁vinn
##smiljø
##-7
##burg
##▁firmaet
##▁stry
##▁versjonen
##▁påvirkning
##▁arbeidsoppgaver
##fyr
##▁matchm
##ington
##▁kalte
##▁brenner
##▁kategorien
##▁nettbrett
##uens
##search
##▁gyldig
##▁avsnitt
##▁ekstraordin
##ipl
##▁hende
##▁avgjørelsen
##drende
##▁stadion
##▁utformet
##spunkter
##▁tilsynet
##▁palestin
##▁kake
##skjerm
##▁øyet
##▁gress
##forbruk
##▁plager
##▁irak
##▁shemale
##▁anerkjente
##▁pøl
##▁mj
##organisasjonen
##▁1800-
##▁vinden
##35
##▁jorda
##▁einar
##▁damene
##▁uttalelse
##▁drag
##▁math
##ces
##pal
##▁frik
##▁ultra
##▁dødsf
##▁intim
##▁knapp
##▁innbygger
##opplevelse
##▁lene
##▁muntlig
##▁lovet
##▁bønn
##▁kollektiv
##▁meldingen
##▁innle
##▁stoler
##▁kenn
##▁slette
##▁naz
##administrasjon
##kelig
##▁roma
##▁virkemidler
##▁tittel
##givende
##▁vassdrag
##ality
##▁redaktør
##chester
##▁overtok
##▁2012.
##▁fylket
##▁jonas
##▁truffet
##▁forsvare
##▁korrig
##stod
##▁rekker
##▁reagerer
##sbrudd
##▁skrives
##▁greie
##gutt
##sbet
##▁arrangere
##'.
##lær
##▁høydepunkt
##▁brand
##ifisert
##▁ønskelig
##▁verdiskap
##▁sorg
##ots
##▁hekte
##▁høytt
##ila
##dato
##▁særskilt
##▁bryllu
##▁enorm
##mis
##▁passende
##▁foretaket
##99
##▁petroleum
##▁herregud
##▁ov
##rø
##gisk
##▁sofaen
##▁vestlige
##ystem
##▁økningen
##▁mex
##ferdighet
##▁tariff
##ving
##▁overordnet
##▁sterkeste
##▁mestring
##▁beslutninger
##terende
##systemer
##▁lyder
##▁fingrene
##itten
##sjetter
##føringer
##▁medal
##▁sven
##▁aktiviteten
##▁hellas
##▁foreles
##▁isol
##kli
##▁julen
##▁akseptere
##▁legemiddel
##▁emner
##▁kartlegge
##ssyn
##▁fisken
##▁blind
##▁green
##løk
##run
##bus
##▁ral
##.2
##bia
##▁fargene
##▁landsby
##▁motoren
##▁roller
##været
##▁dyrt
##uth
##▁stykker
##▁base
##▁flå
##▁stimulere
##▁premie
##uset
##ago
##▁bac
##▁elektro
##▁konfir
##▁strenge
##▁løft
##▁innsyn
##<<
##video
##▁ragn
##▁ingeniør
##smateri
##▁urett
##▁oppbevaring
##car
##▁ektem
##▁temperaturen
##▁lim
##▁arkitektur
##▁bestilt
##▁levet
##▁dataene
##kode
##▁flagg
##▁tech
##▁godkjente
##▁pkt
##▁detaljert
##▁undervisningen
##▁kutt
##▁troen
##avis
##▁unntatt
##▁forfer
##▁overleve
##▁regnskaps
##▁immun
##▁mobiltelefon
##nam
##skiftet
##▁flyr
##▁samspill
##urd
##▁tysker
##▁chatte
##nettsteder
##▁basseng
##▁installasjon
##▁aviser
##ralen
##lest
##▁terra
##▁group
##▁gjennomføringen
##▁imøte
##▁fordy
##▁snøen
##▁flyktning
##▁have
##▁videreutvikle
##setningen
##▁uttak
##▁kjøl
##▁dobbel
##▁bedriftene
##▁sammenlik
##▁redning
##▁samtalen
##▁cali
##pset
##driv
##▁forskrifter
##▁innblikk
##▁kritiske
##▁sjøl
##▁nærhet
##▁trenge
##▁talent
##▁anvende
##▁individuell
##sprosess
##▁varianter
##jesel
##ftes
##▁fuktighet
##▁alta
##▁argumenter
##orgen
##▁sivile
##sere
##▁styreleder
##seri
##ømmet
##▁smarte
##▁oppførsel
##▁mobiltelefoner
##▁stockholm
##▁eksisterer
##evær
##▁gled
##ledere
##prøver
##ømming
##▁innvendig
##▁avsk
##▁veksten
##▁kval
##▁implementer
##▁vitenskapelig
##▁medi
##▁omgivelsene
##▁modern
##hall
##salg
##xx
##ota
##▁salget
##▁meldte
##▁biblioteket
##▁nyttige
##▁kortet
##▁farlige
##▁krise
##▁stedene
##▁manager
##▁bay
##▁kinesiske
##▁avslutning
##▁modne
##plom
##hund
##▁forsy
##▁friluftsliv
##▁nedbør
##oten
##▁erstattet
##▁kreativitet
##▁rec
##advok
##▁kasino
##▁temp
##▁kylling
##▁gruppa
##▁nederst
##▁diabet
##▁juridisk
##ory
##▁teknikker
##ttere
##▁brøt
##▁innsiden
##▁works
##▁spillene
##splaner
##▁instrukt
##▁nevner
##▁valuta
##▁halvor
##▁fotografer
##▁dyrene
##▁innslag
##▁ye
##konstru
##ifik
##▁opplegg
##▁tlf
##▁plassere
##▁afghan
##innene
##▁innspil
##▁20-
##▁kontrollen
##▁toll
##ønstre
##▁trenere
##▁sau
##▁kvad
##36
##▁eksport
##sbruk
##▁diskusjoner
##atoren
##stendige
##▁bestående
##▁søppel
##▁george
##▁linjer
##▁retningslinjene
##▁eus
##sve
##▁1999
##banken
##▁ytr
##gjen
##▁faktura
##▁genet
##▁sogn
##sdagen
##▁eli
##▁oly
##▁utvidelse
##gata
##▁standarder
##▁blogge
##▁garanti
##▁sannsynlighet
##▁dekkes
##▁ekspert
##inasjon
##▁bilene
##▁telenor
##komst
##▁scener
##▁beskytter
##areal
##▁dun
##▁sykler
##▁statlig
##jan
##▁utry
##▁(2)
##▁kollekt
##▁tomt
##▁billett
##▁forfall
##▁avgang
##▁potet
##▁forp
##▁stev
##▁designer
##▁vitner
##▁omhandler
##▁eir
##kontr
##▁uheldig
##▁ferien
##▁list
##▁coach
##▁tøffe
##▁gold
##▁fisket
##vat
##høyde
##ids
##▁innkalling
##▁ec
##▁original
##strategi
##firma
##▁forskningen
##▁hehe
##▁testen
##▁lut
##▁begrav
##▁ida
##▁overflate
##▁forhandlinger
##▁good
##▁lyden
##▁street
##▁sluppet
##rapporten
##▁ambul
##instituttet
##▁https
##▁besøks
##-200
##▁espen
##▁siktet
##▁stranden
##▁oppskrifter
##▁bekymring
##▁kjøttet
##▁kontrakten
##▁arendal
##▁betydelige
##▁jernban
##▁kolleger
##▁ast
##▁oppgi
##▁faktiske
##▁fremste
##▁indik
##våg
##▁stjerner
##▁kompetansen
##▁ledig
##▁fremmer
##▁overraskelse
##▁smake
##▁herlige
##▁eidsv
##▁glatt
##▁os
##▁melke
##feller
##samfunnet
##eist
##ønning
##▁påp
##▁lagde
##▁turister
##▁enighet
##▁2011.
##ux
##▁stemp
##▁episode
##raksis
##▁attraktive
##jente
##opt
##issen
##▁sikkerheten
##▁personene
##status
##irk
##▁nekter
##▁blokker
##▁spilleautomater
##▁tørke
##▁klatre
##▁leketøy
##sin
##verdier
##▁tantra
##▁vinduer
##▁grave
##▁innvandring
##▁oli
##▁symbo
##▁hundene
##▁signal
##skel
##▁beholder
##▁bevissthet
##▁gjenspe
##edyrer
##▁olymp
##▁lesing
##▁avdelinger
##▁flam
##▁alternativet
##▁ambisjoner
##▁same
##kasser
##▁natta
##▁dyktig
##▁gjeste
##▁innendørs
##ulen
##▁permanent
##▁frø
##▁anton
##▁dokt
##▁katastro
##▁ordinær
##obe
##▁børs
##uri
##▁flor
##▁administrerende
##▁there
##bs
##▁tilstanden
##▁investere
##redningen
##itenskap
##▁tast
##tal
##load
##pill
##▁tålmod
##▁konflikter
##km
##▁graviditet
##▁registrerer
##bibli
##▁dreper
##▁tapet
##▁kombinere
##kun
##▁menneskelige
##▁våler
##▁administrative
##▁pist
##▁tykk
##▁utbre
##▁fornuftig
##▁refusjon
##uminium
##▁bevegelser
##▁emne
##▁ferske
##▁komplisert
##▁punkter
##▁49
##▁184
##▁låter
##▁nedlast
##skogen
##▁dype
##▁berømte
##▁taus
##▁steng
##ystemet
##▁etikk
##▁ken
##imellom
##▁blodet
##▁iran
##▁knall
##▁800
##strekk
##▁2:
##▁seieren
##▁trent
##▁vag
##kore
##▁ded
##vde
##▁matchmaking
##gge
##▁sinte
##▁muslimske
##ala
##▁trang
##zy
##▁menings
##▁las
##sutvikling
##▁arrestert
##stere
##revisjon
##▁gevin
##▁gravide
##▁endelige
##forsøk
##▁åpenbar
##ferien
##▁estet
##▁økologisk
##▁opplyst
##▁koblet
##▁gab
##▁rettes
##▁overordnede
##▁prioriter
##eksjon
##▁kredittkort
##▁gas
##▁comp
##▁lederen
##finn
##▁harmon
##▁vend
##▁senga
##▁datamaskiner
##▁prioritere
##▁løftet
##▁unikt
##nne
##akon
##▁parken
##skostnader
##cia
##▁celle
##▁stammer
##▁ze
##preg
##▁statistisk
##mmende
##▁forandre
##årig
##▁resep
##holt
##ansatte
##▁straffe
##▁ost
##søke
##▁foruten
##▁republi
##▁stiv
##ikop
##▁mini
##▁spek
##▁venne
##▁angi
##▁riksrevisjonens
##▁regiss
##▁odds
##▁nestleder
##bad
##▁datoen
##▁justis
##ping
##▁oppholdet
##▁forferdelig
##▁7,
##▁partiene
##▁godkjennes
##▁barber
##▁inspirere
##▁kren
##▁angående
##▁forfattere
##▁rasjon
##ilt
##▁vilt
##▁langtid
##-20
##▁tillitsvalgte
##rukket
##▁utleie
##▁glemte
##▁jim
##▁elisabeth
##▁41
##engen
##▁lista
##▁kjemper
##▁plukke
##litteratur
##▁høyst
##▁revidert
##helsetjenesten
##▁ond
##▁desto
##▁pakket
##▁smitte
##kjær
##brand
##▁skremmende
##▁samtid
##▁gule
##▁keeper
##▁tour
##▁misly
##kjøtt
##▁imponert
##▁fristen
##treff
##▁apote
##▁vedt
##edirektoratet
##▁profilen
##▁gjøvik
##skvalitet
##▁rase
##▁hent
##▁sykefra
##bestem
##itim
##store
##undervisning
##▁våknet
##▁takle
##viste
##▁anbud
##▁liver
##▁oppfattet
##▁stjel
##▁datert
##fond
##▁(18
##kat
##▁kompis
##▁atmosfære
##▁,-
##vem
##▁flom
##▁satsing
##vikt
##▁dratt
##▁frid
##sbr
##▁drivstoff
##▁vende
##▁inner
##▁utsikten
##▁latin
##▁ild
##▁heft
##▁stiler
##▁festet
##▁arbeidskraft
##casino
##▁dumt
##▁utroskap
##▁oppløsning
##▁nam
##▁aluminium
##▁begeist
##cing
##▁lomme
##▁heve
##▁overv
##gner
##▁ron
##▁ssb
##▁lidelser
##umentene
##fiske
##▁utgjøre
##▁forpliktet
##▁kh
##▁nådd
##▁engasjere
##▁partneren
##▁nato
##▁lofot
##▁skredder
##▁samvitt
##▁innimellom
##▁repet
##▁operasjoner
##▁enormt
##▁operasjonen
##usia
##▁dir
##▁afrik
##▁lærerne
##▁halsen
##sprosesser
##!"
##▁bringer
##▁king
##▁lillestrøm
##slett
##bod
##fu
##▁gry
##▁økonomien
##▁politiets
##▁ens
##▁foten
##ents
##▁varmen
##▁nb
##▁begrunnelse
##▁grunne
##▁tomm
##▁skygg
##▁marine
##▁oversikten
##▁vinneren
##▁jørgen
##▁kundeservice
##▁frakt
##pum
##▁hjertes
##fel
##▁fylte
##tegn
##▁emosjon
##hagen
##bard
##unner
##▁pene
##▁disipl
##▁67
##▁dypere
##▁innse
##▁sjeldne
##▁inkludere
##formid
##▁oppsummering
##veiled
##▁halden
##spunktet
##▁portug
##▁midlene
##▁verksted
##▁strategier
##cl
##▁femin
##▁samisk
##▁evangel
##▁restauranten
##▁tekstil
##▁avkast
##▁tilfreds
##▁oppi
##▁gjenta
##bevegelsen
##skad
##▁elen
##eløp
##▁leiligheter
##▁idet
##▁smarttelefoner
##▁begrensninger
##▁foretas
##uch
##▁look
##feksjoner
##▁presidenten
##can
##▁demokrati
##bul
##▁eva
##▁kjeft
##▁medlems
##zen
##▁budskap
##sikkerhet
##revende
##▁brede
##sselskap
##▁trykker
##hard
##ennelse
##transport
##cks
##);
##▁komiteen
##kne
##▁bestemmelsene
##▁fron
##▁trett
##▁antatt
##zon
##kanten
##marked
##odden
##▁hon
##▁fore
##▁bistå
##▁tilrettelagt
##▁klinisk
##▁overvekt
##▁borett
##cus
##engden
##▁begj
##▁søsken
##▁sab
##▁kvalifisert
##mott
##billetter
##▁eksperter
##▁nh
##▁flyplass
##bered
##▁utbed
##elding
##jeller
##▁dukke
##▁investerings
##▁omfattet
##-18
##▁forelsk
##▁skift
##▁johanne
##▁tam
##▁fleksibilitet
##▁skept
##▁uttrykket
##▁bevar
##vurdering
##▁kjen
##▁forbedret
##▁2010.
##produksjonen
##ua
##setninger
##▁simon
##▁blomst
##▁85
##fabr
##▁medvirkning
##▁ombord
##interv
##▁forutsig
##▁koke
##bedrift
##▁register
##▁pågrepet
##onder
##▁karen
##▁artister
##▁cla
##▁statsbudsjettet
##stillatelse
##▁soft
##cke
##▁konserter
##ppa
##▁dramatisk
##▁gjensidig
##ksomheten
##▁flytt
##▁skilsmisse
##▁forsink
##▁kirkens
##▁bergens
##▁skrå
##▁analysere
##▁forhandler
##▁hindrer
##▁telle
##▁differ
##▁fødselen
##65
##▁albumet
##"-
##stopp
##▁analyt
##▁ks
##▁ansvarlige
##▁tis
##vendt
##studier
##▁girl
##▁eksperi
##▁betegn
##▁kongsberg
##▁inger
##▁dommen
##▁sprøy
##▁sykkelen
##▁konferansen
##ianne
##▁nøkkelen
##▁juridiske
##▁åre
##▁uttrykke
##▁utsted
##kkelige
##▁bake
##rator
##▁bestiller
##▁ombudet
##▁oppsett
##▁flytende
##spris
##▁anerkjent
##▁muslimer
##inket
##▁gjerning
##reng
##▁menneskelig
##▁hesten
##tektene
##otiske
##▁hjelpemidler
##sig
##▁rense
##alere
##▁kontaktet
##▁gitar
##▁ukraina
##▁ordning
##marks
##oph
##▁rede
##alistiske
##ulære
##▁ektefelle
##-15
##▁barndom
##▁misforstå
##"?
##pat
##▁shop
##speriode
##▁2,5
##▁2-3
##filmen
##▁begre
##▁ordne
##▁tus
##▁dronning
##▁utveksling
##gs
##▁spøk
##▁teen
##▁sangen
##▁revet
##størrelse
##▁desper
##▁ud
##bestemm
##▁eieren
##▁skis
##▁trafikks
##▁2015,
##▁tredjepart
##▁seinere
##▁debut
##klæring
##prosessen
##web
##▁endt
##ansere
##▁ligner
##idi
##▁kjole
##▁tennene
##▁tilsted
##fok
##▁normale
##▁nina
##▁forbrukere
##celler
##▁ligget
##▁drakt
##▁sval
##▁synet
##▁seriøs
##▁sannhet
##▁overføres
##▁nerv
##eden
##▁oversatt
##jening
##▁vitenskapelige
##▁mesteparten
##▁vegger
##▁lister
##▁utarbeid
##▁anser
##▁pedagogisk
##skjær
##▁bevilg
##▁konstruksjon
##øyet
##▁kjøpet
##▁fjernes
##▁spredt
##▁gum
##skan
##▁holm
##▁diabetes
##ikket
##▁herr
##olusjon
##▁oppdateringer
##hvis
##time
##▁hill
##afrika
##institusjon
##28
##▁drømmen
##levering
##▁nybegyn
##▁bam
##festivalen
##▁tilrettelegge
##▁datamaskinen
##▁torg
##journ
##fet
##▁fit
##▁flertallet
##▁drama
##▁butikkene
##cas
##handlet
##▁tildel
##▁kalender
##▁menyen
##▁manchester
##▁skit
##▁tvert
##▁iii
##▁harstad
##▁lagmann
##▁ulykke
##annonser
##%.
##▁meny
##▁presenteres
##dren
##▁krang
##▁fremmede
##▁rose
##▁forandring
##▁angrer
##▁seriøse
##▁forholdsvis
##▁download
##▁antak
##sprosjektet
##▁uend
##komite
##▁antas
##kkere
##▁kontakten
##▁yngste
##▁komplek
##▁alexander
##▁school
##▁utgaven
##▁dugnad
##▁uni
##▁matvarer
##pende
##nement
##▁95
##▁skjære
##▁løfter
##▁dar
##▁house
##▁organisere
##▁pens
##▁mørkt
##farge
##sfun
##ugar
##▁64
##▁sparer
##råder
##▁linn
##▁revolusjonen
##dik
##▁erstatte
##▁action
##▁trivsel
##▁synge
##▁anledninger
##▁overføre
##▁tøft
##▁lages
##▁wash
##▁begravet
##splassen
##▁flaske
##▁<3
##medisin
##▁forval
##▁rakk
##▁fordelene
##▁spansk
##▁prop
##allige
##slene
##▁bestill
##▁stiftelsen
##altern
##▁open
##▁miljøer
##▁kjenneteg
##▁hjert
##▁chil
##olske
##▁varighet
##▁fou
##▁jøder
##▁invitere
##▁permisjon
##▁trodd
##▁makten
##▁1-
##▁peke
##▁synlige
##▁ulykker
##▁bosted
##▁overgangen
##▁nit
##inering
##▁undervisnings
##▁liverpool
##ønt
##budsjett
##▁avl
##▁koord
##▁fiber
##▁nøk
##▁utlø
##skur
##▁snur
##▁tilbringe
##▁tilstedevær
##▁voksende
##bass
##hv
##▁europeisk
##▁innsamling
##▁glemmer
##▁bensin
##▁kanal
##board
##▁antagelig
##▁inse
##▁bisk
##▁slitt
##▁refleksjon
##▁nysgjerrig
##▁ungdommene
##▁skatter
##▁handlingen
##▁frykter
##▁armen
##▁miljøp
##▁sone
##▁osc
##situ
##▁enden
##▁kru
##serne
##95
##østen
##▁onde
##prins
##▁varsler
##▁she
##▁californ
##▁etterforsk
##▁lagres
##▁hendelse
##00,
##rakte
##ikre
##nettet
##redelse
##enen
##knende
##▁oppslag
##▁arbeidsplassen
##meldt
##▁vekten
##▁formannskap
##▁80-
##løsninger
##▁dørene
##ox
##rater
##▁kvadrat
##▁informert
##▁posisjoner
##▁market
##▁sjakk
##▁brevet
##▁diplom
##gin
##▁sykl
##▁takker
##▁adop
##▁etterretning
##▁kommunes
##▁doktorg
##vedtak
##▁fryktelig
##▁53
##▁oppmerksomheten
##kveld
##▁kombinasjonen
##funksjonen
##▁asylsøkere
##▁iver
##▁ult
##lund
##▁overflaten
##▁ingrid
##▁observert
##▁skjønt
##▁sjeldent
##▁eriksen
##▁høytid
##▁sog
##orger
##▁spilleren
##ifi
##▁late
##▁tåle
##▁puste
##▁øyvind
##▁redegjør
##▁bekjent
##partementets
##ock
##▁8,
##▁læreren
##reiser
##▁1)
##▁finale
##sbasert
##▁påvist
##▁interesserte
##yting
##hvorfor
##▁avgjørelser
##▁dropp
##ssenteret
##▁montering
##▁beskrives
##lærer
##▁føres
##▁videok
##▁2016,
##ådet
##paret
##stor
##▁legitim
##▁endringen
##-12
##▁beskyttet
##▁fanger
##▁festivalen
##søkt
##▁sykle
##▁pålegg
##▁rådgivning
##▁landskapet
##venner
##▁linken
##▁skjule
##studenter
##▁voldtekt
##▁kanaler
##ikali
##▁politikerne
##elsens
##▁spekt
##▁herrer
##anker
##sjøen
##ville
##▁simp
##▁kriminalitet
##▁poster
##opptak
##▁fuck
##▁psykiat
##▁slite
##cup
##▁budsjetter
##▁pakk
##urg
##▁føttene
##▁kulturer
##▁09
##▁sekretari
##▁jesu
##▁amerika
##▁høyres
##▁sammenligning
##gro
##▁52
##▁strengt
##▁politikken
##:30
##▁asfalt
##ally
##▁utdanningen
##▁spanske
##▁uttalte
##skurs
##▁redaksjon
##▁inspirerende
##uro
##▁furu
##▁pressemelding
##▁kjøres
##▁stasjonen
##▁prioritert
##lywood
##▁gevinst
##▁kreativ
##gener
##▁fremmet
##▁wikipedia
##ience
##mers
##▁eie
##▁politidistrikt
##ones
##forsy
##▁trusler
##▁apper
##▁komfortabel
##▁bin
##sbyen
##▁gps
##▁lekker
##sekretær
##▁get
##sde
##prosess
##jort
##▁dagers
##▁langsiktige
##▁afghanistan
##▁flag
##▁følelsene
##▁sånne
##ado
##tilbud
##hyd
##▁utsettes
##▁sminke
##▁put
##light
##▁bakover
##▁kaff
##▁foreslås
##▁betalings
##▁fagfolk
##▁hoppet
##▁lakse
##▁betalte
##▁pust
##▁eirik
##ettig
##▁fattigdom
##skifte
##gno
##▁tod
##▁oppdaterte
##▁myke
##▁ivaretatt
##▁hust
##▁aktuell
##▁fornybar
##▁hjulpet
##ki
##▁eierskap
##iliteter
##▁bekjempe
##▁seksuelt
##▁mellomrom
##▁informasjons
##forsikring
##▁ever
##▁hosp
##ologien
##▁besøket
##▁indiker
##▁reisende
##alia
##▁william
##▁offisielt
##▁rop
##▁elg
##▁finansielle
##partner
##▁brennende
##▁leverte
##▁øve
##fjellet
##▁day
##lend
##▁kris
##▁tilbudt
##▁domstol
##▁tidsskrift
##▁cle
##▁autor
##▁avdekket
##▁isen
##▁70-
##ærne
##▁mediene
##▁jevne
##▁yd
##1.201
##▁diesel
##▁farten
##aktive
##▁utsette
##▁forutsatt
##brid
##▁richard
##ysning
##▁nif
##▁tenåringer
##30.
##▁hæren
##▁pålagt
##▁hyppig
##klaring
##▁material
##▁hinder
##oversikt
##▁definere
##assene
##ummen
##▁målrettet
##▁skjev
##faget
##▁læringsm
##▁utallige
##▁vitamin
##▁innvilget
##bot
##▁stang
##▁sjansene
##▁oversett
##▁installert
##lan
##▁trussel
##▁squ
##ortere
##olk
##▁omfanget
##39
##formål
##▁utv
##▁attraksjoner
##▁54
##▁stanse
##▁long
##aga
##▁sporet
##▁orgasme
##▁mexico
##ex
##▁gata
##▁bratt
##▁rengjør
##▁oksy
##▁luksus
##/4
##▁eiendomsm
##▁økes
##amerika
##rek
##alls
##ij
##▁viktigheten
##saket
##▁konseptet
##fle
##▁56
##▁bøy
##not
##rygg
##▁grunnskole
##▁uavhengige
##sete
##▁brukernavn
##▁bryster
##▁nærliggende
##direkte
##navnet
##▁muskler
##▁varig
##▁originale
##ula
##smuligheter
##▁grim
##▁how
##▁engasjerte
##▁biter
##▁aas
##▁ån
##sselskapet
##▁premium
##▁apoteket
##▁dybde
##sch
##▁1997
##godt
##▁digitalt
##▁kontaktannonse
##dist
##▁dahl
##▁utmerk
##▁støtten
##strateg
##▁artist
##▁polar
##▁fad
##inker
##forfatter
##▁2017,
##▁dokumentet
##▁california
##forvaltning
##spensjon
##▁abo
##▁timene
##▁research
##▁telefoner
##▁50-
##▁arn
##▁taper
##bøkene
##▁skuespillere
##ssyk
##▁latt
##▁vesentlige
##▁aur
##oslo
##turer
##iserings
##omer
##▁returner
##verker
##▁brett
##lete
##▁spi
##▁saksbe
##▁grunder
##▁severdig
##▁kirker
##ressen
##▁påstå
##haugen
##▁reparasjon
##▁ethvert
##▁forskjellene
##▁gaten
##▁dna
##▁fikse
##▁1998
##▁industrien
##teri
##▁langvarig
##▁pdf
##pad
##▁kontant
##▁planlagte
##▁stemningen
##rettes
##▁fineste
##▁montert
##▁institusjonen
##▁fokuset
##fasen
##▁2009.
##▁sykt
##teren
##åd
##▁taushet
##▁manag
##▁bene
##▁forårsaket
##▁agenda
##shøy
##▁tum
##▁forsøket
##▁rol
##▁feiret
##▁tverrfaglig
##▁deling
##stiller
##▁sosiali
##▁kjetil
##▁optimal
##▁øystein
##▁prosjektering
##▁filmene
##▁minnet
##▁kommentere
##nivået
##▁miljøvennlig
##▁vie
##▁uttalt
##▁gardermoen
##▁haugen
##▁etterspørsel
##▁mannlig
##▁elevenes
##▁ypper
##veit
##▁fascinerende
##jev
##aktiv
##▁tyng
##▁inngrep
##▁regulert
##dretter
##▁anty
##▁belg
##▁reell
##aug
##▁overtid
##▁medarbeider
##▁2014,
##▁frode
##▁georg
##▁hemmelige
##vilt
##▁advent
##▁journal
##▁spa
##foreldre
##iblant
##▁ankomst
##▁ekstern
##▁diskutert
##elva
##minner
##▁diagnose
##eri
##skjel
##▁detaljerte
##▁varene
##ienser
##▁organer
##▁rommene
##▁asiatisk
##▁argument
##imet
##grensen
##ous
##nadene
##befolkningen
##▁hur
##▁referat
##visningen
##ftt
##▁forenk
##▁victoria
##▁ama
##▁overn
##▁snapchat
##▁folketryg
##hvertfall
##▁sammenslå
##ssystemer
##▁avslag
##▁svarene
##kjem
##øster
##▁semester
##▁svel
##ogen
##dtr
##▁intervjuer
##muligheter
##▁utførelse
##▁isb
##▁kraftige
##▁konkurrere
##▁bronse
##▁fornær
##▁anmeldelser
##▁margin
##styrke
##skamp
##▁beregning
##▁4-
##æs
##▁konferanse
##▁travel
##▁passasjerer
##▁pikk
##armerende
##▁vennen
##▁mette
##▁svindel
##▁typiske
##▁forlater
##▁forlatt
##▁66
##▁pål
##▁oppgradering
##▁sports
##▁minnes
##ssykehus
##▁universiteter
##rakter
##idar
##vidde
##▁logge
##assasje
##dringene
##▁ulikt
##▁escorts
##▁ydmy
##▁anmeld
##▁inten
##▁turn
##▁betingelser
##▁utkikk
##▁møtene
##▁jess
##▁baserer
##▁99
##▁kas
##▁rang
##▁lufthavn
##▁plag
##▁bekymre
##▁hjørnet
##▁innover
##▁inv
##▁forebygging
##stig
##▁filip
##▁ms
##▁cli
##▁nettbutikken
##ship
##aer
##▁pod
##▁materiell
##▁nyter
##?)
##▁kjønnslepper
##▁diskusjonen
##▁fund
##skre
##▁såret
##▁funksjonalitet
##▁58
##bilen
##ioter
##▁oppnår
##gavene
##▁slaget
##▁avsløre
##▁nettsidene
##ansje
##▁vul
##▁lider
##▁avgrens
##▁anvendelse
##▁soli
##▁hvertfall
##▁hanne
##▁bekrefte
##▁fugler
##▁jubileum
##▁ipad
##▁virt
##▁enslige
##▁lengden
##▁disposisjon
##ican
##▁filer
##▁watch
##▁arbeidsforhold
##▁faktor
##▁forstand
##serier
##eløs
##stø
##▁veggene
##▁individer
##usk
##▁varen
##åpen
##▁avgifter
##▁fortrinn
##▁30-
##seffekt
##▁krysset
##enteret
##▁cur
##▁arbeidsle
##▁pakker
##▁uttale
##▁belastning
##▁fab
##geren
##▁flash
##:0
##▁report
##▁omtaler
##▁tynn
##▁dømme
##▁was
##uste
##▁levetid
##orium
##▁kontrollert
##▁sparebank
##▁særdeles
##stjerner
##▁signaler
##fant
##vises
##▁omfatte
##78
##▁eik
##▁telt
##▁metod
##esen
##▁bredere
##▁sjanger
##▁dj
##▁kommersielle
##▁justere
##▁foresatte
##▁detaljene
##▁chic
##▁jom
##▁diskriminering
##▁emnet
##▁avhør
##umenter
##kalt
##sing
##▁seksualitet
##▁tydelige
##visninger
##▁julet
##ifisering
##redienser
##▁verdig
##▁uføre
##utfor
##▁%.
##▁kvar
##▁tryggere
##trening
##▁maksimal
##gjenger
##▁verktøyet
##▁2013,
##otisk
##▁livssyn
##▁overs
##▁språ
##▁ressursene
##▁gebyr
##33
##▁primær
##▁spredning
##▁løk
##▁samvittighet
##rådgiver
##▁forlagets
##målet
##▁plasseres
##▁prosedyrer
##▁armer
##komme
##▁virus
##fotball
##vers
##▁arke
##dder
##festet
##▁transpor
##▁rib
##serende
##▁melod
##▁festen
##apparatet
##▁pågående
##ikkene
##▁målsett
##▁meningen
##kamer
##jelp
##▁babyen
##skjemaet
##bb
##▁arild
##▁krim
##▁lyng
##ooth
##armen
##▁sitater
##▁sjekking
##▁punktet
##▁jødiske
##▁spreng
##strene
##▁låt
##avgiften
##▁førsteklasse
##ced
##▁bestått
##▁ulykken
##vegen
##▁ansettelse
##▁bladet
##▁svalbard
##sspør
##▁pian
##▁fugl
##▁sjal
##▁anm
##▁bønder
##▁bring
##▁avvist
##▁vas
##▁bygda
##▁århundre
##▁ubehagelig
##▁fylles
##▁kriminelle
##▁washington
##▁forespørsel
##konto
##▁føde
##faglige
##gud
##▁phot
##▁center
##▁1-2
##▁megler
##▁versjoner
##▁stjør
##▁politim
##▁gunstig
##▁billed
##▁demonstr
##▁10,
##kropp
##cis
##-9
##▁kai
##▁gid
##▁jag
##▁armene
##hyl
##▁mattilsynet
##▁rub
##▁trøtt
##▁folks
##▁japansk
##kjøl
##resjon
##▁massevis
##▁hormon
##▁lukt
##26
##heve
##▁vern
##▁ofre
##stemning
##▁halvdel
##▁anledningen
##▁sans
##▁roll
##▁offens
##kamera
##▁støtt
##akterer
##▁karbon
##opphold
##▁hevde
##▁britisk
##▁tau
##▁nordre
##▁ihvertfall
##▁flukt
##▁varierte
##▁oscar
##▁filter
##▁krem
##▁funksjonene
##▁jav
##▁statistikken
##▁fangst
##væ
##▁py
##▁stemmerett
##▁brenn
##uli
##▁pålitelig
##▁risikerer
##▁utbredt
##▁ikon
##▁rammen
##dert
##sordningen
##▁fjerner
##▁innovative
##▁siri
##▁tilfredsstille
##rap
##▁budskapet
##ynet
##alitets
##▁uform
##▁rolf
##avet
##sverk
##ekont
##blant
##▁kunsten
##kons
##▁spart
##▁friidrett
##▁løpere
##▁markert
##▁regionalt
##▁eksklusive
##▁pay
##▁statsborger
##stilte
##iell
##▁glas
##aw
##▁51
##ison
##▁(6
##▁obligatorisk
##▁svik
##misjon
##▁omstilling
##▁call
##sforbund
##▁tang
##▁uskyl
##▁instrumenter
##hor
##debatt
##▁varsling
##arena
##▁anta
##itz
##radi
##kjer
##▁fjorårets
##▁major
##▁strategiske
##▁narvik
##▁medhold
##▁datamaskin
##▁evalu
##kvensen
##utdanningen
##▁begren
##▁marianne
##47
##▁pressen
##▁heste
##book
##▁non
##rog
##▁strikket
##▁60-
##▁smith
##snes
##▁kommenter
##▁bd
##▁samiske
##ump
##▁ike
##▁løses
##las
##▁utfordre
##▁deriblant
##▁retts
##▁samlivsbrudd
##▁sviger
##▁unngår
##fon
##▁fattet
##funksjoner
##edato
##nek
##▁bestå
##aria
##▁90-
##▁helikop
##▁utsiden
##▁vannkraft
##▁signert
##▁fremtidig
##▁ødelegger
##▁nap
##▁funker
##▁stjørdal
##taler
##ights
##▁toalett
##kyndig
##▁tette
##▁villige
##▁nordic
##raft
##▁japanske
##sutstyr
##leir
##komne
##▁samlingen
##▁pant
##mekan
##stabil
##▁avsluttes
##▁lady
##▁aktør
##▁gatene
##▁barri
##▁betales
##▁tilpasses
##▁opphev
##▁klø
##▁indirekte
##strå
##sordning
##▁regning
##snittet
##▁blandet
##▁opplysning
##▁kjemikali
##▁lytter
##▁forekommer
##▁erver
##▁grafikk
##▁toler
##aka
##iens
##▁utgiftene
##▁rekkefølge
##▁hjørne
##▁verket
##▁universell
##sat
##effekt
##▁stabilitet
##▁kostet
##▁organisasjonene
##eremon
##▁renhold
##▁uriktige
##▁ivrig
##ima
##▁lenker
##▁utvendig
##▁annons
##hd
##▁spissen
##▁aggress
##▁førsteklasses
##▁vs
##▁kvinnelig
##smålet
##▁fylkeskommunen
##ssaker
##▁slåss
##▁varierende
##mg
##▁vidar
##dage
##fas
##▁tillat
##pu
##arrang
##▁62
##una
##▁nyhetsbrev
##▁blok
##▁lkke
##▁konkurransedy
##▁stas
##▁operer
##anerne
##mil
##▁etableres
##▁add
##▁nådde
##teknologi
##sanlegg
##▁kristoffer
##sting
##▁dødsfall
##dringen
##▁foregikk
##sidig
##beting
##▁livets
##▁gjennomsnittet
##▁fremskritt
##▁installere
##risen
##dane
##ålen
##▁oppfører
##▁befolknings
##▁lufta
##37
##fugl
##▁cub
##▁rettighet
##norske
##▁farg
##▁saft
##▁minus
##▁nordover
##▁tante
##▁tørket
##sli
##▁nho
##▁oppfatter
##▁integrering
##hs
##▁ordnet
##▁årsakene
##▁avdekke
##▁applik
##▁marius
##▁unger
##▁sikring
##▁utenlandsk
##▁øyene
##▁oppfattes
##familien
##▁forumet
##▁nåde
##idens
##▁leses
##▁forbehold
##▁påstand
##▁hemmelighet
##▁bik
##▁gjennomgående
##▁deltagere
##fulgt
##varme
##▁reelle
##▁fortvil
##sløsninger
##skort
##ahl
##▁leken
##▁utnyttelse
##▁italienske
##▁indikerer
##▁kopp
##kse
##▁gun
##itch
##▁formiddag
##planer
##▁kjapt
##▁nyt
##▁sirk
##▁2)
##▁falsk
##▁helsen
##▁ingredienser
##▁reflektere
##▁siv
##ason
##▁akseptert
##▁utstillinger
##sling
##▁kaos
##▁realisere
##▁opptrer
##mø
##▁bundet
##pres
##▁klubbene
##▁lastet
##▁myn
##▁2008.
##ordninger
##▁overta
##ivind
##atret
##leggingen
##▁presenterte
##brød
##▁hilde
##▁sas
##▁kristiansund
##▁liknende
##▁kaker
##▁halve
##▁our
##▁tidlige
##▁potensial
##▁lie
##▁boksen
##▁utøv
##▁inviterte
##edel
##▁fester
##▁oksygen
##▁familiem
##▁08
##▁infeksjon
##▁begreper
##▁plak
##▁villa
##▁jammen
##▁kinesisk
##pul
##▁konfirm
##▁forurensning
##▁grønnsak
##▁globalt
##▁posted
##hets
##skapende
##▁kampanje
##▁lukter
##ssent
##▁østlandet
##▁kjøret
##tm
##idene
##▁skyter
##▁nve
##skultur
##▁øyen
##jakt
##onere
##jenestene
##▁dnb
##kirke
##▁fjær
##▁skry
##▁risikov
##▁symptomene
##▁management
##illing
##prem
##steknologi
##▁bbw
##▁maksimalt
##svitenskap
##▁eies
##snummer
##utgifter
##▁pakken
##ject
##ji
##fylt
##▁lud
##▁leverandøren
##▁tsjekk
##▁5-
##iverset
##▁3000
##ipe
##studio
##▁mistanke
##▁kolli
##▁timers
##▁øyer
##▁middels
##▁råvarer
##▁oppm
##▁elim
##skomiteen
##▁jfr
##▁antib
##▁stater
##▁sjømat
##▁cast
##34
##apparat
##▁sec
##▁europas
##▁forhandlingene
##▁tilhørighet
##▁knytter
##strik
##▁zo
##▁treet
##▁prester
##▁konsulent
##▁tyskerne
##27
##▁merverdi
##stua
##▁pst
##▁barcel
##▁fysioter
##▁eksam
##▁9,
##▁dyrere
##sbed
##▁flørte
##▁visning
##▁rapportert
##vilkår
##egj
##▁unnskyldning
##▁mektig
##▁tort
##▁ubehag
##▁kristiansen
##▁observasjoner
##nord
##▁yte
##▁hæ
##grunnlag
##▁fortjent
##▁spot
##▁eierne
##▁overhodet
##▁forkyn
##▁sverre
##▁manglet
##▁eb
##▁bekreftelse
##spartiet
##▁pornofilmer
##▁lofoten
##▁narkotika
##▁kompleks
##▁snarere
##▁operativ
##sykdom
##▁okkup
##▁fenomen
##▁wa
##▁hytter
##▁anerkjennelse
##▁mødre
##▁donald
##alem
##▁medvir
##▁varam
##▁sunne
##▁bestilte
##▁overvåking
##alisme
##bytte
##udi
##▁laborator
##forbruket
##▁rally
##enheter
##▁700
##bom
##▁news
##utvalgets
##▁smel
##▁joe
##▁offsh
##▁væske
##▁skreddersy
##▁ns
##▁bekken
##▁roger
##knappen
##▁særlige
##olit
##▁rettferdighet
##cket
##▁studiene
##▁hiv
##▁sjette
##▁overbevist
##▁forblir
##▁tegning
##▁individuelt
##▁radik
##▁føringer
##▁sjokk
##ami
##ammen
##ungen
##tenberg
##▁handels
##▁filosofi
##kron
##sarbeidet
##▁tingrett
##råden
##▁tynne
##plate
##▁games
##▁prestasjon
##▁sjarmerende
##▁evak
##hast
##▁avh
##▁beun
##▁kabel
##prom
##versjon
##▁cv
##.000
##▁tradisjonen
##arne
##▁straffes
##sber
##▁2012,
##col
##▁aktivitetene
##instru
##prof
##▁styrt
##▁bm
##elærer
##folket
##oke
##▁testing
##▁bow
##▁eksplosjon
##▁adressen
##▁polske
##pning
##▁cook
##▁folker
##▁arve
##▁old
##▁57
##▁fugle
##▁jud
##▁life
##modell
##skinn
##▁viktigst
##▁avhengige
##▁ventilasjon
##ktorer
##show
##▁progno
##▁hollywood
##▁veterinær
##▁cal
##▁bestemor
##▁varte
##punktet
##▁flin
##▁tig
##▁handlingsplan
##ærende
##best
##▁strekke
##▁wi
##erg
##▁sammendrag
##▁fjerning
##neren
##▁krevde
##▁ah
##smak
##▁reisem
##▁road
##▁rak
##▁abort
##ariske
##▁stoltenberg
##▁elverum
##▁nettverks
##▁opphavsrett
##▁mestre
##▁romanen
##▁ytrings
##▁bakterier
##▁johnsen
##▁lise
##▁oppuss
##kry
##stjerne
##▁bekymringer
##mai
##▁who
##▁miljøvern
##▁arbeidsmilj
##mal
##gått
##▁angår
##gull
##▁beach
##▁game
##▁katter
##▁tråden
##▁fenom
##▁regnskapet
##▁stiger
##sun
##▁2011,
##olet
##▁manip
##▁grus
##stens
##ated
##▁hp
##▁isolasjon
##▁forandringer
##politikken
##▁tex
##gelse
##kjørt
##▁dama
##▁nese
##▁uthold
##▁borg
##▁levd
##▁kvant
##site
##▁produseres
##▁løser
##▁frigjøre
##▁uttalelser
##▁stemte
##▁solide
##▁nettleser
##aliteter
##▁servere
##▁måling
##29
##▁menes
##▁biologiske
##▁eksped
##▁røtter
##tokollen
##▁lidelse
##?>>
##▁tat
##▁first
##▁byggher
##▁nøtter
##▁forelskelse
##▁oppsigelse
##eiere
##▁kvalifiserte
##▁mandat
##▁rasm
##kjære
##▁bransjer
##▁vestlandet
##▁nyheten
##▁tegninger
##▁hopper
##▁antakelig
##▁steink
##▁konserv
##▁ambisjon
##▁cec
##drom
##▁lunge
##modellen
##▁flu
##▁oversettelse
##skipet
##▁pers
##▁plus
##verdenen
##▁brystet
##▁tunnel
##ining
##▁opererer
##pleie
##▁pågår
##▁steiner
##europa
##▁drøyt
##▁elsk
##▁stige
##sutvalget
##▁luftfart
##ifin
##▁ped
##sfrist
##utdann
##▁trer
##▁soverom
##regnskap
##▁ungdomsskole
##▁avisa
##▁fagmiljø
##pakke
##riktet
##▁stemmen
##▁eidsvoll
##▁batteri
##staver
##▁oppdateres
##▁spy
##▁elven
##▁angiv
##sprodu
##▁forsiden
##▁onkel
##edager
##▁husdyr
##▁aar
##▁juryen
##boksen
##▁inneholdt
##▁terrenget
##stilles
##▁kjemiske
##medal
##ript
##▁datoer
##organisasjonene
##bun
##▁matte
##star
##▁respon
##:5
##log
##▁score
##▁slet
##▁innstillinger
##▁ræ
##bakgrunn
##▁aksepterer
##▁arbeidsgivere
##▁vesten
##sma
##▁serier
##oss
##▁sannsynligheten
##▁ryddet
##srom
##▁blan
##▁egenkapital
##▁about
##38
##▁horn
##▁vennlige
##biter
##▁grunnskolen
##▁sten
##▁skarp
##/200
##trener
##beskrivelse
##▁fremtidens
##▁59
##▁naboer
##▁klimag
##▁verst
##itor
##▁bryn
##▁drøft
##▁forsinket
##▁utdy
##▁sinne
##sbes
##▁berørte
##▁sørøst
##▁baksiden
##▁bern
##forsvaret
##▁kristine
##▁resulterte
##▁nyhetene
##▁etterfulgt
##▁kanten
##▁slem
##rollen
##▁avdø
##▁hyper
##snivået
##▁markeder
##▁stabilt
##▁avdelings
##▁cruise
##▁takknemlig
##▁prestasjoner
##sdato
##verdien
##▁office
##▁erna
##▁domin
##▁israelske
##zer
##▁verdipapir
##▁avhengighet
##fy
##▁tag
##▁stortingets
##▁lovens
##▁avslutt
##▁opera
##▁internet
##▁oppfat
##▁flytting
##▁forestillingen
##▁1990-
##hrine
##▁konklusjonen
##▁innrømmer
##▁cel
##▁fondet
##▁biologisk
##▁5000
##▁observasjon
##▁oppsikt
##▁asa
##▁skrik
##▁blød
##▁tørt
##lett
##▁spore
##▁lønner
##▁budd
##▁).
##skir
##▁barcelona
##▁light
##▁blande
##adressen
##▁ekstreme
##▁vedtekter
##▁cop
##▁party
##▁næringen
##ksene
##▁logo
##▁flinkere
##▁fellesskapet
##▁forvand
##▁søsteren
##riks
##▁satel
##▁konsernet
##▁tilnærmet
##ippet
##▁skoene
##▁inntektene
##▁kåre
##maskiner
##▁kontoen
##▁undersøker
##▁lekk
##▁workshop
##▁kursen
##▁smaken
##▁ideelle
##▁fremdrift
##▁halvår
##▁spesifikt
##▁ving
##▁skapet
##hopp
##▁arrangerte
##▁spesialisert
##▁ubet
##osa
##▁protest
##▁fy
##strening
##atering
##▁ingredi
##▁utslag
##atib
##▁stian
##▁æren
##rafikken
##▁verdiene
##vog
##▁grove
##▁fundament
##▁trakasser
##▁even
##faren
##▁steget
##▁iron
##▁lengste
##▁virkemiddel
##visende
##velen
##▁utnevnt
##▁attraktiv
##wor
##tilskudd
##cast
##▁fabrikk
##▁white
##▁0.
##▁leiet
##▁svikt
##▁kosty
##ramme
##▁tyngre
##krat
##artikler
##▁1500
##▁oppføring
##▁trag
##pedagog
##▁føtter
##▁bh
##▁kjempeg
##▁personale
##halv
##▁blikket
##▁forsvinne
##▁river
##▁bull
##▁åpningstider
##▁vålerenga
##blom
##▁realistisk
##▁klimaen
##styrets
##▁oppnev
##▁lens
##porno
##teringen
##▁1995
##▁undertegnede
##festival
##søkte
##▁utgjorde
##slovens
##▁adam
##rekke
##▁sprer
##▁grensene
##▁2007.
##▁kuk
##ressurser
##▁renter
##vm
##▁1996
##▁innhente
##vinn
##▁temaene
##▁ari
##...)
##▁utveks
##▁veiene
##sover
##▁kampanjen
##atikken
##▁slettet
##ialit
##▁bena
##▁ernæring
##▁tilsett
##▁konserten
##▁utbetaling
##▁md
##▁linker
##▁avkastning
##▁stua
##figur
##keland
##▁rhf
##▁koll
##dahl
##▁strø
##▁gripe
##sey
##tema
##marka
##sproblemer
##▁koser
##arv
##ays
##sesse
##▁erob
##▁3:
##ieren
##▁kall
##▁tull
##▁helene
##▁lenke
##▁synger
##▁kandidat
##▁utfl
##handlinger
##ssituasjon
##fli
##▁samord
##▁justin
##file
##skolene
##▁jomfru
##▁svind
##▁tilfellene
##rupsjon
##85
##oster
##▁strekk
##▁head
##▁gråt
##cle
##blikk
##▁komplekse
##cs
##gul
##▁sextreff
##ategori
##▁oppkjøp
##▁notat
##hvem
##▁oppmøte
##klass
##stedene
##▁løsningene
##▁våkne
##▁jødene
##▁eiendeler
##boy
##ni
##▁patri
##▁høyder
##▁kass
##▁instrument
##▁kommunikasjons
##▁knyttes
##▁opplegget
##fred
##▁cons
##▁publisering
##sdok
##▁foretar
##▁skjebne
##▁flybilletter
##▁spont
##▁forklart
##▁kles
##kass
##enning
##▁innebære
##▁rive
##kjenning
##ikert
##10.
##ures
##forslaget
##▁variasjoner
##▁utvil
##spot
##iltak
##▁tine
##▁pokker
##sand
##▁alminnelig
##▁enest
##▁ørret
##programmer
##▁forløp
##hull
##måling
##▁omega
##▁utfordrer
##▁fans
##▁formidler
##▁tommy
##▁stakkars
##veggen
##helt
##▁short
##ters
##▁pleide
##▁rettighetene
##vente
##▁hensynet
##omi
##▁cecil
##svirksomhet
##materiale
##ilen
##▁leon
##▁spin
##▁løypa
##▁orker
##▁(199
##▁marin
##▁elegant
##▁utforsk
##▁framtiden
##uke
##▁kulturen
##▁stjålet
##bruken
##▁amund
##▁fm
##▁peng
##▁vestre
##▁svangerskap
##▁bomull
##▁format
##resser
##ensere
##▁chris
##bere
##▁kyr
##versjonen
##yo
##▁etisk
##▁kronisk
##▁teknologiske
##▁sittet
##▁brønnøy
##bruddet
##▁oppfordret
##▁forbedringer
##▁folkene
##ktivet
##▁fastsettes
##album
##ology
##▁sårbare
##protokoll
##▁involverte
##100
##▁forårs
##coin
##▁heis
##▁glimt
##present
##ient
##▁natu
##▁nervøs
##▁integrasjon
##aman
##▁vietnam
##mang
##▁standarden
##▁arrangør
##▁institusjonene
##standard
##▁dumme
##▁penn
##▁tomme
##▁utskrift
##▁bly
##▁planet
##▁tekstene
##▁menigheten
##▁målsetting
##▁forårsake
##▁avgjøres
##▁brannen
##▁damp
##▁bondage
##krit
##▁topper
##▁opphør
##▁målinger
##▁(3)
##båter
##▁ettermiddagen
##▁fair
##▁angir
##▁fokusert
##▁utsatte
##usive
##▁services
##▁avslørt
##apet
##▁sykefravær
##edyre
##▁knull
##don
##▁bat
##trinn
##▁skilte
##▁dagsorden
##▁enestående
##▁ruten
##▁smiler
##▁ivaretar
##ods
##▁kondom
##spark
##▁tidene
##iører
##▁arkt
##▁forsikrings
##poster
##▁sanne
##▁inkluderende
##lette
##▁livskvalitet
##skompetanse
##▁wood
##▁komponenter
##▁hakk
##▁summer
##▁mannskap
##▁skinner
##finalen
##▁beregne
##ioner
##▁3-4
##ople
##▁bing
##▁music
##had
##▁hvitløk
##uc
##iret
##demokrat
##▁binde
##uerte
##▁svend
##▁bdsm
##▁potensielt
##win
##▁kopiere
##▁minutters
##▁redskap
##▁kompatib
##▁funksjonsevne
##ovens
##▁sprø
##stinget
##registeret
##dekk
##▁monster
##▁krydder
##▁forklarte
##▁separat
##▁studenten
##kandid
##▁(<<
##▁konsern
##▁kroppens
##▁ovennevnte
##▁søm
##▁lånet
##regionen
##▁innvirkning
##▁markere
##▁virksomhetens
##▁sammenhengende
##▁strekningen
##▁fiender
##▁redigere
##sløse
##▁fortellinger
##inten
##▁anbefalte
##▁national
##▁sara
##▁usikre
##▁filipp
##▁foregå
##▁vasker
##▁mosk
##▁magnet
##regnskapet
##ords
##▁flate
##slår
##▁revider
##▁gigant
##▁resterende
##▁68
##▁merknader
##▁vene
##mingen
##▁tilsendt
##▁seter
##▁fordelen
##▁jordbruks
##syre
##sbolig
##▁elleve
##nø
##kester
##▁egenskapene
##▁hitler
##▁klit
##linje
##▁referanser
##▁ellen
##varende
##▁forne
##skriver
##▁170
##▁dry
##▁temmelig
##▁69
##▁diagnosen
##svik
##▁hoff
##▁nettcasino
##iew
##▁representere
##▁kali
##▁oppå
##▁installer
##▁pynt
##▁wall
##fordeling
##ular
##▁ulv
##▁fortere
##▁slott
##▁semifin
##▁dvd
##▁sammensatt
##sutgifter
##vald
##sklubb
##▁um
##▁tettere
##▁støp
##kjærlighet
##sjø
##▁elve
##▁rapportere
##▁lita
##▁spenn
##▁katalog
##museet
##ologer
##▁klient
##▁bestillinger
##▁fortiden
##▁tiltrekke
##hvil
##▁rare
##sfest
##▁prefer
##bakk
##▁navnene
##bygde
##rogen
##▁øvelsen
##▁vgs
##▁ikea
##▁rosenborg
##sbehov
##piller
##▁forlov
##field
##▁matlag
##▁heidi
##▁sørlandet
##▁eiendommer
##▁landbruket
##▁gris
##▁skaffet
##▁1920
##▁løv
##sesong
##▁kryp
##▁hjemmesiden
##▁gifter
##▁formelt
##▁sjokker
##▁trenden
##reres
##▁lan
##▁77
##▁turneringen
##▁inge
##iklene
##retninger
##▁uforplikt
##▁enkeltpersoner
##uf
##▁rod
##▁kampanjer
##hem
##▁anbefaling
##▁elektris
##dtak
##▁trine
##▁telefonnummer
##ulin
##korea
##▁komfortabelt
##▁arbeidsmiljøl
##spesif
##▁rapporterer
##terings
##▁overnattings
##▁ork
##klikk
##▁oppsøke
##▁sfo
##▁kollektivt
##▁søl
##▁mary
##▁trivelig
##▁rumpa
##▁registreres
##naden
##▁katolske
##▁host
##valgte
##▁porsgrunn
##▁konflikten
##aktører
##asy
##▁forbruket
##▁midlertid
##▁mesterskap
##▁union
##følelsen
##▁commun
##▁rikelig
##▁summen
##▁inngangen
##bbel
##itasjon
##▁bøn
##ledde
##andres
##▁irrit
##▁senke
##▁enkleste
##▁flyttes
##▁bemanning
##æk
##▁rådmannens
##▁mast
##▁impul
##▁vester
##sukker
##posisjon
##skjermen
##▁sentralbyrå
##▁hørsel
##▁vedlagt
##▁installasjoner
##energi
##▁drapet
##spraksis
##▁seo
##▁nasjoner
##▁fleksibel
##▁tju
##▁trøst
##▁stevne
##▁skott
##▁omfattes
##▁porte
##stjernen
##▁sul
##▁figurer
##▁forbindelser
##▁karakterer
##▁oppgjøret
##▁sintef
##▁lederne
##sykdommer
##▁brent
##▁dominerende
##▁knust
##▁moderat
##▁legene
##▁pier
##ulær
##stemt
##▁musikere
##etaten
##▁silje
##▁debu
##forskjell
##▁kogn
##▁blått
##▁oljen
##▁kliniske
##▁tenkelige
##prø
##fyll
##redet
##fem
##▁plat
##▁henry
##ktorat
##grader
##kg
##48
##ssak
##▁isak
##▁foreslo
##jun
##lista
##▁vender
##▁søkemotor
##tit
##▁forvaltningen
##kolle
##▁smykker
##giene
##merter
##▁class
##▁lilles
##▁farget
##▁klippe
##▁utland
##▁mike
##▁charl
##▁tipping
##▁vurderte
##▁utvilsomt
##-16
##rådene
##alli
##▁utkast
##▁skulder
##▁brosj
##platt
##▁bankene
##▁samvær
##sspråk
##ansvaret
##▁møtedato
##▁dommeren
##▁garasje
##splikten
##▁forbrukerne
##steg
##▁støt
##▁besto
##▁anse
##artet
##▁sørover
##▁beboere
##▁sulten
##▁imellom
##regler
##▁høyttaler
##mf
##▁saksbehandler
##▁tjent
##sfulle
##srike
##▁utnyttet
##▁ruller
##▁fasiliteter
##▁spas
##▁2010,
##▁kropps
##▁avbry
##▁synliggjøre
##▁mask
##periode
##▁madrid
##skilte
##ku
##svin
##▁oppstått
##▁foregående
##▁dress
##▁vegas
##sporet
##▁rammene
##ril
##▁175
##▁pakistan
##▁medik
##▁sakkyndig
##regjer
##▁bevise
##umer
##▁zaland
##▁verdifull
##anti
##støtt
##kong
##▁krysser
##ferdigheter
##▁renn
##vester
##▁avslapp
##▁forbren
##▁fusjon
##radisjon
##▁what
##32
##sekk
##▁samfunnsøkonom
##▁stilig
##linjen
##▁reagere
##▁oppsto
##▁angeles
##mob
##▁para
##▁hval
##fron
##pop
##▁rekruttere
##▁kopier
##▁synspunkter
##▁bidragsy
##▁etterspørselen
##▁reduserte
##▁rengjøre
##point
##▁offshore
##▁kraftverk
##▁formelle
##▁database
##forbud
##ype
##▁night
##▁objekter
##itime
##▁pel
##aps
##▁utøve
##▁way
##▁strukturer
##læring
##work
##▁krone
##▁kundens
##vindu
##▁1970-
##▁ego
##▁gust
##▁camilla
##konvensjon
##▁sug
##edom
##▁drå
##istens
##▁unnl
##▁aldre
##▁novelle
##▁gevinster
##▁følgelig
##▁teorien
##..."
##▁valp
##▁daværende
##iserende
##▁gil
##▁rednings
##▁kjøleskapet
##▁glim
##▁alarm
##▁regelen
##▁overkant
##holmen
##▁realiteten
##sregler
##sbudsjett
##jeden
##skret
##institutt
##▁flørting
##▁servering
##▁snille
##▁50%
##▁ish
##▁tjue
##▁ordinært
##▁målgruppen
##▁hodep
##▁triks
##▁aksjesel
##▁egil
##▁rana
##oman
##▁forestillinger
##▁beskyl
##håndtering
##nytt
##▁føltes
##▁svekket
##iets
##▁storby
##▁american
##selskapene
##opplevelser
##oppgaven
##onny
##▁stue
##zo
##▁datat
##▁foreldr
##▁introdusert
##▁stien
##▁brenne
##▁tidenes
##▁lunde
##oget
##forholdet
##▁sigurd
##▁2018,
##▁pynte
##leverandør
##▁utbetalt
##▁ambulanse
##▁forventningene
##løy
##▁beskjeden
##▁statsråd
##▁pub
##▁kunnet
##ktøren
##▁løping
##andelen
##ross
##▁berørt
##▁skapes
##esi
##▁ringen
##hengere
##▁skadd
##▁tannlege
##lelse
##▁brødrene
##▁belysning
##▁scott
##▁tolke
##▁forventning
##attra
##▁omstendigheter
##▁ya
##▁nas
##oppgjøret
##disk
##lager
##▁skur
##▁week
##▁affære
##noe
##▁ort
##▁tell
##opplevelsen
##ugo
##▁179
##grunnlaget
##sbeg
##usalem
##▁body
##▁filme
##▁ambassad
##▁lastebil
##▁velkjente
##sev
##▁nettleseren
##ema
##▁kortene
##▁øyeblikkelig
##▁zalando
##▁linda
##▁oppmunt
##12.
##elekt
##▁hovedmål
##gate
##▁begått
##▁aksjene
##▁klikker
##▁bydelen
##▁deltid
##▁tilbudene
##▁alternativene
##▁72
##▁ic
##▁frigjør
##▁tenårings
##▁deltagelse
##▁beregnes
##▁invitasjon
##ssikkerhet
##▁humanit
##▁mellomtiden
##▁passerer
##esult
##museum
##▁damen
##▁kaj
##▁attraktivt
##ulerte
##▁abonnement
##▁clo
##▁blue
##▁mene
##byggingen
##▁dump
##sspørsmål
##elønn
##fk
##oma
##endes
##▁reform
##▁styremøte
##▁svangerskapet
##▁påmeld
##illene
##▁scand
##▁visstnok
##▁høyskole
##svilkår
##rent
##▁teoretisk
##yret
##åter
##sonen
##44
##▁måttet
##ng
##komp
##▁fortelling
##▁gjenopprette
##idet
##▁2019
##▁produktivitet
##øtene
##▁feilen
##tjeneste
##▁erfaringene
##▁problemstilling
##▁sjang
##▁arabiske
##▁valent
##▁tilpasning
##ærings
##▁aspekter
##▁studiepoeng
##▁nude
##olin
##▁mrs
##▁hevet
##▁østerrike
##yst
##▁mental
##kysten
##▁møteplasser
##▁trender
##reen
##tz
##▁framfor
##▁bedriftens
##▁nis
##▁antibi
##▁fjorden
##▁kilden
##▁1990
##▁røyke
##▁kuttet
##maker
##00.000
##▁sjen
##▁manif
##urering
##▁kloster
##▁kriteriene
##▁nominert
##lederen
##▁skå
##▁celler
##▁12,
##delinger
##▁sorte
##▁lukke
##▁speider
##søy
##trekk
##▁auto
##▁1980-
##▁påk
##terne
##▁luther
##▁spenningen
##▁hero
##▁oppnås
##▁vedtar
##▁ht
##ordfører
##handelen
##ønad
##▁avgjort
##▁umiddelbar
##sek
##smo
##▁midtøsten
##▁krysse
##forstyr
##▁bebygg
##engder
##gitte
##▁italiensk
##▁hverandres
##▁observer
##▁elementene
##▁must
##kalling
##▁karbo
##▁tilpass
##fokus
##▁uklart
##frid
##▁usyn
##▁krets
##leger
##▁kapp
##▁erg
##▁vekke
##▁johnn
##▁span
##▁overens
##▁beregninger
##lish
##skommun
##ingeniør
##▁leif
##gne
##▁modellene
##berget
##div
##▁kjelleren
##▁utarbeides
##stegn
##▁kyss
##▁veder
##▁ending
##▁forsto
##▁romantiske
##▁dann
##▁vakreste
##▁retninger
##▁imper
##76
##▁levanger
##▁salen
##▁porteføl
##ence
##▁rykket
##▁våp
##bein
##mad
##server
##kers
##▁veit
##▁stygg
##▁kraften
##▁kulturminner
##▁1994
##▁suver
##▁elektrisitet
##ortering
##▁energien
##▁edvard
##▁greske
##veiene
##fornøyd
##▁øvelsene
##▁feri
##kake
##▁skala
##▁rådhus
##udde
##midlene
##▁bruksom
##▁oslos
##▁bytter
##▁bonuser
##sforskning
##▁isolert
##vari
##attest
##rykks
##▁drikk
##▁normer
##▁analysen
##▁skriftlige
##▁videreutdanning
##prin
##▁ce
##sfjord
##▁kunstig
##▁ober
##▁sher
##▁katten
##▁sverd
##▁indiske
##▁leserne
##▁tilstander
##▁investorer
##▁universitets
##oney
##▁plagg
##▁robust
##seksjon
##▁berit
##▁bell
##▁rem
##▁utførte
##▁regioner
##vang
##▁sammenlign
##▁kontrast
##▁town
##ganger
##ues
##▁gresk
##▁funnene
##sveien
##avvik
##▁stresset
##▁irriterende
##well
##/10
##uld
##▁frå
##▁publisere
##krigen
##▁religiøs
##▁fuktig
##▁hare
##▁kjemi
##▁heder
##▁kveldens
##▁finansiere
##ela
##▁ss
##▁alternativt
##økonomi
##▁holmen
##▁fraktet
##▁territ
##▁fur
##▁nike
##▁fordøy
##▁ingrediens
##kil
##▁nåtid
##rapporter
##▁koden
##isitet
##▁geografisk
##svinger
##▁avslører
##▁underlag
##▁soph
##ikasjonen
##▁universet
##▁barnehagene
##ømmes
##▁steinar
##▁bombe
##▁blåser
##▁figuren
##▁magne
##▁spektak
##▁idretten
##▁årsverk
##▁samfunnets
##▁grø
##stemann
##▁dor
##▁avdøde
##▁hjelpen
##▁robin
##▁stenge
##ården
##▁netter
##▁lit
##▁modul
##▁presentasjonen
##▁techn
##▁understreke
##mør
##handle
##▁uventet
##▁tes
##▁nakken
##▁nettavisen
##egang
##▁helgeland
##plu
##atere
##▁dol
##▁planlegges
##sbok
##▁svakere
##ndet
##▁korrupsjon
##▁kjønnsleppene
##▁gledet
##▁bond
##▁søkeren
##▁europ
##▁røros
##▁sykepleiere
##▁ambisi
##unden
##▁meet
##agelse
##▁forsøks
##▁hovedperson
##▁produksjons
##▁beslag
##▁iblant
##irer
##▁argent
##▁helseforetakene
##▁oh
##▁praks
##▁ml
##▁opposisjon
##▁rekkevidde
##dding
##barne
##skikk
##',
##▁vat
##▁innser
##▁drøfte
##team
##▁antrekk
##▁forbrukslån
##grønne
##▁kriminal
##▁komprom
##▁profesjonelt
##sutøvere
##▁sekretær
##▁forholder
##▁intelle
##ytta
##▁afp
##drivende
##▁kjennes
##▁frister
##▁gror
##▁tilstedeværelse
##minne
##▁touch
##▁elbil
##▁tvinge
##▁gol
##helm
##umper
##▁kys
##▁("
##noen
##ei
##▁ledes
##lønn
##▁forsikre
##▁milliard
##▁obama
##▁smøre
##;)
##▁feber
##jar
##▁respektive
##▁63
##▁pedagogiske
##arbeiderne
##▁kompensasjon
##▁prioritet
##keren
##▁konsentrere
##▁ax
##▁løgn
##gel
##▁vers
##▁wild
##▁astrid
##▁brygge
##▁anstr
##veiledning
##▁stanset
##▁pinne
##▁access
##ror
##▁temperaturer
##▁num
##▁finansiert
##▁pussy
##brukt
##▁2006.
##▁bero
##medlemmer
##▁grunnlov
##▁infeksjoner
##gard
##tiltak
##næringen
##▁miljøm
##▁innstilt
##rust
##▁178
##▁idiot
##▁tjenestet
##▁forsvarets
##resultater
##▁yrkesfag
##spørsmål
##▁skifter
##▁fantasi
##▁fjellene
##▁solo
##▁kontorer
##statistikk
##▁ungdommen
##▁40-
##▁ultim
##▁tastatur
##▁doktor
##▁forbeholder
##▁kalk
##aas
##▁avholdes
##meg
##▁dose
##rich
##▁arkiver
##▁etterforskning
##sfar
##▁utsen
##▁tolkning
##▁fjordane
##uering
##▁søndre
##▁arbeidsmarkedet
##▁avgår
##▁flaks
##▁istedet
##▁teppe
##▁overtatt
##!>>
##▁tha
##▁lokall
##▁mønstre
##leverandører
##fry
##▁varsle
##▁dje
##▁motivasjonen
##▁historiene
##▁hul
##▁gale
##▁eple
##▁pettersen
##▁basket
##▁kobber
##▁motivere
##▁term
##▁manus
##▁dil
##sfond
##▁utfordret
##opplysninger
##sbil
##▁micro
##▁optimalt
##lates
##▁pose
##▁skadelig
##▁landsmøtet
##▁svakt
##▁utskift
##rover
##▁låse
##▁gransk
##umet
##slok
##▁160
##▁proff
##▁dokumentar
##▁oppbevares
##oksid
##▁omtales
##▁care
##▁linjen
##▁lokalene
##▁forsvunnet
##▁blow
##▁treningsøkt
##støt
##▁ensom
##vokst
##▁hotellets
##▁digitalisering
##elaget
##▁skitt
##▁verdifulle
##▁2009,
##▁innlagt
##▁forfatterne
##▁agoda
##▁konkurs
##fys
##▁cost
##><
##▁tilsku
##▁severdigheter
##▁moh
##▁påse
##▁kvaliteter
##▁overlever
##▁page
##:.
##kasse
##▁berør
##▁people
##▁høgskole
##info
##apos
##▁brid
##▁røre
##▁tyver
##▁sønner
##▁klitoris
##▁cafe
##▁overst
##jå
##▁postboks
##▁ått
##driver
##forholdene
##▁garanterer
##▁fremgangsmå
##▁filen
##▁ot
##celle
##▁bygnings
##▁kollegaer
##▁landsbyen
##▁rist
##▁arsen
##univers
##▁uendelig
##▁trakassering
##vakten
##▁breiv
##▁heim
##▁kring
##▁sykling
##▁våken
##egne
##smetoder
##host
##▁mount
##▁helser
##▁nedlasting
##▁uttaler
##▁1993
##▁inngående
##▁suge
##▁poteter
##▁kombinerer
##▁case
##▁definerer
##/11
##▁luke
##▁ey
##▁taxi
##▁kontrakter
##landing
##▁fylker
##også
##▁leseren
##▁oppførte
##▁balansen
##▁arealer
##▁frykten
##▁88
##▁erling
##▁bokstavelig
##▁tilbrakte
##▁forandrer
##▁oppfordres
##haver
##▁scenar
##▁oppretter
##kta
##ndal
##▁johnny
##▁fargerike
##▁prioriteringer
##spersoner
##▁tilfredshet
##▁opptreden
##finansiering
##▁midlertidige
##sdalen
##▁ivrige
##felles
##▁musklene
##fint
##kall
##▁skaden
##▁oppvask
##▁produsenten
##▁01.
##▁greide
##▁valgene
##▁vasket
##▁frivillighet
##▁fon
##prisene
##▁robot
##▁autent
##▁innlogg
##▁manuelt
##▁essensi
##▁avstanden
##fat
##▁lyktes
##stuen
##▁hauge
##▁påvirkes
##yper
##▁måneders
##utvikler
##▁overvåke
##▁kjæ
##▁forbudet
##▁fradrag
##jobb
##▁spru
##▁panikk
##elys
##▁dalen
##setaten
##▁orientert
##ombud
##▁dramatiske
##▁gater
##▁rykte
##▁kasser
##vev
##▁young
##▁vandre
##htt
##▁brude
##▁prostitusjon
##▁svim
##rine
##▁beat
##graden
##produsenter
##andra
##øvelser
##førere
##▁fysikk
##mennene
##▁iverksette
##plater
##▁mva
##▁fabrikken
##gje
##sentre
##kassen
##▁uønsket
##▁implementering
##▁helseforetak
##▁hardere
##krist
##amling
##ømmelse
##strekning
##▁fleksible
##▁betraktelig
##▁lee
##▁profet
##lament
##▁sofie
##▁disc
##▁bokstaver
##▁pir
##▁parallelt
##▁found
##▁varmere
##▁mønsteret
##▁presisjon
##▁tårer
##modeller
##▁jerusalem
##aa
##▁våkner
##bedrifter
##teknikk
##frp
##smøter
##▁hilse
##▁midnatt
##▁latterlig
##▁tilhenger
##▁anmeldelse
##veig
##ærene
##krets
##▁skytter
##styrt
##▁stilen
##▁borgere
##▁oppfinn
##▁sirkul
##▁terapi
##▁treffes
##acks
##▁kjennetegn
##▁symboler
##▁godkjenne
##▁etnisk
##amerik
##▁berge
##▁medium
##▁rud
##▁kjapp
##▁prostat
##▁nedlagt
##▁email
##▁tilfeldige
##▁uforpliktende
##▁south
##aliserte
##▁begrunnet
##▁ikk
##ortert
##▁avgårde
##klæringen
##▁desverre
##▁søtt
##▁isoler
##▁julaften
##▁allierte
##▁myster
##▁brutto
##fler
##straff
##larer
##▁opprettholdes
##▁støre
##▁vedta
##▁louis
##▁karbohyd
##▁applikasjoner
##▁berører
##derne
##▁renner
##▁stipend
##jens
##▁sovjetun
##▁lor
##▁nan
##▁fristende
##▁2005.
##egård
##settet
##ulette
##owe
##▁dater
##▁deltagerne
##vogn
##▁zoo
##masse
##▁veiv
##▁snor
##▁skylder
##▁parkerings
##▁chelse
##sformer
##▁plaget
##▁ios
##parker
##▁julie
##▁diagnost
##▁900
##▁demonstrasjon
##▁kidn
##▁women
##▁direktoratet
##▁beholdt
##▁protester
##▁løn
##glass
##▁munch
##▁110
##agno
##▁raser
##▁contin
##▁generalsekretær
##▁kjolen
##ift
##jenta
##nest
##▁prøvet
##▁hentes
##sjen
##formidling
##▁wo
##aret
##▁astr
##▁irland
##▁jacobsen
##▁statsråden
##▁nøyt
##▁impro
##▁trim
##▁dyret
##▁varet
##▁vekker
##bai
##▁følt
##▁hege
##▁knud
##▁tilvær
##▁skandinavia
##▁flo
##▁pik
##▁kongens
##09.
##▁farvel
##▁gående
##avfall
##▁storebr
##▁funksjonshem
##▁helsetil
##▁skjem
##prise
##begrens
##:-)
##▁jean
##hode
##stykke
##▁meldes
##▁østre
##▁oppføre
##▁konstit
##sbyg
##stilskudd
##▁now
##▁hann
##▁adferd
##▁punktene
##▁håpl
##spolitikken
##stift
##valgt
##▁spesifikk
##▁aspekt
##fondet
##▁prinsippene
##tor
##entrepren
##▁hårete
##▁61
##optim
##register
##▁vedtas
##derom
##overføring
##▁lokalisert
##▁posisjonen
##▁maraton
##▁vink
##mønster
##▁blader
##aminer
##▁lanserte
##typer
##▁kritikken
##▁opplyste
##▁smile
##opplegg
##vegg
##▁casual
##▁grovt
##zeg
##▁ordner
##▁176
##▁tennis
##▁borettslag
##▁behovene
##▁forståelsen
##okt
##båten
##egenskaper
##oni
##▁rutine
##▁advarsel
##▁nekte
##▁kunstnerisk
##▁demokratiske
##▁haw
##▁later
##▁lier
##▁svinger
##▁forestille
##▁kub
##▁hukomm
##▁utholdenhet
##▁leiren
##▁kjernen
##▁mektige
##▁stere
##analyser
##fallende
##▁helsevern
##▁eksklusivt
##▁innbet
##▁snudde
##▁begiven
##▁mich
##▁78
##glem
##ested
##▁baren
##▁hverdags
##▁fastsette
##,>>
##▁mp
##▁uri
##▁trønder
##▁halvorsen
##▁motstander
##revne
##▁yrker
##▁henvisning
##▁campus
##▁charlie
##forest
##▁angre
##givelse
##▁advarer
##▁trekant
##▁julem
##▁kongsvinger
##spre
##eliste
##▁gunder
##▁skeptisk
##▁gjengjeld
##sår
##ll
##▁egenskap
##▁egenhånd
##▁charles
##ads
##▁anskaffelse
##▁skulpt
##▁arbeidere
##urene
##▁menneskets
##...?
##sons
##enti
##▁slim
##▁vibrator
##inor
##motor
##desig
##▁steve
##sfe
##▁mild
##▁pun
##▁ultralyd
##▁texas
##levelse
##alin
##▁endrings
##norges
##forståelse
##▁multi
##▁az
##atoriske
##▁anvendes
##▁hypo
##▁forsvarer
##sministeren
##▁intelligens
##▁cit
##▁tildeles
##▁sammensetning
##ero
##▁klagen
##▁giv
##format
##▁skyldig
##▁studerer
##▁underliggende
##rin
##ydende
##▁0,5
##glede
##▁mater
##▁utrolige
##mennesker
##filer
##▁halvveis
##▁konstrukt
##▁avviser
##▁ox
##install
##resultat
##▁indisk
##▁eksponering
##▁middelalder
##otik
##▁room
##▁francis
##▁grimstad
##▁uønskede
##sholder
##▁kvalifisering
##▁sikres
##▁ash
##▁runden
##▁gledelig
##▁vii
##▁gårde
##åringer
##▁magasinet
##▁doping
##verksted
##▁lake
##▁jenny
##▁lavest
##▁oversk
##▁regissør
##▁gjentar
##hur
##▁blodtrykk
##▁velkomst
##ommer
##▁påstander
##geir
##▁here
##▁anker
##▁brått
##▁satset
##▁fordeles
##▁ivaretas
##▁sjøs
##kjøringen
##▁bredbånd
##▁godtgjørelse
##▁140
##▁silikon
##▁1992
##▁undersøkelsene
##▁cross
##/12
##kirken
##▁ullev
##▁arenaer
##åg
##▁magisk
##arealer
##▁bøndene
##▁turne
##▁kommisjonen
##reff
##31
##▁hanna
##▁bygningsloven
##▁forhandlere
##orientert
##gass
##▁spra
##▁utarbeidelse
##▁idrettslaget
##▁innstillingen
##▁virksomhetene
##▁bert
##utgaven
##▁romantikk
##▁videreføre
##▁legend
##▁dommere
##▁did
##▁laser
##▁smått
##oppnå
##▁potensiale
##▁regjerings
##odd
##▁finansk
##▁intensitet
##▁suger
##▁130
##politisk
##▁morges
##▁ansattes
##aktiver
##inntekter
##skapasitet
##▁landslaget
##▁godta
##bling
##▁stygge
##▁opph
##▁manns
##▁abra
##▁merverdiavgift
##▁distribu
##regulering
##▁voldsomt
##setet
##▁valpene
##▁drink
##▁ovnen
##▁gidder
##konferanse
##forsyning
##▁utviklings
##▁kjemikalier
##▁compan
##▁lojalitet
##▁musikalske
##staten
##▁tyngde
##elv
##▁grunnloven
##▁hals
##▁monica
##▁pusten
##gor
##ulerende
##▁underholdende
##▁gangene
##▁inder
##▁hjort
##ern
##rib
##ruten
##▁korresp
##▁uio
##▁76
##▁såpe
##maskinen
##▁billigste
##ritet
##▁emma
##▁feirer
##▁konsult
##▁spinn
##ssøk
##▁skummelt
##▁arkivdel
##▁frost
##▁betjene
##bid
##aliseres
##▁bestefar
##▁motivert
##▁sykkelt
##▁98
##▁geni
##▁våte
##kommet
##▁kanter
##agne
##▁bekost
##▁photos
##relaterte
##▁omvendt
##▁ukens
##▁forestilling
##nemnda
##▁ullevål
##virksomheten
##espill
##fan
##shaver
##arkite
##▁biskop
##▁uttrykker
##▁torbjørn
##rete
##▁slottet
##▁regulere
##▁kler
##▁patent
##▁episoder
##▁dec
##▁smug
##▁dusjen
##▁tenkning
##rt
##▁kvele
##▁husene
##▁74
##▁påført
##sgod
##▁høne
##seter
##gebyr
##▁prestis
##▁intellekt
##din
##▁innså
##sbilde
##▁middagen
##▁hook
##▁trafik
##▁11,
##▁løsl
##▁pasientens
##amfunn
##▁betraktning
##▁verdiskaping
##▁utformingen
##afor
##ivet
##▁stolen
##elev
##▁enhetene
##alingen
##▁fagforbundet
##▁strategien
##seminar
##▁utøverne
##vedt
##▁intu
##▁movies
##▁søknads
##▁350
##▁høf
##▁vell
##▁kosmet
##▁magiske
##sfakt
##type
##▁danser
##▁såå
##▁snow
##▁jury
##▁eksemplarer
##▁utbyggingen
##▁partnerskap
##▁fager
##konferansen
##▁fagene
##▁identifisert
##▁misbruk
##▁paragra
##ily
##▁tilsk
##▁innsen
##▁stjele
##▁risikere
##▁gabri
##▁løren
##▁selvstendige
##dags
##▁2008,
##▁award
##▁rull
##handlere
##▁programvaren
##▁grunnene
##▁prepar
##magas
##▁beboerne
##▁colom
##▁helikopter
##▁skjørt
##sklasse
##bror
##endet
##bekk
##▁igår
##▁filmet
##▁konfig
##▁(10
##▁niger
##▁bølger
##▁etableringen
##▁kf
##jentene
##▁forårsaker
##")
##ism
##▁bevist
##gget
##▁gjøremål
##▁bryllupet
##▁leier
##krem
##innsats
##▁dogg
##▁ufør
##▁evolusjon
##bk
##▁transaksjoner
##ulykker
##▁sams
##▁skyn
##aliseringen
##▁frustrasjon
##ritt
##row
##▁avslappet
##▁blei
##oe
##▁spion
##▁oppmun
##▁pensjonist
##▁moskva
##alens
##radere
##hage
##▁kjøpesenter
##▁prot
##▁09.
##▁bent
##▁(7
##▁iht
##oppgavene
##▁stranda
##▁mum
##politiske
##ikat
##3-
##▁sponsor
##▁hallo
##▁kledd
##amper
##▁føder
##▁familiens
##▁forsterket
##▁bredden
##▁mut
##plant
##skonfer
##▁bystyret
##▁dimensjoner
##via
##▁kvit
##inntekt
##psyk
##▁gjemme
##▁tilsatt
##▁psykologi
##aster
##▁påtale
##vanlige
##kro
##sføre
##▁brødre
##▁lønnsomhet
##snett
##▁israels
##resultatet
##▁potensialet
##arab
##▁ørene
##▁fremt
##▁valut
##rettede
##alsk
##▁trøbbel
##▁spå
##▁skips
##▁portugal
##▁forankring
##▁utvides
##sol
##tids
##▁matr
##siktige
##▁slettes
##▁uavhengighet
##▁økologiske
##▁ål
##etta
##▁ove
##▁hammerfest
##▁nick
##drevet
##dokument
##▁iverksatt
##▁frekvens
##▁prioritering
##▁1960-
##▁ytelser
##▁mangelen
##ible
##feste
##runnlag
##▁skisk
##▁behold
##unne
##▁prøvene
##iket
##▁arbeidstilsynet
##▁bankk
##produkt
##▁sparket
##▁krok
##▁paradise
##▁barnes
##▁nsb
##ødig
##▁utred
##▁soverommet
##▁minister
##▁erfarings
##▁used
##▁strengere
##hai
##▁balansert
##▁tatover
##sforening
##idige
##skunnskap
##▁fell
##▁fatte
##▁sysselsetting
##▁røk
##▁win
##▁skjenke
##brutt
##stykket
##▁mosjon
##rob
##▁mature
##▁chelsea
##▁ytterste
##▁3,5
##▁bevart
##cal
##jekk
##▁disponer
##▁vibrasjon
##nasjon
##▁setninger
##olester
##▁måles
##▁begrunnelsen
##▁hodepine
##▁omdømme
##▁nynorsk
##ballasje
##sjefen
##student
##▁nakke
##sfly
##▁habil
##▁ub
##▁1991
##▁frisør
##▁reder
##▁innledet
##▁prosedyre
##innvand
##see
##▁administrere
##▁gluten
##▁supert
##kede
##shjelp
##▁silke
##ify
##▁conne
##▁slakt
##ref
##sekken
##måte
##▁energik
##kvaliteten
##▁ørken
##▁byggingen
##▁møteprotokoll
##▁karrieren
##▁vedlikeholde
##46
##kok
##▁planleggingen
##fis
##▁brown
##▁straffer
##▁gavekort
##▁mach
##▁innleggene
##▁utslippene
##▁reguleringsplan
##aya
##listene
##▁hustru
##▁mort
##▁batteriet
##akerne
##▁utfall
##tjenesten
##▁reisemål
##▁innledende
##kol
##▁ungdomsskolen
##▁next
##▁operasjons
##▁nøytral
##▁anslag
##▁riket
##▁skjell
##▁subst
##roll
##▁venninner
##tips
##▁teorier
##▁ulemper
##▁water
##▁mord
##sdyr
##▁opprettes
##▁marte
##sskatt
##skriving
##▁tilskuddet
##bjør
##▁regulerer
##▁tenkes
##postadresse
##▁lovende
##sprins
##▁absor
##▁gjett
##▁hod
##belast
##▁arkitekter
##▁nesen
##▁atmosfæren
##▁menneskers
##▁vogn
##▁vansker
##▁masser
##▁påpeke
##uttal
##▁greia
##▁cash
##▁galleri
##▁96
##▁;-)
##▁kanon
##takelse
##▁navigasjon
##▁nud
##▁konkurrenter
##▁esp
##▁work
##▁popularitet
##lyn
##▁hevn
##ssiden
##▁sitron
##▁ride
##▁prosjektets
##etninger
##▁sunnere
##▁casinoet
##skilde
##▁utest
##▁beher
##▁sertifisert
##▁86
##▁folkens
##▁problematisk
##▁kommunalt
##forløp
##▁fars
##zi
##▁variant
##▁gult
##▁uber
##▁sørlige
##▁volvo
##▁meters
##pton
##▁cann
##▁montere
##▁forståelig
##▁jakke
##▁måltider
##øyen
##søster
##▁enke
##▁bestod
##▁paulus
##▁hendelsene
##mesterskapet
##▁kvalifikasjoner
##sw
##▁quest
##▁seremon
##▁overvåkning
##▁behandlings
##▁skoleåret
##▁middelalderen
##▁ragnhild
##▁innlandet
##allefall
##▁usikkert
##ume
##how
##kerne
##advokat
##▁kjøretøyet
##▁småbarn
##▁kanalen
##▁geografiske
##▁spon
##▁fastlege
##▁forvalter
##/5
##anner
##▁kryssord
##mbånd
##▁ukes
##▁forver
##▁studert
##rol
##trol
##▁realfag
##▁dron
##▁konkluderer
##atia
##▁panel
##▁vanvitt
##▁mindreårige
##▁elast
##foreninger
##▁stasjoner
##elsk
##▁lur
##▁båtene
##▁vegetar
##▁masker
##▁rikt
##▁redegjørelse
##evin
##shel
##reist
##iling
##cent
##▁stream
##verdighet
##▁desperat
##▁opparbeidet
##▁krab
##gger
##innholdet
##▁hjertelig
##bygning
##lighetene
##betingelser
##alth
##▁bevegelsen
##▁bente
##▁sårbar
##▁oppfølger
##▁bren
##▁offisiell
##vend
##imeter
##rolle
##varene
##▁bekjente
##sordninger
##sprodukter
##shop
##▁kommunenes
##▁omtalte
##farger
##tro
##omsorg
##▁vegen
##hoved
##▁gjennomslag
##▁brukervennlig
##▁indu
##▁find
##stoler
##▁kjøpere
##▁næringsdrivende
##▁betegnelsen
##juster
##▁marer
##▁setning
##ielt
##aliserer
##ekl
##▁satsingen
##▁lokalsamfunn
##blr
##▁befant
##kamper
##▁faser
##▁hjelpemiddel
##▁fritids
##▁bål
##elli
##▁brus
##▁uenig
##▁lastes
##▁spark
##▁search
##?!
##▁ustabil
##▁eksamens
##▁ettert
##▁angripe
##▁røm
##▁deb
##atorene
##▁plater
##▁kate
##▁hylle
##▁omsider
##▁husket
##▁nordvest
##▁sokkel
##▁sis
##▁helle
##ulasjon
##▁konger
##▁gjennombrudd
##▁innad
##▁wester
##▁jørg
##▁olavs
##▁henning
##▁forankret
##bill
##aldrende
##▁helsetjenester
##▁forfly
##spektiver
##visst
##▁sizeg
##▁rammes
##▁etik
##▁rimelige
##bunnen
##▁ordninger
##1-
##▁spring
##▁mors
##▁brakt
##▁læringsmiljø
##aturen
##▁honning
##skart
##▁mira
##▁oppussing
##▁høstens
##▁drakk
##▁ansette
##▁oppgradere
##▁bmw
##▁flitt
##regning
##▁verv
##strakt
##▁foredragsholder
##▁kick
##▁avklart
##▁cow
##▁leds
##▁førerkort
##▁låtene
##▁nummeret
##▁lånt
##orget
##▁innsjø
##▁science
##▁1900-
##▁soldatene
##▁therese
##cd
##publi
##▁nordlige
##▁virgin
##▁forplikter
##sang
##▁abraham
##▁utlån
##▁låst
##▁prix
##farlig
##hastighet
##ommun
##ello
##▁....
##▁stan
##▁hånda
##▁oljer
##ssituasjonen
##▁lem
##▁oste
##▁særegen
##▁utbetales
##▁bygningene
##allfall
##onto
##oppd
##ovasjon
##▁spesialister
##▁innlem
##savtale
##▁pics
##▁beskytt
##srud
##▁lagrer
##▁stabile
##representant
##▁skuldrene
##▁snarest
##▁nettstedene
##▁skarpe
##setnings
##▁rettslig
##shånd
##velden
##basseng
##▁kontrover
##▁truer
##▁ekstraordinært
##▁nordøst
##vår
##▁06
##▁avklare
##▁advokater
##▁prinsesse
##▁und
##▁gods
##▁årevis
##aff
##▁sho
##▁påminn
##▁seni
##vekkende
##shistorie
##▁topps
##hoo
##▁kjøperen
##▁lilla
##▁tumblr
##▁lau
##▁fagområder
##▁bitcoin
##▁slitasje
##▁veteran
##grønn
##▁forbli
##plast
##▁blon
##▁plattformen
##▁salat
##▁internkontroll
##rådets
##▁gråte
##▁need
##▁isk
##▁servit
##▁vegard
##▁rv
##▁medførte
##smyndighet
##▁07
##ista
##▁videreutvikling
##▁ef
##▁eivind
##▁skriving
##▁foreslåtte
##▁konklusjoner
##sommer
##▁stikkord
##▁kjøleskap
##▁kongelige
##▁oljef
##▁stemmene
##▁klinikk
##▁steinkjer
##▁revisjonen
##ledelsen
##▁eksternt
##▁belgia
##▁inngikk
##▁ukrainske
##▁demokratisk
##▁adel
##▁hallen
##▁see
##▁sammenlagt
##▁sizegenet
##▁(8
##▁prosedyr
##avstand
##-17
##06.
##ingent
##▁veide
##▁sped
##▁mt
##▁traum
##ydelig
##▁reality
##▁defineres
##▁zealand
##bevil
##▁retro
##▁etasjer
##▁sørland
##▁**
##▁skjold
##osisjonen
##▁plassene
##righet
##▁tydeligere
##▁avd
##▁sigar
##▁alminnelige
##▁anita
##▁godtar
##pdf
##▁aqu
##etisk
##foretak
##▁cecilie
##▁mannskapet
##▁vara
##slø
##▁audi
##▁bloggere
##▁hovedregel
##pleier
##▁assosi
##▁iallefall
##sikker
##▁fortellingen
##▁fremkommer
##▁sf
##møre
##skatt
##▁premiere
##▁utm
##string
##▁levekår
##▁tantrisk
##▁his
##▁period
##mesteren
##▁beslutningen
##operasjon
##▁vipp
##ovn
##▁trig
##bie
##klima
##▁wordpress
##årer
##historien
##▁uhell
##▁møterom
##▁sammenliknet
##▁instruksjoner
##▁97
##▁mineral
##evne
##prat
##▁innhentet
##▁shar
##okkene
##▁restrik
##03.
##card
##▁glans
##bir
##▁stir
##ilbudet
##▁formell
##▁krog
##▁domstolen
##▁dyrke
##▁key
##nering
##▁royal
##▁13,
##▁offentlighet
##▁lakk
##ific
##kop
##beløp
##▁hjemmesider
##ifisere
##▁frogner
##kanskje
##▁premisser
##hvit
##utten
##▁signifik
##▁engasjerer
##▁bassenget
##▁gaven
##dekkende
##▁minuttene
##tøy
##▁nøytra
##▁syvende
##▁klippet
##ktighet
##ups
##▁vinnere
##gamle
##▁elin
##▁innredning
##▁rar
##▁punktum
##bol
##▁forutsettes
##▁debatter
##▁huse
##sprisen
##▁lønne
##▁kjoler
##▁dynamisk
##▁naboen
##▁caroline
##▁entusia
##▁10-
##▁utad
##▁enter
##▁karin
##▁passert
##▁bekostning
##skor
##▁besvar
##ssykehuset
##▁hengt
##▁booking
##▁most
##▁kunstneriske
##▁forme
##brygg
##▁godkjenner
##uters
##sproblem
##sjub
##▁bedring
##▁fornøyelse
##▁iallfall
##fit
##▁staf
##høgskole
##▁kvitte
##▁flyktet
##▁publish
##▁soldat
##ammer
##▁mete
##▁sjåføren
##▁innføres
##▁bård
##konser
##innes
##▁hardcore
##▁prøves
##▁lesbian
##▁matlaging
##▁sprang
##▁toppidrett
##▁sizegenetics
##▁ytterst
##økning
##▁forstås
##▁klimap
##▁sot
##▁graver
##▁retor
##▁påsken
##cupen
##snr
##▁sr
##▁bbc
##▁patt
##▁rocke
##alternativ
##▁prioriteres
##▁grafisk
##stue
##▁hjemmebane
##spillene
##▁frøken
##yke
##▁leks
##▁hydrogen
##▁politiker
##planlegging
##▁jent
##▁overtar
##▁nerve
##▁horten
##▁studerte
##▁visuelle
##▁komfortable
##▁dåp
##▁stykket
##px
##hever
##snavn
##▁foll
##▁amazon
##opplæringen
##master
##▁løken
##uan
##topp
##▁elv
##sone
##▁eit
##▁lob
##▁vinkel
##sør
##▁demens
##▁baller
##▁årsber
##▁møbel
##medvirkning
##▁mesterskapet
##▁stupe
##▁reparere
##pose
##grunner
##tenkt
##▁håvard
##▁mangfoldet
##▁tortur
##▁sensor
##▁russe
##▁heftig
##▁smittet
##▁kamerat
##▁fritak
##▁hjørner
##▁selveste
##ious
##▁pund
##▁bn
##▁gad
##▁samfunnsfag
##▁tidvis
##▁3)
##▁tent
##▁flyselskaper
##▁bernt
##▁tilhengere
##boende
##▁forbrukeren
##▁ukers
##▁fiskeri
##▁pp
##ae
##▁hybrid
##▁styremedlemmer
##ianske
##▁venez
##▁justert
##voks
##▁slaver
##▁erstatter
##sløpet
##tender
##▁gjenspeiler
##iset
##mars
##▁amatører
##▁destinasjoner
##▁ray
##ningsvis
##bakke
##ordre
##ulykke
##treng
##cil
##▁understreket
##▁lisa
##▁oppstod
##▁statsministeren
##▁oppgav
##adiske
##▁cougar
##▁videreføres
##▁arbeidene
##▁resepsjonen
##▁militært
##stidspunktet
##ui
##liker
##▁jordan
##▁testam
##dagens
##▁sørvest
##▁blogging
##▁organisasjons
##▁sprint
##skjør
##▁plantene
##hum
##▁rt
##▁skygge
##▁åh
##▁nasjonalpark
##▁bråk
##49
##▁ln
##▁registrerings
##▁lagmannsretten
##sbel
##▁doktorgrad
##▁oppslutning
##▁skål
##▁hospital
##▁kjede
##▁friend
##▁bått
##▁travelt
##heving
##▁belyse
##spilleren
##▁tilkob
##hm
##▁sea
##alingene
##ombudet
##▁nytelse
##▁reserve
##▁anke
##sbransjen
##▁garden
##▁rykter
##▁forslagene
##▁mht
##▁trase
##flaten
##▁2007,
##▁tilkobling
##▁expl
##givningen
##▁1700-
##▁singles
##▁integritet
##▁suppler
##redd
##gyl
##▁håndterer
##ologen
##▁hager
##▁autoritet
##▁rådgivere
##air
##him
##jøtt
##▁skadene
##▁asb
##▁roser
##▁sykehusene
##▁fylkene
##▁angriper
##▁protokollen
##botn
##▁saudi
##▁bratte
##kastet
##ittene
##▁blues
##▁bølge
##▁referer
##▁avreise
##▁08.
##▁motorsykkel
##▁prioriterte
##icks
##▁formue
##▁samlingene
##temp
##▁lokket
##▁wen
##▁passere
##kapasitet
##▁progress
##alie
##▁duft
##bab
##ølen
##▁chi
##▁ingeborg
##ivenhet
##▁utsagn
##▁ferdighet
##wik
##▁roe
##▁syndrom
##▁avisene
##grunnen
##▁prater
##▁snakkes
##▁diskuterer
##▁grepet
##▁torsk
##▁rullestol
##▁pedagogikk
##▁laster
##▁sesonger
##▁forsterke
##▁møteinn
##ising
##fylte
##▁bremse
##▁broder
##▁dyrket
##▁majoritet
##▁kompliserte
##studiet
##▁svakheter
##smot
##event
##▁tingen
##▁passiv
##▁produsentene
##risiko
##▁grønland
##lade
##▁2-1
##▁vip
##▁landsmøte
##▁då
##▁tove
##▁turnering
##▁visa
##meldingene
##sløst
##▁nybygg
##nis
##objekt
##▁cover
##bt
##▁know
##stimer
##▁inkludering
##▁ross
##▁utnytter
##▁1989
##▁maren
##▁tredjed
##ruset
##▁steph
##▁presis
##sver
##turen
##▁blokk
##.).
##▁oppriktig
##fatt
##▁nl
##jorden
##▁linjene
##▁glasset
##▁forekomst
##▁tabletter
##▁chicago
##fronten
##▁sortering
##▁(4)
##▁otto
##lamentet
##▁angivelig
##isont
##▁grått
##▁metodene
##▁blogginnlegg
##▁renten
##▁ektemann
##▁sammenslåing
##▁pileg
##redende
##▁01
##strømmen
##▁videoklipp
##anking
##▁bistår
##▁etappe
##▁ist
##▁sole
##▁sekken
##▁utfyllende
##kraften
##unger
##erings
##▁vekket
##▁177
##▁nitt
##hotell
##akka
##▁skype
##▁barent
##▁femti
##▁solbr
##fro
##▁gjenbruk
##▁innsatte
##▁forekomme
##▁annonsert
##▁capp
##▁forbereder
##▁semin
##▁teknikken
##myndighetene
##▁feiring
##▁vinduene
##▁2004.
##▁2019.
##yren
##▁moe
##▁rønt
##▁formet
##▁turistattra
##hre
##▁utp
##▁utdelt
##▁anskaffelser
##▁73
##styrken
##▁spred
##▁seminaret
##>>)
##▁kapasiteten
##▁sha
##studie
##ransport
##▁fv
##stoffet
##▁tilfredsstiller
##aldo
##▁cer
##▁orienterte
##curit
##▁oppnevnt
##▁balt
##▁sjelen
##▁stipen
##iring
##▁redaksjonen
##▁kroatia
##▁bestemmelse
##▁behandlinger
##▁helsetjenesten
##▁bryne
##trykket
##▁pt
##▁kirurgi
##selva
##▁erotic
##pnet
##uble
##▁offiser
##▁tilleggs
##▁alderspensjon
##▁blinde
##▁batterier
##▁oppfordre
##▁1900
##▁steke
##▁knullet
##▁diett
##▁alpin
##▁blodsukker
##▁kristiania
##▁sanksjoner
##▁hk
##handlingen
##▁country
##administrasjonen
##russ
##▁abc
##ury
##øytn
##angiv
##▁kulde
##▁energis
##▁åpenbare
##▁privatpersoner
##▁tilslutt
##▁konferanser
##▁puls
##▁troverdig
##▁eksperiment
##olley
##lic
##pil
##ifra
##ferdige
##▁rådhuset
##▁software
##▁sovjetunionen
##▁79
##▁smale
##▁keram
##▁opplyse
##agte
##▁kristi
##▁fengslet
##stab
##▁jen
##▁elise
##▁kommunikasjonen
##▁avly
##cky
##▁usb
##▁illustrasjoner
##kilde
##lisert
##▁garantere
##edie
##▁øret
##åt
##▁ropte
##▁samspillet
##▁nybegynnere
##▁vedtektene
##ledd
##▁flykte
##allerken
##▁overlevde
##assist
##▁pensum
##▁tviler
##02.
##▁toy
##▁kjekk
##05.
##2017
##▁kondisjon
##▁tvist
##▁politist
##▁skremme
##baner
##elementer
##lang
##▁lekre
##▁nj
##▁proteiner
##▁maje
##▁some
##▁boble
##▁særskilte
##▁næ
##▁søks
##▁manuell
##pere
##lat
##ffel
##▁urban
##levende
##kampan
##▁målgruppe
##▁mæ
##▁lukk
##▁tony
##▁skjuler
##▁bearbeid
##▁charlotte
##▁tynt
##▁gjenværende
##ando
##▁visdom
##▁seb
##▁friheten
##▁beskj
##▁apost
##alister
##▁mentale
##reisende
##▁ypperlig
##▁beteg
##▁magn
##▁innsk
##▁pølser
##▁arbeiderparti
##kje
##▁værende
##▁parlament
##▁perspektiver
##▁fib
##▁abonn
##▁tiltalte
##konkurranse
##▁filipinske
##▁avsatt
##▁skif
##▁frust
##▁stuen
##▁pistol
##▁naturfag
##lab
##▁84
##▁undersøkte
##▁rolige
##bibliotek
##▁styrken
##stokk
##▁merking
##temperatur
##▁bt
##▁brut
##▁effektene
##▁veie
##▁afrikanske
##▁bindende
##▁obs
##fugler
##ystemer
##▁evaluere
##heimen
##▁oliven
##▁slektninger
##▁jones
##mak
##omme
##▁ødela
##nb
##sinnede
##▁titler
##▁innst
##▁poliklin
##▁fut
##▁utgaver
##▁mistenkt
##▁stolthet
##1).
##▁assistent
##▁listhaug
##▁bush
##▁color
##▁kontaktperson
##▁auksjon
##▁champions
##▁mangelfull
##▁selgeren
##▁oppfordring
##▁reading
##▁kvote
##▁albert
##▁vederlag
##▁kombinasjoner
##opher
##artner
##▁sad
##▁andrea
##sosi
##▁opprykk
##bøy
##attle
##shuset
##▁vanskeligheter
##trafikk
##▁frelse
##▁lopp
##▁beite
##▁freder
##▁kommunestyre
##ssjefen
##▁papiret
##▁uenighet
##uka
##fare
##▁risikof
##▁konsentrert
##▁tålmodighet
##▁offentligheten
##▁15,
##▁snudd
##▁påvente
##orteføl
##▁utøvende
##ival
##▁bokmål
##▁offentliggjort
##▁hestene
##▁destinasjon
##▁skot
##gode
##▁avskjed
##▁åndelig
##▁teknologier
##allene
##▁publikasjoner
##strikk
##▁mineraler
##▁tilfeldigvis
##▁glam
##spirasjon
##▁familiene
##▁skottland
##▁utmerkede
##▁slave
##▁begeistret
##rie
##fari
##▁høn
##ensyn
##▁takst
##▁gras
##sbestemm
##▁lt
##▁jackpot
##otto
##▁adm
##▁aa
##▁stenger
##count
##▁sortere
##smateriell
##▁kjønnsorgan
##▁202
##▁note
##▁nora
##▁episoden
##▁oppholder
##▁song
##▁sjenert
##▁dale
##grenser
##bereg
##▁forbry
##▁førstegang
##▁87
##▁overd
##▁graden
##▁subjekt
##skontoret
##▁supplement
##▁obligatoriske
##▁piano
##▁provo
##skravet
##▁amp
##▁great
##▁merkes
##▁bryllups
##▁skra
##▁ektef
##▁kjæled
##▁fotografering
##▁obos
##▁drøye
##▁konkluderte
##▁eksemplar
##▁utviklere
##▁beskrivelser
##▁champion
##▁justeringer
##▁krigs
##▁ryddig
##▁moment
##▁finere
##▁autoris
##▁magasin
##▁verb
##▁rans
##▁content
##▁forskudd
##▁legevakt
##imentet
##▁organiserte
##▁eti
##▁slitne
##ødd
##▁gnr
##▁leveranse
##▁foreldrenes
##▁hip
##▁jacks
##▁lørenskog
##▁etniske
##▁hektisk
##ksa
##emma
##▁website
##▁kursene
##▁lovverk
##interesser
##▁fbi
##▁samsung
##faste
##stemp
##▁doc
##▁promo
##▁fordelingen
##open
##ettiget
##▁bærbare
##ismer
##▁surf
##▁innpå
##▁bokst
##▁fremstå
##▁glimrende
##pi
##contre
##▁programmene
##/15
##order
##▁hop
##▁sete
##▁tron
##▁provin
##▁musikalsk
##▁fb
##kongen
##kh
##takk
##▁prostituerte
##ssekretær
##▁organisasjonens
##▁state
##▁tarm
##▁bløt
##sterke
##▁oppgis
##▁tilliten
##tri
##operasjoner
##▁bnr
##▁tilhørte
##▁avklar
##rutiner
##▁operatør
##▁opplærings
##▁søkemotorer
##møy
##▁aleks
##sbilder
##rekket
##▁oppvokst
##klubber
##▁utenlands
##▁hjemmefra
##anal
##lunde
##▁dokumenteres
##▁lønnsom
##▁kvadratmeter
##edagen
##annsyn
##▁lovgivning
##▁blowjob
##vernt
##▁05
##▁fryse
##region
##arkivet
##▁innbrudd
##▁prevensjon
##spolitiske
##▁tjente
##▁programleder
##▁rencontre
##▁gjenvinning
##▁plasseringen
##▁utlys
##ellingen
##▁pic
##▁livmor
##▁sure
##skontor
##▁vits
##▁kosttilskudd
##oween
##▁view
##▁trange
##appene
##menyen
##▁tilgangen
##beskyttelse
##▁borti
##▁urettferdig
##▁styrkes
##▁gjødsel
##barna
##sfjell
##mesterskap
##▁cart
##▁extra
##▁pom
##▁stier
##▁forpliktelse
##▁blank
##▁dim
##▁saga
##nert
##▁main
##▁nyre
##▁sigrid
##▁høyskoler
##▁isteden
##▁presentasjoner
##dress
##ctic
##rand
##▁lykken
##▁82
##▁linni
##▁share
##▁notater
##▁næringer
##▁stadium
##▁likvid
##kvar
##▁kandidatene
##øper
##▁publiserte
##riket
##▁law
##▁mia
##▁fenomenet
##▁forutsetningene
##oro
##▁nation
##sykler
##▁organisk
##▁serverer
##▁koff
##elskap
##▁tiltalt
##førselen
##lon
##▁varetekt
##▁demonstra
##▁bust
##barnet
##▁dannes
##sir
##▁videreføring
##▁stine
##▁kontanter
##eli
##▁skryte
##▁byråkrat
##▁oversiktlig
##▁definisjonen
##kvent
##jakten
##▁skjeden
##åten
##kland
##prøven
##svekkende
##▁kirkegård
##nye
##▁(20
##modus
##nettverk
##▁underlivet
##▁metal
##▁project
##▁styrketrening
##wi
##▁kolester
##▁helsehjelp
##house
##▁ritu
##▁mandal
##▁flittig
##▁kommisjon
##▁fots
##▁presten
##▁margar
##▁instruktør
##ush
##▁sarah
##kommune
##▁gustav
##▁mykt
##▁karlsen
##ield
##▁cho
##▁lux
##fla
##▁equ
##spurt
##kaker
##uttrykk
##▁71
##wan
##▁annonsen
##▁tegneserie
##leng
##▁nrks
##▁uopp
##04.
##▁tykke
##/14
##▁leid
##▁justeres
##biblioteket
##ee
##▁dedikert
##▁beaut
##▁bagasje
##▁patrul
##▁mistenker
##▁die
##▁stru
##frist
##kapit
##ersund
##▁moralsk
##▁casinoer
##▁halvtime
##▁resirk
##▁utstrekning
##idert
##▁trærne
##▁:-
##bygningen
##▁debuterte
##kjøkken
##▁lærling
##▁evalueringen
##98
##▁trapp
##▁oppgradert
##▁konstruksjoner
##ønnen
##▁ikkje
##infeksjon
##vey
##▁søy
##▁reguleres
##▁lyser
##▁passerte
##▁barer
##▁blåse
##akks
##▁næringsstoffer
##▁dov
##måler
##svurdering
##▁antik
##▁løype
##▁ultimate
##▁leverandørene
##hans
##▁utvider
##▁drit
##▁ingeniører
##▁resulterer
##▁cyber
##▁sony
##▁stjal
##▁fatter
##krevende
##▁bore
##▁brygger
##▁horisont
##▁nærmet
##▁irritert
##ierne
##▁coop
##▁manifest
##▁antyder
##reduksjon
##▁eksperimenter
##▁talenter
##kontrollen
##▁utprøv
##srapport
##▁lørdagen
##▁kod
##moren
##intern
##hil
##sfart
##▁verdal
##▁progre
##▁påpekt
##▁2006,
##▁prinsip
##poser
##▁cellene
##▁elendig
##▁rullet
##buss
##iendom
##▁omsetningen
##▁konkurrentene
##tab
##▁ted
##cript
##ieffekt
##▁aksjonen
##årn
##▁ignor
##eldende
##▁mekanisk
##▁overbevise
##avor
##▁manu
##▁blond
##▁datak
##▁helsevesenet
##smodell
##▁bønner
##hå
##▁eric
##▁råder
##▁kriger
##▁utrede
##▁utfallet
##runde
##▁oppnådde
##▁barnebarn
##▁journalistikk
##:00.
##▁tav
##▁ondskap
##▁stramme
##entials
##▁busser
##▁utdrag
##▁ulovlige
##▁satellitt
##▁logisk
##▁begrenser
##▁oransje
##▁opprettholder
##▁datingsidene
##▁radon
##kjøretøy
##▁jordbruk
##,...
##▁reagerte
##▁underskudd
##rakten
##sla
##▁åra
##▁svul
##▁hardanger
##▁broen
##▁doser
##▁skandinaviske
##▁kontekst
##▁belønning
##▁oral
##▁ringt
##▁etablerer
##steknikk
##▁oppfyllelse
##▁vegetasjon
##▁lagets
##språklige
##▁meteor
##▁cr
##▁våger
##▁finansiell
##▁prøven
##sida
##▁ane
##▁vra
##▁lanserer
##▁framtida
##▁spesifikasjoner
##base
##▁arten
##▁musik
##▁fullm
##▁kategor
##▁kreftene
##▁nams
##▁aksel
##bevisst
##▁virkninger
##▁motivet
##▁lovverket
##▁prosentpoeng
##▁bast
##▁lysere
##▁nuru
##▁nordsjøen
##▁pratet
##▁henvendelse
##▁smitt
##▁turene
##▁tilskuere
##▁plattformer
##-14
##▁kobles
##▁hullet
##▁lønnsomt
##▁hog
##▁other
##kroppen
##etabler
##korn
##▁cell
##sopphold
##▁lokalet
##▁ordføreren
##▁påpekte
##▁læreplan
##vint
##▁any
##▁utd
##-11
##mam
##2).
##▁åndelige
##▁entreprenørskap
##sburg
##▁adult
##▁pumpe
##▁fungert
##▁fagskole
##verner
##▁sammenligner
##▁forsør
##▁rustet
##espiller
##▁realitet
##▁søkeord
##▁løpt
##▁fasen
##▁kav
##mottak
##klag
##▁innføringen
##/16
##▁knuse
##▁jr
##▁appet
##▁miljøk
##▁framgang
##▁vektt
##▁vonde
##▁urimelig
##▁kalorier
##▁essentials
##▁kans
##▁baner
##bryt
##▁aksjeselskap
##▁securit
##▁mentalt
##▁lokk
##▁involverer
##▁rio
##ftene
##leden
##rammer
##▁ufatt
##▁aldersgruppen
##elaterte
##▁bjerke
##kosten
##▁poser
##▁skitne
##▁utløpet
##▁fortau
##styrem
##konsent
##uensis
##boliger
##▁finske
##▁derved
##▁romania
##▁eksistert
##▁ferdigstilt
##97
##▁mynt
##▁skjermer
##▁grete
##bygger
##▁ønskes
##▁systemene
##▁handelshøy
##▁palestinske
##▁kunstneren
##▁clint
##redaktør
##▁tjenest
##▁opplagt
##▁avviklet
##▁dessert
##▁forberedelser
##▁møteinnkalling
##▁kommuneplan
##▁14,
##mektig
##▁skatteetaten
##▁liby
##virkninger
##optimalisering
##''
##▁wiki
##diagno
##serfaring
##▁breivik
##▁byrådet
##▁xbox
##▁vint
##▁utstedt
##▁moen
##▁kammer
##▁looking
##ways
##▁fren
##▁beskrivelsen
##▁engasjerende
##ardi
##▁ideell
##▁sprekker
##ansvarlige
##▁folkevalgte
##▁4:
##▁påfyll
##yring
##sprang
##▁jævlig
##gressen
##▁showet
##▁meier
##▁massiv
##▁1.1
##▁sangene
##ipping
##reglene
##▁flater
##arin
##sfristen
##▁erklært
##▁halloween
##▁init
##lanter
##▁kit
##▁vedr
##▁allergi
##kos
##▁jobbes
##▁arsenal
##styrer
##▁flekker
##▁vidunder
##▁pip
##▁valper
##sprogrammer
##▁fryktet
##▁differens
##▁flir
##▁utbrudd
##▁tilføre
##▁oberst
##eldingen
##apore
##▁beit
##▁krøl
##▁andelse
##ilet
##▁kvinnens
##▁fylkesmann
##▁saklig
##▁presser
##▁foreløpige
##▁meditasjon
##▁foreningens
##▁uakt
##▁friskt
##▁arealet
##svann
##▁skrekk
##runnlaget
##▁easy
##▁distriktet
##▁brannvesenet
##▁parkeringsplass
##▁barnevernt
##▁opprettelse
##▁våpenet
##▁helgene
##▁mestrings
##fiber
##▁instituttet
##▁forklaringen
##▁food
##kvinner
##utningen
##3).
##inem
##ragende
##▁piller
##▁nomin
##▁rømme
##sløsning
##▁dirig
##▁pusse
##▁centimeter
##▁forretninger
##sproduksjon
##dagene
##▁barbar
##▁deltak
##▁røyking
##▁1980
##melige
##▁sjener
##▁uheldige
##▁markerer
##zar
##illi
##øyde
##▁fott
##▁trys
##▁vekter
##▁rangering
##▁utløser
##alender
##▁flatt
##▁kulturell
##▁stiftelse
##▁stortingsm
##gien
##▁teoretiske
##▁atlant
##▁sjekkes
##ktoratets
##▁godteri
##▁tiårene
##▁allsidig
##atens
##▁fikset
##▁operere
##▁model
##▁navne
##▁kontroversi
##behovet
##▁18,
##skjell
##sykehus
##▁overle
##▁komplikasjoner
##olo
##▁utseendet
##▁94
##pelse
##▁want
##▁tilsammen
##▁opplag
##▁hjemlandet
##▁nel
##▁swe
##▁relaterte
##skjæring
##▁boy
##▁slanke
##▁muliggjør
##▁box
##**
##behandlingen
##▁reparasjoner
##▁gange
##▁tilgi
##▁røntgen
##▁sivilis
##▁rap
##▁ballett
##cos
##koder
##▁hygiene
##▁observere
##▁true
##▁gaming
##valtningen
##panel
##▁1950-
##▁valdres
##skilder
##▁partil
##▁monteres
##spotensi
##▁alexandra
##usias
##▁prov
##▁fuglene
##▁uskyldig
##▁stjernene
##tta
##▁smal
##▁økter
##plassering
##▁tårn
##▁ryktene
##▁barndommen
##▁gjenkjenne
##▁mett
##▁instruksjon
##ulent
##▁signatur
##▁banket
##▁bridge
##▁knapper
##▁stimulerer
##▁konsulenter
##▁visuell
##▁dokumentene
##chi
##skrive
##▁funksjonelle
##▁florida
##▁romerike
##▁rukket
##mur
##▁stens
##▁wilhelm
##96
##edes
##▁company
##▁porsjon
##▁velsign
##▁intervensjon
##▁pia
##▁influens
##vaner
##▁spins
##▁avslør
##▁styrte
##▁mona
##▁diale
##adisk
##▁forklaringer
##øytnant
##▁teppet
##▁bog
##▁benj
##seng
##▁asbjørn
##ders
##▁juletre
##▁julegave
##▁byutvikling
##▁vitaminer
##▁miljøvennlige
##▁nettbutikker
##▁2000-
##▁overskriften
##tise
##yrene
##hetens
##▁søren
##▁dreie
##▁skall
##insk
##▁policy
##▁vamp
##▁gjengitt
##05
##natur
##▁rema
##▁porten
##fal
##put
##nik
##oy
##▁modig
##▁søndagen
##▁gjemt
##station
##▁hemmeligheter
##nas
##▁mildt
##ksik
##ferden
##▁optimale
##▁implementere
##▁austral
##▁påstår
##▁økos
##▁beveget
##ums
##▁karbohydrater
##sjer
##▁skylden
##▁langsomt
##▁gall
##▁10.000
##▁dagtid
##▁settet
##▁vernet
##▁flasker
##▁fornyet
##▁rytter
##▁sesongens
##▁hjelpsomme
##giske
##▁innebar
##▁avslappende
##cts
##entil
##ivået
##varsel
##▁forkjøl
##vegger
##▁raskest
##stilbudet
##▁jordskjel
##▁syklister
##▁ilden
##▁omgitt
##▁synker
##▁vibe
##▁gres
##etooth
##▁transaksjon
##strategier
##brann
##▁2003.
##▁barnehagens
##▁hønefoss
##▁designere
##fire
##dekning
##uge
##▁sportslig
##nærings
##▁anmeldt
##sbrev
##tester
##▁preges
##▁english
##▁antibiotika
##▁perform
##▁tegner
##nav
##veileder
##▁stell
##▁vikar
##▁uttrykt
##▁leveranser
##▁verktøyene
##▁mareritt
##▁6-
##▁flyter
##▁grande
##teksten
##▁hunn
##▁than
##▁månen
##utbytte
##▁sophie
##▁nff
##avtrykk
##▁autonom
##▁klimaet
##▁valgkampen
##30,
##▁aske
##▁ling
##▁kontrollerer
##▁servicen
##,,
##mengden
##▁forvirret
##▁engst
##▁ingrediensene
##▁brukerens
##▁utlendinger
##gis
##▁only
##gjengelig
##▁klimagass
##▁oppbygging
##tel
##▁print
##▁tepper
##▁coaching
##fett
##illen
##▁opprettelsen
##▁slikke
##▁senge
##▁jeger
##▁haakon
##▁johnson
##▁samhold
##tidligere
##kommen
##▁potensiell
##▁statsborgerskap
##▁sjømann
##▁satsning
##▁jung
##▁lærlinger
##▁ankommer
##20.
##▁mellomstore
##dog
##▁fetish
##▁spekul
##skonkurr
##skomite
##ards
##▁samet
##▁etterly
##▁bærekraftige
##sfelt
##▁livene
##universitet
##▁rapporterte
##▁entreprenøren
##stest
##▁astma
##▁konkurrerer
##▁motstandere
##asj
##▁arch
##▁velsig
##▁eiendomsmegler
##tese
##olsk
##▁10%
##▁omlag
##luft
##▁leo
##vilje
##delene
##▁kum
##▁sekretariatet
##ibet
##▁spiss
##▁sløy
##▁strømmer
##▁tunnelen
##▁involvere
##▁mørkere
##▁pav
##unnelen
##▁kjeder
##▁ektemannen
##osh
##agnet
##▁returnere
##▁vindkraft
##▁tin
##head
##▁lår
##▁begynnelse
##uddene
##▁display
##▁synder
##▁sitat
##▁terapeut
##▁cathrine
##▁strukturen
##▁fremstilling
##▁senket
##▁fiende
##▁forbryt
##▁oppkalt
##betennelse
##plager
##lass
##vatnet
##▁røyken
##▁solveig
##sum
##▁rug
##▁ydmyk
##sdagens
##▁menstru
##▁investert
##▁kak
##▁nysgjerrighet
##▁turneringer
##egget
##▁møller
##▁førsteaman
##ykdom
##partnere
##▁gumm
##strinn
##teinen
##løsningen
##▁assistanse
##▁øm
##flix
##▁avve
##▁tiger
##handlingene
##▁preferanser
##▁16,
##▁sektorer
##▁''
##▁marcus
##oben
##▁velkjent
##▁spørreskjema
##▁smerten
##▁skadelige
##▁etterforsker
##▁entreprenører
##▁sæd
##▁anklaget
##▁orientere
##drive
##▁orkester
##▁lykkelige
##▁betydde
##▁entusias
##▁tjenestem
##grav
##▁knep
##▁pike
##skrevende
##▁stabelen
##▁utgivelse
##▁fitness
##stitusjon
##begynt
##filen
##▁bitt
##▁guddom
##▁røyker
##▁lagd
##denne
##▁kupp
##▁lovbrudd
##▁representasjon
##▁lederskap
##▁unngås
##▁koselige
##▁pekte
##arbeidene
##2015
##▁museer
##fta
##▁gb
##▁maritime
##▁justering
##▁rasen
##▁håndteres
##▁gat
##faktor
##trenger
##▁svenskene
##▁nærvær
##▁sorter
##intervju
##▁christopher
##▁sud
##inken
##ution
##▁2005,
##▁praha
##▁sviktet
##aksen
##▁foredraget
##pak
##fine
##▁gutte
##▁beruset
##▁handelen
##▁spesialit
##edi
##ending
##▁depri
##▁inntre
##▁trygve
##▁havre
##▁erklær
##ordinator
##▁prosessene
##42
##▁181
##▁registeret
##▁fienden
##asia
##▁kildene
##▁firmaer
##▁lukkede
##▁lekser
##▁trysil
##▁klasserommet
##▁eskort
##▁hengende
##▁intensiv
##66
##aften
##▁adhd
##▁gundersen
##▁forsikringen
##▁invent
##▁suksessen
##▁utforsker
##enheten
##▁county
##▁sikter
##▁kobling
##▁kompetansemål
##prosent
##▁dødelig
##▁bron
##▁inspeksjon
##▁nærmiljøet
##samarbeid
##▁insekter
##▁begrepene
##▁brukervenn
##▁foundation
##imp
##▁forhandle
##▁eksperimentere
##egist
##▁nyopp
##▁eiker
##▁portal
##▁gap
##ileet
##klipp
##▁vått
##elivet
##▁navigere
##▁definisjoner
##▁3-1
##▁ytringsfrihet
##▁anlagt
##▁blandt
##▁pyntet
##war
##spir
##▁kompakt
##send
##▁cos
##▁fremragende
##▁vaner
##▁lukker
##55
##▁france
##▁takler
##▁dypet
##▁20%
##▁uis
##▁2000.
##▁kommersiell
##▁klør
##▁karakterene
##cess
##ykket
##/13
##▁aer
##▁anslått
##▁velgere
##spsyk
##▁rettslige
##▁briller
##▁irritasjon
##08.
##rådte
##▁klam
##▁reflekterer
##▁point
##▁medlemsland
##sdelt
##finger
##høgskolen
##▁utløse
##▁underlig
##▁ektefeller
##rigt
##▁multip
##▁mannens
##▁yahoo
##▁dykker
##ileg
##▁olaf
##▁formel
##▁vagina
##usa
##▁christensen
##▁pulver
##▁bitter
##▁lokalsamfunnet
##yttede
##▁utenfra
##▁sandberg
##day
##▁well
##▁logger
##▁solidaritet
##▁standpunkt
##▁ammun
##▁rører
##verdiene
##▁skilles
##▁kristendommen
##▁15/
##▁nobel
##▁omegn
##▁kalenderen
##smat
##sfasen
##▁tilbød
##uleres
##fase
##▁4-5
##▁morg
##▁sameier
##▁forgjenger
##▁christiania
##helg
##kjøpe
##lesere
##▁bensinst
##▁mrd
##▁flyte
##▁skjør
##abis
##▁goose
##sdrift
##▁forsiktighet
##▁mora
##ungdom
##▁mormor
##trom
##giftene
##▁fordypning
##:1
##kingen
##rådt
##sbaserte
##▁oppfølgingen
##▁overveldende
##▁16-
##sur
##▁speilet
##▁igangsatt
##▁oppstarten
##interesserte
##▁michel
##▁medikam
##forskrift
##▁aktivere
##▁bokser
##▁krystall
##▁påbegynt
##▁etater
##▁tidende
##▁voss
##▁smakte
##▁fingeren
##etiden
##▁kevin
##ivene
##brettet
##▁propag
##opol
##▁herrens
##▁fastsetter
##▁sydd
##sforskjell
##iana
##nov
##sdata
##▁måloppnå
##▁svømming
##▁henriksen
##spesiali
##▁unorm
##▁1988
##▁bite
##▁doble
##▁oppdretter
##▁excel
##▁puster
##elskapet
##▁klassene
##▁begrensede
##▁kandidaten
##elyset
##▁toalettet
##▁drammens
##▁vedvarende
##apo
##eser
##▁spillets
##nm
##fsen
##etty
##......
##▁innkalt
##▁bosetting
##kombin
##▁360
##måned
##▁nort
##▁varmepum
##økter
##▁bjarne
##▁styrking
##▁etterfor
##▁initiativet
##▁bestevenn
##▁forbedrer
##▁gylden
##ito
##▁essay
##▁utvalgets
##▁enkeltes
##max
##▁fk
##apro
##mont
##▁mul
##▁oppgang
##ikerte
##▁analytics
##æra
##▁vellykkede
##ubben
##skelen
##▁støttes
##▁fjernsyn
##kledd
##▁gangs
##▁sirkel
##▁,.
##▁gel
##▁spray
##▁litterære
##▁utviklingshem
##verkere
##▁mate
##▁enebo
##▁konservative
##▁disiplin
##cept
##▁imponere
##ssykdommer
##▁distra
##▁pigg
##▁social
##▁teknologisk
##▁relativ
##▁vad
##beste
##▁tert
##▁after
##▁spisest
##▁driftsutgifter
##▁krises
##▁fredelig
##▁kran
##▁regul
##▁fengselet
##▁utredningen
##▁lapp
##▁strukturert
##43
##ruter
##look
##▁kirkenes
##▁koffer
##▁mobilitet
##▁forlengelse
##▁referans
##▁slam
##▁diameter
##▁plata
##▁planeten
##▁erstattes
##▁farer
##▁varamedlemmer
##▁hotellene
##▁relevans
##▁brua
##▁samfunnsansvar
##▁exper
##▁russerne
##▁trente
##▁massive
##▁4000
##▁natte
##spit
##overvå
##▁vali
##stykker
##soppgjør
##▁singapore
##▁tiltrekker
##spilling
##▁hint
##▁truck
##asi
##▁diktet
##▁rådighet
##▁markedsføre
##▁uførepensjon
##▁kals
##▁kokos
##▁palest
##bestemmelser
##sveg
##▁milan
##▁steen
##▁ih
##▁artiklene
##▁jernbanen
##▁tilpasser
##▁retningen
##savdelingen
##president
##▁hydra
##▁trygde
##forbin
##▁ungarn
##inkel
##▁såvidt
##gru
##drevne
##eksemp
##▁bearbeide
##skyt
##▁vre
##▁namsos
##sfjorden
##▁tilnærm
##86
##parter
##ovner
##gjengen
##▁utgivelsen
##ssted
##yggen
##▁renover
##▁nabolaget
##juni
##▁rif
##ethe
##ketter
##▁kontinu
##hurt
##skontr
##hammed
##▁cab
##▁oil
##▁potter
##kri
##fikk
##filter
##▁ludvig
##ido
##▁syre
##▁assos
##▁plantet
##▁urter
##▁lyver
##▁kjennetegnes
##▁hindringer
##▁kostholdet
##tu
##▁vera
##stri
##▁space
##retningen
##▁berger
##▁ensomhet
##▁tørker
##▁anmod
##▁iks
##▁støvs
##▁straffet
##▁undertrykk
##▁honor
##▁flør
##▁regionene
##poli
##▁plates
##▁integrere
##▁bevisstheten
##▁smelte
##▁tempoet
##▁benjamin
##▁bruddet
##▁french
##▁randi
##sselskaper
##▁diff
##sløy
##▁pålogg
##smennene
##oker
##▁pend
##▁markerte
##urch
##▁innførte
##▁innta
##▁fungerende
##onia
##▁tøffere
##▁strender
##komment
##▁smartere
##tech
##▁engine
##▁jessheim
##apeuter
##preget
##▁mir
##▁ferdes
##▁kunstverk
##41
##▁udi
##▁ofrene
##onyme
##▁matche
##▁netflix
##▁sammensatte
##▁1200
##utstilling
##▁brettet
##▁christine
##4-
##▁våg
##▁cert
##▁sandvika
##▁straffen
##▁oppfatninger
##▁brekke
##▁julegaver
##▁lill
##språket
##▁sinnet
##▁ferdsel
##▁brukernes
##▁oppmerksomme
##ssvikt
##▁utforme
##▁2001.
##▁rekken
##▁nielsen
##▁gårsdagens
##strukturen
##slik
##▁blø
##▁svendsen
##▁cuba
##hud
##▁yter
##▁etiop
##▁interra
##▁svimmel
##▁vandring
##▁årrekke
##▁nag
##▁alb
##▁little
##▁nordmann
##mangel
##▁blonde
##kjeder
##▁krisen
##▁fronten
##▁forenkle
##▁fullførte
##▁lm
##▁ala
##▁matcher
##▁styrescore
##▁landing
##▁ng
##▁refererer
##▁xxxx
##▁gitte
##aktighet
##▁lanseringen
##ckey
##▁gambling
##▁rab
##▁malm
##▁mekaniske
##▁engasjementet
##▁egge
##▁savn
##▁snør
##▁binder
##leggelse
##▁helsefag
##revol
##cont
##støy
##▁nybegynner
##ovo
##▁åge
##▁roper
##▁sovnet
##▁feltene
##▁dagsav
##▁kysse
##▁suverent
##▁stryke
##▁musiker
##▁utvinning
##oon
##▁tip
##cted
##oci
##▁bulgar
##▁stoffene
##▁selvstendighet
##▁sme
##▁klienter
##▁diskuteres
##▁%)
##beløpet
##▁slippes
##▁000.
##round
##/7
##▁løyper
##▁kommenterer
##uske
##friheten
##▁inntekts
##▁konstruert
##▁trail
##▁begjær
##▁ideelt
##▁raskeste
##ife
##▁vendte
##▁troende
##ligaen
##▁svette
##▁chattesider
##▁brig
##▁energieffekt
##▁optimalisere
##▁fantasier
##▁tallerken
##▁artene
##▁stråle
##▁scre
##▁avdelingene
##▁fingre
##festen
##▁vandrer
##▁stillhet
##eningen
##▁intense
##▁vurderings
##orth
##▁erlend
##▁naboland
##▁historiel
##▁begravelse
##▁klaget
##▁bestsel
##▁galskap
##▁skatten
##▁fortol
##▁tilegne
##▁blomstene
##▁fylkeskommunene
##kjønn
##▁korps
##falt
##▁community
##▁lokke
##▁utvist
##bestemmelse
##▁utviklerne
##▁125
##▁konfron
##▁plasserer
##▁danset
##▁olympiske
##▁</
##▁kommunere
##top
##landskap
##▁roar
##▁jordbruket
##▁forberedelse
##▁reelt
##▁1945
##▁bim
##sbut
##cking
##▁bingo
##▁avvise
##▁katastrofe
##▁stigende
##april
##▁konsum
##arg
##▁boligene
##▁oversetter
##▁restriksjoner
##røy
##▁lyr
##moner
##▁brune
##▁oppbevare
##▁kvalifikasjon
##▁betennelse
##følgen
##▁mim
##mand
##▁wars
##▁dogging
##▁sporene
##▁vareb
##▁omgangen
##▁1970
##ikkelen
##▁genser
##▁framtidige
##▁tåke
##▁eksistens
##nsjef
##▁wifi
##▁sparken
##ainer
##▁utlig
##styres
##ligste
##▁sektoren
##▁atomvåpen
##▁onani
##▁innehar
##▁scoring
##▁produserte
##▁redegjøre
##sbeveg
##penge
##ssene
##▁spotify
##ego
##▁kritisert
##▁våpnene
##▁1985
##inkluder
##ogene
##▁sjelev
##▁kvalifisere
##▁toner
##▁tårnet
##landene
##▁dilemma
##▁motvirke
##▁rørt
##▁santa
##▁overlevelse
##▁utpå
##▁digger
##▁slitsomt
##▁vanvittig
##olgt
##▁amin
##aco
##▁kår
##▁verdik
##▁tilbered
##▁vrang
##▁drøftet
##▁kjersti
##▁health
##▁rediger
##▁okku
##▁devel
##▁spenner
##▁basketball
##▁bedrifts
##wc
##▁jot
##▁tyde
##▁kultu
##▁livsl
##▁ekskluder
##▁inntrykket
##▁forlenge
##▁gjenskap
##skirken
##tap
##eløse
##▁noenlunde
##▁garnet
##debatten
##▁trapper
##▁kommentarfeltet
##atnet
##▁seire
##▁serveres
##▁besle
##▁stall
##▁dokumentasjonen
##▁parfy
##▁granny
##▁bluetooth
##▁seneste
##▁forlenget
##inf
##▁ører
##▁giske
##▁forsterker
##funger
##▁european
##▁olsdatter
##▁playstation
##▁bart
##▁helen
##stått
##yrået
##▁kup
##shall
##▁blander
##▁barentsh
##cell
##▁heftet
##▁eksploder
##▁varige
##▁mix
##▁akust
##▁rovdyr
##konkurransen
##▁asian
##▁solheim
##utveksling
##sfolk
##▁mose
##▁hyller
##▁idyl
##▁innerst
##▁ibsen
##▁underkant
##▁enebolig
##balanse
##▁amster
##▁smilte
##▁folketrygden
##løkka
##rapportering
##▁prioriterer
##▁ryn
##▁tøm
##▁obligasjon
##▁else
##▁sank
##▁knekke
##andy
##▁meir
##itas
##▁mcc
##▁preger
##▁fæl
##▁vektlegger
##▁upå
##eksper
##▁deaktiver
##▁20,
##▁coll
##▁maritim
##▁skån
##kommunene
##unet
##badet
##▁kjel
##▁vesen
##▁kolesterol
##srik
##▁femten
##hin
##forsknings
##▁platen
##▁tolkes
##▁ødeg
##▁ordens
##%)
##▁styrkene
##▁postet
##▁sammenlignes
##mets
##formene
##▁voldtatt
##sfunksjon
##▁oppry
##srettet
##øves
##▁skor
##▁gt
##▁mads
##▁rusmiddel
##▁indikasjon
##▁fritiden
##▁iversen
##▁målsettingen
##▁insister
##▁slås
##▁skøyte
##ponering
##▁estim
##▁inviteres
##bildene
##slys
##▁formidlet
##sned
##▁senterpartiet
##▁gjerde
##----
##skostnadene
##▁gje
##▁snus
##▁fylkeskommuner
##▁seint
##▁trådte
##regjeringen
##▁holme
##▁støvler
##olene
##▁public
##▁feilaktig
##▁jane
##▁saint
##delsens
##▁separate
##▁tipper
##ores
##01.201
##▁fetts
##▁simen
##▁fornyelse
##▁åndsverk
##▁kommentarene
##▁arbeidsgruppe
##▁tråder
##▁cannabis
##▁gjød
##▁visum
##soppgaver
##▁komplette
##▁tingretten
##▁kvinnes
##cho
##moder
##▁strømp
##▁skjelett
##▁klimaendringer
##▁prosjektledelse
##reisen
##▁nyskapende
##mine
##▁sekretariat
##▁følelsesmessig
##stallene
##▁fartøyet
##▁forveien
##avdelinger
##▁ukentlig
##▁adopsjon
##▁83
##▁atter
##▁forord
##▁databasen
##pg
##▁bakt
##▁kjølvannet
##arisk
##▁garasjen
##▁ambassaden
##▁fedre
##aksept
##▁berøre
##▁logikk
##▁selvfølge
##▁89
##▁romaner
##▁bjørk
##▁senger
##▁beviser
##▁seminarer
##menes
##▁take
##marken
##▁skiltet
##▁klargjøre
##san
##▁audun
##▁sørensen
##▁jørgensen
##▁mit
##pasienter
##▁kontinent
##4).
##▁self
##▁blink
##▁nøyaktige
##▁oppdaterer
##▁heb
##sperspektiv
##spilt
##▁sommerferien
##▁varemerker
##sdy
##sspill
##▁amundsen
##▁kapitlet
##▁representerte
##bene
##▁forfølg
##▁russian
##▁skin
##▁frekke
##ional
##fjer
##odell
##forstyrrelser
##▁notodden
##▁psy
##▁pådriver
##stek
##▁kirkes
##▁spesialt
##ministeren
##▁dempe
##▁saksf
##lip
##ommes
##▁psykiatri
##ssøker
##▁//
##▁kombineres
##▁konsernsjef
##ntb
##▁ante
##▁avgi
##▁atle
##jf
##▁1940
##holdig
##▁lasse
##▁thaim
##▁vedlagte
##▁refleksjoner
##▁testene
##ktede
##▁jackson
##▁underviser
##▁bie
##▁2002.
##ifiserte
##▁perle
##▁rumpe
##▁kreativt
##▁apparatet
##▁koordinering
##kommere
##▁ferier
##▁reuters
##▁81
##åker
##▁inje
##▁kvelder
##▁annonsering
##▁pict
##▁flokk
##▁kronprin
##▁tillates
##skr
##▁jørn
##▁extender
##▁undervise
##▁skist
##67
##▁systematiske
##norm
##eds
##▁fortro
##▁92
##styrker
##seg
##▁døp
##▁puter
##▁perler
##fremmende
##onsult
##▁kommuniserer
##farkt
##▁liket
##▁frafall
##▁flyreiser
##▁operert
##▁jernbaneverket
##▁foreligge
##rygd
##▁følsom
##seksjonen
##▁mog
##▁soc
##▁pels
##verktøyet
##▁publiseres
##▁biom
##▁genetisk
##▁øde
##▁håndt
##▁belte
##▁pornografiske
##▁hovedkontor
##▁våres
##▁sverig
##▁beskrev
##▁hert
##▁renne
##▁stønad
##▁rasisme
##▁lanseres
##▁erkjenner
##smedisin
##▁alan
##":
##entusia
##mangfold
##▁rusmidler
##▁respektere
##los
##▁armbånd
##åpning
##eldinger
##▁elbiler
##▁arabisk
##▁boob
##▁førstehjelp
##▁imm
##▁klarere
##▁dc
##▁forekomsten
##▁funksjonell
##snø
##▁jet
##▁unntaket
##▁hjertesvikt
##▁uvit
##giving
##▁edward
##▁leppene
##prest
##▁stokke
##historier
##▁arbeidsvilkår
##▁veilede
##▁bevisste
##▁kristendom
##▁overflater
##▁glom
##▁syklet
##følging
##familier
##rute
##▁myndighetenes
##▁gene
##fabrikk
##▁forenklet
##▁rygge
##▁skyggen
##sforbundet
##▁brystkreft
##riere
##▁amerikanerne
##tru
##tør
##▁lettet
##▁ståsted
##cha
##årnet
##egruppe
##▁kompen
##▁drukket
##▁utstrakt
##▁tjenestepensjon
##die
##urne
##▁klyn
##▁ronny
##▁spirit
##▁oct
##▁ilds
##bandet
##▁medført
##stim
##alla
##▁virginia
##▁eig
##stran
##▁nicol
##▁blåste
##▁britene
##▁distanse
##▁avst
##▁garderobe
##▁videreført
##tegnelse
##▁åpningstid
##▁arbeidsgruppen
##▁lena
##▁wat
##avhengig
##▁herpes
##▁bladene
##▁oversendt
##▁holdbarhet
##ørret
##▁soner
##sving
##▁kaken
##▁benken
##▁nemnda
##▁sebast
##▁they
##▁instanser
##▁banks
##rose
##▁anonyme
##▁behag
##historisk
##yle
##blod
##▁mjøs
##▁brant
##alismen
##▁lokallag
##▁overskuddet
##antik
##bring
##smarkedet
##▁kjølig
##▁vintage
##▁festning
##▁opphører
##lien
##▁vesterålen
##▁nevr
##dekket
##▁tyrkiske
##▁amerikanere
##▁1987
##▁latina
##▁rs
##▁kikker
##samtaler
##▁samråd
##omsorgen
##▁vane
##▁hviler
##▁syntet
##▁gjentatt
##hunder
##2016
##ippe
##atøren
##ios
##▁vindus
##▁naturens
##▁183
##osisjoner
##▁hovedsaklig
##▁inneværende
##pc
##▁fikser
##▁grønnsakene
##enda
##▁torp
##▁kio
##▁elling
##▁lukten
##▁fordele
##rød
##▁dagligvar
##▁milde
##smid
##▁mugg
##teamet
##▁fagfelt
##▁kalsium
##▁samtalene
##hon
##sha
##▁flagget
##▁terrasse
##▁kategoriene
##pete
##▁network
##skriterier
##▁innrømmet
##▁erfaringen
##sepsjon
##▁akademisk
##▁smarttelefon
##▁ventetid
##tetøy
##▁sjarm
##▁mobbet
##smodellen
##▁sovet
##phy
##▁krypt
##▁fasade
##▁nyhets
##▁vulkan
##▁hjulene
##▁påstanden
##ates
##▁come
##▁barentshavet
##▁billy
##▁tvinger
##▁smertene
##▁selvom
##▁svekke
##▁kjæledyr
##død
##skred
##▁uavgjort
##▁hete
##▁godkjennelse
##▁jogge
##▁dead
##▁hass
##▁glu
##▁akter
##uleringer
##bag
##▁blo
##▁drinker
##▁amsterdam
##▁bestillingen
##hytta
##▁kartlagt
##ixon
##▁geomet
##▁gh
##enskom
##▁kikke
##▁kostnadseffekt
##▁anelse
##▁lekkert
##▁testoster
##jong
##▁altinn
##▁bug
##▁iss
##▁roi
##▁nedgangen
##▁lensmann
##▁autorisasjon
##▁hareide
##▁faktorene
##▁applikasjon
##▁undertry
##▁reper
##▁91
##akeren
##▁samboere
##▁ombygging
##neg
##▁søken
##tysk
##▁kabler
##▁anmelder
##gjengere
##▁pm
##▁travle
##▁klagene
##▁synkron
##▁estetiske
##▁dab
##▁blac
##▁avslørte
##▁innvilges
##▁fosterhjem
##▁beslutnings
##ulf
##▁ræva
##▁romerske
##▁frittstående
##▁bjel
##ylor
##▁ebon
##▁sakens
##▁2004,
##regelen
##avhengige
##▁gravd
##▁havna
##itering
##▁rekk
##▁energy
##iansk
##▁industrielle
##▁gjerninger
##▁dek
##▁hong
##▁gaza
##▁dubai
##skravene
##▁møteleder
##bestand
##▁brystene
##▁programmering
##▁alv
##edisin
##▁derav
##▁bukser
##▁sykepleie
##▁konsekvent
##▁besvart
##▁bevilget
##▁oppdra
##▁nn
##hatt
##▁them
##▁menneskeheten
##▁sporten
##▁lagmannsrett
##▁frag
##▁demonst
##salen
##▁forby
##▁praksisen
##89
##▁tjen
##årsjub
##▁jarle
##▁solned
##▁nærmiljø
##▁inntatt
##fos
##entra
##▁skuffende
##▁skrivebordet
##▁monte
##▁eksplos
##live
##▁nsf
##farget
##▁følgere
##▁grenland
##▁somali
##▁besvare
##▁oppmuntre
##pol
##porten
##▁konfirmasjon
##ifa
##▁aren
##▁ingebrigt
##▁17,
##▁amme
##▁brud
##produsent
##orienterte
##▁oppdal
##skolelærer
##bang
##-.
##▁buddh
##slønn
##planter
##▁kikket
##▁nordens
##hø
##▁93
##▁kenneth
##▁utdanne
##▁ekteparet
##▁analysert
##▁progresjon
##▁eliz
##▁messe
##▁pasta
##▁utenriks
##▁berolig
##▁rabatter
##▁erklæring
##▁påløp
##▁stero
##▁gruner
##▁hes
##▁year
##pengene
##▁bruksan
##▁golden
##inntrykk
##▁disney
##arkitekt
##▁malte
##▁fiskere
##▁militæret
##aki
##smott
##▁offeret
##▁plas
##▁stråling
##▁interracial
##indik
##▁guider
##sområdene
##acy
##▁adri
##▁aksjen
##▁anleggene
##▁marketing
##smiddel
##▁hindret
##finale
##▁metro
##▁vannt
##▁gjennomgår
##usikk
##sutøver
##støv
##odok
##▁skrudd
##▁stanser
##▁kjennetegner
##ampo
##▁guiden
##▁opphevet
##.10.
##▁kroniske
##▁karakteren
##▁fristet
##▁photo
##firmaet
##▁høyttalere
##▁iverksettes
##▁magi
##bredden
##▁karmøy
##▁lysten
##▁dah
##mentet
##atorisk
##ekj
##arth
##▁dick
##▁lovpå
##forebygg
##▁janne
##▁voldsom
##lav
##▁regimet
##▁reiseb
##▁ærlige
##▁strømmet
##▁tidsskriftet
##▁innspillingen
##sbak
##▁liga
##▁follo
##01
##▁sikrere
##▁1986
##▁terning
##▁skuespilleren
##▁tidsrom
##▁omvisning
##▁valgkomiteen
##▁2/3
##▁skyting
##▁arbeides
##▁idretter
##▁majestet
##▁ebony
##▁resort
##▁2020.
##▁anvendt
##▁legendariske
##▁nc
##▁leiebil
##▁narkotik
##▁daily
##▁guvern
##▁befaring
##▁migrasjon
##▁vektlegges
##▁elites
##kningene
##▁kostnaden
##▁trådløse
##▁xl
##▁ventes
##▁etterfølgende
##▁kla
##▁rat
##blader
##▁undervurder
##▁rast
##▁rever
##▁viljen
##▁urolig
##▁kobler
##▁sparke
##craft
##eknikk
##▁søkeresult
##inna
##▁heltid
##▁naboene
##kostnader
##▁likesinnede
##▁undertegnet
##▁bisped
##▁løgner
##▁basen
##!!!!
##▁eiendoms
##▁rapporteres
##jab
##▁egentlige
##stal
##▁east
##▁drøbak
##invester
##▁troverdighet
##agas
##▁naf
##sja
##▁olde
##mengde
##jakke
##▁marx
##lementet
##▁sammenf
##▁inklusive
##spartner
##▁undersøkes
##▁rettssaken
##▁trude
##▁passasjerene
##▁madra
##▁kjærlig
##▁privileg
##stap
##ekjøtt
##mart
##▁maske
##plassene
##▁medisinen
##▁våge
##▁appla
##▁innsam
##▁mistenkte
##▁gjensidige
##politiet
##▁martine
##▁verdsatt
##ebær
##informasjonen
##▁dik
##styper
##▁stive
##▁trop
##husene
##▁made
##ebut
##pressen
##▁meksik
##▁omorgan
##▁løsnings
##▁akvar
##▁lekte
##▁vedtatte
##▁bebyggelse
##▁interkommun
##▁ct
##mange
##annsynlig
##▁paras
##▁belegg
##▁skjegg
##▁rekre
##▁frakte
##▁høringsuttal
##bind
##▁queen
##▁kuleste
##▁stasjonære
##▁hekle
##▁fornye
##kunder
##▁dæ
##lisitt
##▁handic
##▁uttrykks
##benken
##sbesøk
##▁nyanser
##▁fordommer
##▁domstolene
##▁hukommelse
##spapir
##psi
##▁kurt
##▁innbydende
##right
##▁departementets
##semb
##▁leire
##▁fundam
##sho
##▁kjekke
##▁ia
##dusere
##fristen
##▁sokker
##▁ammunisjon
##oskop
##▁snekker
##▁innstillingene
##rey
##▁joseph
##▁primære
##fungerende
##▁bruksområder
##▁tilbaket
##▁ideene
##▁nysgjerrige
##▁risikovurdering
##▁toleranse
##▁fagforening
##▁kløver
##kin
##▁ullens
##▁motorer
##▁myt
##▁skolem
##▁universitetene
##▁fjes
##▁molek
##▁tomten
##▁northug
##▁språklige
##▁virkningen
##▁geit
##▁lide
##▁dommerne
##▁skrivende
##▁dani
##▁colum
##▁lidenskapelig
##▁bevæ
##▁nitrogen
##▁02
##▁omgå
##▁knuller
##▁rikeste
##▁koblinger
##▁taushetsplikt
##▁organiserer
##▁øks
##▁skys
##fargen
##▁fliser
##▁jødisk
##kommisjonen
##▁imøtekomme
##▁gjær
##▁1-1
##▁bemerket
##▁cry
##▁enova
##▁hjelpet
##▁overraske
##ilo
##▁putin
##▁seile
##▁drop
##forestil
##hampton
##▁tipsene
##▁illustrert
##▁tøyen
##▁muskul
##▁traktor
##▁mystiske
##sne
##▁dl
##▁feks
##▁tranny
##▁rasende
##▁tispe
##▁halling
##ierte
##▁desidert
##▁lydsporet
##wide
##▁nidar
##▁colombia
##▁aw
##▁materielle
##kjole
##▁refunder
##▁1,2
##▁whisk
##▁synonym
##fabrikken
##5.000
##▁hasj
##▁gravde
##▁hovedt
##▁utgivelser
##▁forsinkelser
##▁sørum
##▁forbilde
##lukt
##▁blog
##▁akkredi
##▁politif
##▁litteraturen
##▁nad
##▁lungene
##▁forr
##▁snik
##▁lansering
##▁akutte
##▁beinet
##▁havnen
##.12.
##verand
##ilje
##▁ll
##elst
##▁klatret
##▁ranet
##▁prostata
##▁utnyttes
##▁forbrukerrådet
##kab
##▁skadde
##</
##▁sked
##▁margret
##stiftelsen
##▁avklaring
##hest
##sbøker
##vilkårene
##▁reserver
##▁medalje
##▁scanpixvis
##hevet
##▁usedvanlig
##▁trik
##▁associ
##▁nivåene
##sdat
##▁dates
##▁listet
##▁etterlater
##▁argentina
##▁psykologisk
##cin
##▁amig
##▁noah
##01.
##▁seksjoner
##▁eliteserien
##vekten
##▁byggverk
##▁festivaler
##▁prosedyren
##▁førstnevnte
##▁høv
##▁opptaket
##▁elizabeth
##fd
##▁viken
##asp
##cort
##▁1950
##▁suveren
##▁filtr
##▁alfred
##▁gjerdet
##budsjettet
##▁biod
##▁katte
##▁subsid
##▁partiets
##amme
##▁1800
##▁visu
##snæringen
##▁betingelsene
##7).
##▁supporter
##▁opposisjonen
##sråd
##▁html
##▁tved
##bevegelse
##stret
##senhet
##hjelpen
##▁samordning
##▁haf
##▁bakter
##▁fetter
##▁kompetente
##▁måloppnåelse
##rock
##▁nou
##▁sofa
##▁utsp
##▁titalls
##▁hastigheten
##ryl
##anes
##detal
##▁1600-
##▁puppene
##▁mastergrad
##itær
##▁07.
##▁tos
##sdager
##gjødsel
##urert
##skveld
##holdning
##▁letter
##pter
##yright
##▁luftt
##lysninger
##▁fremstilt
##rente
##▁benytt
##▁ragnar
##▁help
##▁meister
##advokaten
##▁annenhver
##▁emosjonelle
##hjert
##▁arthur
##inntak
##▁konsekvensen
##▁utøya
##▁hakket
##▁skremt
##▁barrierer
##▁wien
##▁fagpersoner
##▁kortvar
##▁tilsl
##▁fordype
##▁bue
##▁bilag
##isket
##▁tipset
##▁henvender
##▁parallell
##▁adresser
##▁integrerte
##kins
##▁tinn
##▁tømme
##▁torget
##▁jenn
##hjelps
##▁embet
##atorium
##▁betinget
##▁2.1
##jobben
##▁skipper
##▁inneklima
##▁ringerike
##▁industriell
##portalen
##▁ure
##▁talte
##▁tretti
##ione
##antikk
##▁francisco
##▁vekttap
##▁etternavn
##smiljøer
##▁religioner
##▁fam
##media
##brukte
##videoen
##statning
##koden
##▁fotografier
##wal
##rell
##▁beor
##▁ramp
##▁gresset
##▁skolestart
##▁use
##▁sele
##▁zoosk
##▁velded
##▁rasmus
##▁triana
##▁liban
##68
##▁kyn
##▁finansieres
##▁føreren
##støtten
##▁bagasjen
##bestilling
##▁biff
##uttene
##▁gruve
##▁høyskolen
##▁dreide
##▁karer
##▁poengene
##▁forsiktige
##▁oppsummert
##▁brønnøysund
##▁fylkestinget
##inal
##▁low
##▁droppe
##smedlem
##▁oppsøker
##strert
##rapping
##▁stores
##▁tribun
##▁kunngjør
##▁innholdsfor
##▁åpnings
##▁intelligent
##ibel
##▁sco
##ingles
##▁gjemmer
##▁puber
##▁spillem
##▁postad
##åpningen
##institusjonene
##odt
##▁pick
##▁unges
##▁mislig
##▁kvarter
##olleyball
##defin
##▁teltet
##▁andreplass
##strukt
##▁tobakk
##▁pornofilm
##▁omkom
##sbedrift
##▁paragraf
##egrupper
##▁innbyr
##▁tilrettelegger
##▁møn
##▁jøde
##ekstre
##-13
##spenger
##familie
##lage
##utleie
##▁sogne
##▁samtykker
##▁joda
##▁tolker
##▁kjerring
##▁sårbarhet
##▁utlending
##▁myter
##▁100.000
##feldt
##▁laur
##▁døtre
##▁arnt
##▁forstod
##▁spesialen
##ynam
##▁idrettskret
##▁robuste
##▁atlanter
##▁moralske
##▁scenario
##fangst
##frø
##▁banan
##▁visma
##▁ytelsen
##casio
##▁drener
##▁kad
##▁git
##▁turk
##sporten
##teknisk
##▁intensjoner
##▁datatilsynet
##▁organiseringen
##bli
##otball
##▁kenya
##▁reind
##iseringer
##spent
##▁continue
##▁hof
##▁kapteinen
##▁bakgrunner
##▁akseler
##▁filippinene
##▁dow
##▁ildsjel
##iren
##stell
##▁skrib
##kvalif
##kontroller
##▁kontrolleres
##▁kulturminne
##▁hendte
##▁fremtredende
##tron
##▁klæ
##▁sensorer
##▁gyte
##▁brens
##▁sertifisering
##camp
##blir
##▁betraktet
##hf
##▁inngås
##▁restene
##▁pålitelige
##lignende
##▁signere
##▁emballasje
##▁stygt
##▁oljesel
##▁forutsigbarhet
##ility
##parad
##sfeltet
##▁reformer
##tj
##leddet
##▁raste
##▁landeg
##▁alfa
##▁hay
##▁forlaget
##rettigheter
##▁jager
##▁sponsorer
##▁kated
##▁søkerne
##▁ferdighetene
##▁(5)
##▁lyttet
##▁verter
##▁hovedfokus
##▁årsregnskapet
##brø
##▁rope
##▁prost
##ature
##▁papirer
##▁overraskelser
##skolens
##▁clinton
##▁syriske
##▁liberale
##▁deltager
##▁ekspedisjon
##▁gest
##▁bacon
##▁sortland
##sendringer
##▁leting
##sturer
##▁uover
##▁fordøyelse
##jefen
##▁order
##▁pauser
##▁skaffer
##konstruksjoner
##▁saus
##kollen
##▁tempel
##▁cia
##▁forskningsrådet
##▁medarbeiderne
##▁uunn
##▁førde
##▁forske
##materialet
##▁opplæringsloven
##▁marka
##▁forsvars
##▁asl
##▁jeans
##▁årsberetning
##▁ai
##▁rovvilt
##▁bevaring
##aktiviteten
##▁merkevarer
##estad
##▁visjonen
##▁knærne
##▁aldring
##▁rapportene
##▁geo
##▁indeks
##spitalet
##rammen
##▁farvann
##▁paradoks
##▁utbedring
##▁akademiske
##▁langvarige
##▁brother
##▁lillesøster
##viet
##▁påtalemyndig
##intens
##▁amming
##fattende
##▁nek
##▁korrekte
##utdannede
##▁insulin
##▁1917
##eleverand
##▁cust
##▁besatt
##▁uje
##▁fadder
##▁uklar
##▁defens
##▁arbeiderne
##▁finsk
##▁kus
##▁streik
##▁advokaten
##▁ryan
##▁bilens
##kvalitets
##▁fantasien
##▁søknadsfrist
##▁idrettsutøvere
##ærere
##▁dikter
##▁ulempe
##sbegrens
##▁forkort
##▁interaksjon
##▁bøye
##▁plug
##▁helter
##▁!!
##▁autorisert
##▁oppholdt
##▁splitter
##uert
##øtter
##ennene
##splatt
##▁filt
##lagene
##edre
##▁epo
##splant
##▁elskede
##▁maskinene
##▁race
##▁their
##▁surfe
##▁samsvarer
##skala
##▁mais
##▁viner
##▁forful
##▁konkurranseg
##sfrihet
##▁inhabil
##▁påminnelse
##▁operative
##▁drøy
##konsentrasjon
##cean
##▁skav
##▁epler
##▁fossil
##irt
##▁grieg
##statistikken
##▁lastebiler
##▁kay
##iction
##▁tving
##stro
##▁byttes
##▁stjernen
##▁introdusere
##▁rotter
##▁evangeliet
##fylke
##▁gulbrand
##▁ånden
##tse
##▁got
##avisa
##▁rogn
##sfin
##sparken
##▁trendy
##ledninger
##▁avsluttende
##▁stans
##▁planten
##ikkes
##▁ign
##ifikasjon
##ekv
##▁tidkrevende
##▁gem
##▁loft
##▁appels
##▁paramet
##▁bytt
##▁emilie
##sjet
##▁intenst
##▁utbredelse
##▁naturvitenskap
##▁lime
##▁scorer
##▁hersker
##manns
##▁fastsatte
##mestere
##studium
##▁berget
##▁tvilling
##▁kollisjon
##▁kompatibilitet
##basis
##▁mats
##▁kopper
##▁rangert
##▁framdrift
##▁fraværende
##▁relasjonen
##▁instruktører
##▁låten
##sløftet
##▁menns
##atar
##radio
##▁avstem
##situasjon
##▁velgerne
##vansker
##▁graven
##▁appetitt
##▁innlogging
##▁humøret
##▁frokosten
##▁løpene
##▁tilført
##▁dialogen
##▁hovedutvalg
##ekon
##▁truss
##▁markus
##▁innklag
##▁gamlebyen
##▁generasjonen
##▁innfri
##kategori
##▁portrett
##▁kulturhus
##▁eiendomsskatt
##leren
##▁tusener
##▁uaksept
##settingen
##/8
##▁makeup
##sforsikring
##filt
##▁veik
##teriet
##velder
##▁sjekketriks
##▁beløn
##▁utsolgt
##▁aksjoner
##ops
##▁lord
##▁skik
##▁stekt
##▁tilslutning
##ampen
##▁cher
##▁kokk
##▁korset
##▁express
##▁kjøretur
##▁søstrene
##urin
##▁forbrenning
##unk
##derte
##▁undergra
##▁kve
##▁rings
##▁brussel
##▁personverner
##smuse
##▁framstår
##▁bnp
##▁radioen
##▁tabeller
##passet
##▁diakon
##▁kva
##▁snøs
##▁stemt
##▁prototy
##▁sverger
##▁casin
##▁utsteder
##▁vurderingene
##▁finansierings
##▁rommer
##▁hjemmelag
##zh
##▁hate
##▁ket
##▁adkomst
##▁ekstraordinære
##ardene
##▁skill
##kledde
##▁itunes
##▁opplevelsene
##høye
##▁sjeler
##ingsmå
##posisjonen
##cen
##▁øving
##sbedrifter
##urderinger
##▁avslutningen
##▁fortrinnsvis
##▁church
##▁politimann
##▁årsrapport
##▁information
##▁innlevering
##▁ulf
##▁wet
##online
##▁helvet
##▁costa
##▁makter
##▁risk
##▁avlast
##ather
##departementets
##▁merced
##▁rødgrønne
##▁konvertering
##▁hyp
##karakter
##stasjonene
##edd
##▁påføre
##▁likviditet
##kkelse
##▁orket
##▁imøtekommende
##▁%,
##▁adobe
##pakken
##▁danny
##▁cappelen
##▁facebooks
##▁realistiske
##kål
##arte
##▁vart
##▁splitt
##▁risikofakt
##▁4,5
##▁fedme
##pus
##▁years
##▁skjærer
##▁lørdagens
##▁chatt
##▁pølse
##▁vinen
##ttid
##▁6000
##▁raff
##▁absolutte
##▁savne
##▁reaksjonene
##▁eros
##▁williams
##▁tekstiler
##▁forespørsler
##dvs
##main
##oria
##september
##revd
##▁tesla
##▁nyskap
##▁forvalte
##▁okkupasjon
##sforvaltning
##utfordringer
##▁sd
##▁syne
##▁listene
##▁indones
##uleringen
##▁signifikant
##tekster
##▁03
##▁anstreng
##▁respekterer
##▁kostymer
##stigning
##▁jordmor
##▁forelder
##▁generere
##akkene
##▁knutsen
##ssamfunnet
##▁statkraft
##osene
##▁plen
##▁movie
##▁avbrutt
##uda
##▁butt
##▁knute
##▁sound
##soppdrag
##▁valgkamp
##▁gjenkjenn
##▁tilbringer
##cken
##▁fansen
##stemmelse
##▁kjedelige
##▁wow
##▁instruksjonene
##▁søknadsskjema
##ssituasjoner
##▁brakte
##▁kartlegg
##▁treneren
##▁illeg
##spillerne
##▁magaz
##psis
##▁regulerings
##strøk
##▁bobil
##▁450
##▁sivert
##ssamarbeid
##▁lex
##▁toppet
##▁erklærte
##tas
##here
##oppsett
##▁respond
##▁rush
##▁pusset
##perspektiv
##marker
##▁jimmy
##▁kriser
##▁utre
##▁idylli
##øe
##▁libya
##▁gullet
##▁knuste
##▁brytes
##▁gim
##▁sensitive
##▁pv
##etthet
##uly
##▁dur
##▁garderoben
##feb
##▁oec
##infarkt
##kla
##▁fox
##▁enger
##▁wales
##▁brad
##andeler
##▁lis
##▁thea
##▁usynlig
##dea
##formet
##▁doug
##▁merkelige
##▁forsinkelse
##sutvalg
##▁evighet
##▁rattet
##▁søksmål
##egisteret
##▁kikk
##▁påmeldings
##konf
##stev
##▁ogs
##▁corn
##▁(15
##▁markedets
##▁velfungerende
##▁utveksle
##▁selskaps
##▁spontan
##linjer
##▁varemerke
##▁arbeidstakeren
##▁skamløs
##▁integrer
##lyset
##▁dver
##▁seksjonen
##▁tidsrommet
##sekret
##▁frar
##▁skro
##▁chili
##▁taylor
##▁beij
##formasjonen
##▁dronningen
##▁involvering
##▁journalisten
##▁skipene
##▁drittsekk
##▁15-
##sfritt
##▁shang
##▁gartner
##▁administrativ
##▁årt
##▁trumps
##▁klinikken
##▁genu
##▁mong
##▁fader
##▁skumle
##▁snacks
##▁ønskede
##utviklere
##anka
##wich
##▁forhindrer
##▁hatet
##▁vinje
##▁fyldig
##▁sortiment
##▁aktivert
##sterk
##▁kalkul
##▁notert
##▁temper
##nia
##▁medvirke
##▁stord
##▁bekk
##▁hotels
##▁skjevheter
##▁stup
##▁efter
##▁utnev
##cellene
##▁hevdes
##▁spente
##▁forprosjekt
##høre
##villig
##▁naturopp
##▁borettslaget
##▁vesle
##▁knudsen
##cht
##▁zu
##øsninger
##▁nøt
##gaten
##▁vett
##▁style
##▁mediet
##▁when
##oghør
##▁hhv
##▁mindret
##▁siktede
##▁bursdagen
##▁reindrift
##▁økonomiplan
##▁evige
##▁bonden
##▁stabæk
##priori
##passende
##▁johannessen
##satsen
##▁diskret
##▁psykos
##room
##▁tilbak
##▁arrangøren
##▁rebe
##▁aldersgrupper
##▁emb
##▁algor
##▁båret
##▁berøring
##▁planområdet
##▁forpliktende
##ese
##▁nyfødte
##▁dnt
##▁avvikling
##inett
##cooter
##▁jotun
##▁gjette
##▁entusiasme
##slagene
##▁illustrerer
##ador
##supp
##▁investerer
##erik
##▁visit
##▁sandvik
##▁copyright
##rate
##▁organiseres
##▁rotet
##atørene
##holdelse
##▁veiledere
##▁fortjeneste
##▁wenche
##▁kuler
##▁pakist
##▁utvalgt
##▁barbere
##▁tannlegen
##▁fryd
##▁ninten
##▁lydspor
##▁arbeidstakerne
##urasjon
##▁distribuert
##▁sperre
##aply
##sbestem
##▁læringsutbytte
##▁buk
##▁bjørg
##▁fredet
##▁spredte
##▁rutinene
##▁jus
##▁logget
##/6
##lisere
##▁rådene
##▁nederlag
##▁studentenes
##▁misfornøyd
##▁treg
##▁vibeke
##▁hipp
##▁ugyl
##▁revolusjoner
##▁ubruk
##▁bifile
##▁forson
##▁operasjonsleder
##▁kysset
##▁pinlig
##divisjon
##hub
##ird
##sås
##▁tryl
##ykdommer
##▁jakter
##▁dataspill
##▁hovedpersonen
##▁tilfører
##shåndtering
##▁koordinere
##ssektoren
##journalist
##bat
##sbanen
##▁sesjon
##▁forbinder
##▁reservere
##▁betrak
##▁treninger
##▁helsesøster
##▁ishoc
##▁omstrid
##▁spasert
##▁medlemmet
##▁installasjonen
##▁forklares
##▁hovedkvar
##▁regningen
##▁snev
##▁muntlige
##▁mega
##▁flerkultur
##▁uib
##smodeller
##verter
##▁fakultetet
##▁valgkomite
##▁åse
##røret
##▁nesa
##▁analsex
##▁distriktene
##▁cc
##▁herman
##▁intervall
##▁anklager
##▁koder
##▁roald
##▁skillet
##flyt
##▁datam
##▁jakte
##▁teleg
##▁frustrert
##▁ufattelig
##▁koordinator
##▁ekv
##▁luc
##▁bese
##▁nerves
##▁visninger
##merking
##▁grusom
##▁fantasy
##▁pensjonister
##ize
##fyrt
##itta
##▁veron
##▁bjørne
##▁sexdating
##saften
##▁askim
##▁psykop
##▁resepsjon
##▁erke
##▁dream
##▁fryser
##▁eksponer
##▁eliminere
##▁sluttbruker
##▁ekspans
##▁svakhet
##▁utdeling
##▁klasserom
##rome
##▁bedra
##▁markering
##▁mangfoldig
##▁uttalelsen
##▁ow
##▁titan
##▁dovre
##levelser
##▁beck
##appa
##innlegget
##▁ear
##skaffe
##▁overstiger
##talen
##sanger
##arrangement
##▁neb
##guide
##virket
##▁kloke
##▁etnisitet
##isset
##▁nova
##▁telem
##smetode
##▁kongressen
##rans
##▁zom
##▁orde
##ssalen
##▁jordens
##▁sebastian
##▁flyplasser
##digheten
##▁overdre
##0)
##▁smule
##free
##▁oliver
##sendelse
##▁vestby
##punktene
##▁tilstrekkelige
##avik
##▁hub
##edin
##favor
##▁minnene
##▁gunstige
##▁dykke
##bels
##").
##▁lås
##▁hofte
##apparater
##▁skuespill
##77
##▁skrivebord
##▁konstruksjonen
##▁viruset
##▁betraktes
##misk
##▁1-0
##▁krenk
##▁anette
##▁folkets
##▁egnede
##▁hvaler
##▁kniven
##▁saksliste
##▁1-3
##▁stevnet
##ikkerheten
##▁dominerer
##▁kontrollerte
##regnet
##▁bakfra
##olt
##▁muren
##▁forsyning
##▁lillebror
##▁bittel
##▁melodi
##▁random
##▁middelhavet
##▁motiverende
##▁stallen
##▁svikter
##▁rollespill
##sor
##▁digg
##▁båndet
##kelige
##retting
##▁handlekur
##▁venstresiden
##▁anat
##▁econom
##▁rimeligere
##smyndighetene
##▁avtalene
##▁hair
##/-
##udder
##▁tina
##reserv
##sfullt
##▁oppfylles
##▁skim
##▁kontinuitet
##▁oliv
##iles
##▁blåbær
##▁hendt
##▁søknadene
##▁slad
##bekken
##▁kutter
##▁demokratiet
##▁(9
##øvet
##hardt
##▁medaljer
##▁inneha
##▁arkivet
##▁glit
##ilding
##agner
##▁tsjekkia
##▁eiendomsmeg
##amm
##akes
##▁lp
##▁reidar
##lite
##elven
##▁carlsen
##bonus
##▁paradis
##▁merkevare
##▁juks
##miljøer
##▁tverrfaglige
##tisere
##▁fored
##▁satsings
##▁avgrenset
##▁delmål
##▁produksjoner
##/9
##▁biog
##▁morro
##ssammens
##▁borgerlige
##bokser
##vogner
##▁strake
##▁fremheve
##▁fås
##kilder
##▁skulderen
##▁fastslå
##▁dv
##ivelse
##▁milep
##▁reson
##kjøttet
##▁ubegrens
##▁klassifisert
##▁18-
##▁mathias
##▁hole
##▁juice
##bår
##▁kallen
##▁slakter
##▁reservert
##forskjeller
##ssamfunn
##▁erfaren
##▁skolegang
##▁innkallingen
##estart
##sendring
##▁kunngjøring
##▁helger
##▁idrettsforbund
##vike
##▁homse
##▁oversette
##▁flau
##▁yrket
##▁underskrift
##▁blekk
##vandring
##▁mystisk
##relsen
##▁rikdom
##▁skjemaer
##▁drikkevann
##▁renovasjon
##▁amor
##▁døv
##▁krom
##▁smidig
##▁frigjøring
##▁menigheter
##iater
##▁portefølje
##▁spesialiserte
##!).
##▁ji
##▁julia
##arme
##▁lue
##▁griper
##▁triste
##▁bestilles
##88
##▁trådløs
##▁tilpasninger
##spinn
##▁julek
##yggelig
##▁knappe
##▁krager
##▁tiltrukket
##11.
##ipt
##sregi
##uger
##▁framtidig
##▁guy
##agon
##▁mentor
##▁brutalt
##dals
##▁usd
##▁blackj
##▁figurene
##▁superhost
##etab
##front
##▁stamme
##▁plasserte
##▁duket
##▁tegneserier
##▁champagne
##▁ink
##▁develop
##▁misunn
##inkludert
##▁families
##▁enty
##roppen
##vakter
##6).
##bell
##▁papi
##▁skiver
##▁pistolen
##geb
##uken
##▁bakte
##▁moske
##▁investeringene
##nelse
##▁vandret
##▁håndverkere
##▁kvm
##▁ovn
##▁ferden
##▁toyota
##▁une
##▁impor
##▁loc
##▁useri
##▁trappen
##▁gråter
##▁stereoty
##▁vinnerne
##▁leilighetene
##æter
##▁tii
##steam
##amlingen
##spartiene
##▁framme
##▁hurra
##▁forutsetningen
##▁henri
##▁ungen
##ledningen
##uma
##▁tygg
##▁image
##▁utløst
##▁designe
##fia
##pakker
##isterende
##▁oppdages
##▁terskelen
##▁verdighet
##gratis
##▁intensjonen
##▁beijing
##▁upassende
##▁wel
##freds
##▁morsommere
##▁oppholde
##oktober
##uo
##▁strømme
##▁kjærlighetens
##første
##sakene
##▁nepal
##sstyret
##urb
##ardo
##videoer
##▁gebyrer
##shjem
##▁uendret
##sbar
##konsept
##▁sondre
##alende
##sreformen
##▁ullensaker
##priv
##▁rytme
##▁mall
##▁berømt
##forsik
##skampan
##▁06.
##skunst
##▁vike
##krefter
##▁djevelen
##▁1.2
##▁stok
##▁taktikk
##▁5:
##▁modus
##▁definerte
##▁mah
##ration
##lian
##▁forelå
##▁minske
##pynt
##veter
##odeller
##▁begrensning
##▁spesifisert
##▁wol
##øyting
##▁algorit
##▁ambassadør
##▁naturmangfold
##▁gon
##▁allmennheten
##▁obligasjoner
##smy
##▁seiler
##▁målingene
##▁inva
##▁vere
##▁målsetning
##▁mygg
##▁),
##▁clar
##▁fornærmede
##▁ridder
##▁inkluderte
##▁botan
##klasser
##▁interiøret
##▁volden
##▁vestlig
##▁sjokkert
##espør
##likte
##▁høgskoler
##katalog
##▁guardi
##▁gjentas
##▁humanitære
##▁19,
##▁fasit
##▁deks
##▁hardd
##▁makro
##▁islamske
##▁underlaget
##▁psykologiske
##▁givende
##▁genetiske
##▁5-6
##▁fres
##▁right
##▁suppe
##▁utviklingsland
##slav
##▁damli
##▁nytter
##▁oppløst
##▁sperret
##▁naked
##ssammen
##▁trofast
##ree
##skjem
##bygda
##elles
##▁refleks
##abo
##▁babyer
##▁central
##▁tilgivelse
##slund
##▁forstyrrelser
##▁konsentrasjonen
##idas
##skampen
##▁knip
##▁roligere
##▁doktorgra
##vatn
##▁ruud
##▁overholde
##▁patenter
##▁omlegging
##sher
##galler
##▁voldelige
##bisk
##▁rekkefølgen
##høyden
##▁fråtse
##▁leksikon
##▁momenter
##▁fastlegen
##▁eksotiske
##lel
##kritikk
##▁voldsomme
##▁herved
##▁roulette
##▁begrenses
##▁lenken
##▁ligaen
##▁tapp
##riktig
##▁låner
##ssa
##arning
##gli
##▁grev
##▁jakken
##▁folkeav
##▁omdan
##▁kvantit
##▁oppveksten
##▁overskrifter
##▁draps
##▁bestemmes
##iers
##▁luk
##staur
##▁1984
##fylling
##▁benk
##▁boston
##▁presist
##▁stjeler
##▁resultere
##hamar
##▁koret
##▁leide
##▁bikini
##hing
##ifer
##▁innby
##▁transpar
##▁innebygd
##▁nk
##▁cond
##kandidat
##representanter
##arealet
##▁ambisiøse
##)-
##.:
##▁asss
##odokse
##▁plage
##▁smooth
##▁sjangeren
##gjennomsnittet
##dele
##hion
##▁coc
##▁institute
##▁kompensere
##▁testosteron
##▁aksjekapital
##øyte
##▁ade
##▁festes
##fortjent
##▁markant
##sbakgrunn
##gers
##stype
##▁steinen
##slinjer
##▁domene
##neringen
##▁dev
##betjent
##ono
##▁energim
##▁websiden
##konvensjonen
##▁såre
##▁gjeninn
##▁gent
##etoder
##▁valen
##høl
##▁industr
##▁isaksen
##▁lus
##▁glød
##▁reag
##elinjen
##▁chatter
##▁racing
##▁bestanden
##fanget
##oldater
##▁hørtes
##▁ft
##tun
##▁høstet
##▁tålmodig
##▁mislykkes
##såp
##vas
##undene
##▁trådløst
##▁overnatte
##▁uit
##▁søstre
##▁etterlatte
##jenest
##▁blackjack
##prosjektene
##hjør
##▁gratu
##▁sannelig
##bølge
##▁sengetøy
##▁hjerteinfarkt
##skjorte
##▁språklig
##▁vu
##▁pirat
##▁sjalu
##▁jeff
##forand
##▁kompetent
##mari
##orps
##64
##▁sjåfører
##inas
##▁sut
##▁manøv
##▁kaffen
##▁søndager
##▁bevilling
##▁regime
##▁barbering
##øen
##▁vass
##løshet
##▁distribut
##1:
##leis
##▁force
##▁skøyter
##▁sauer
##▁pensjons
##▁niss
##▁pastor
##▁grunerløkka
##▁hovedstyret
##▁kjærlighets
##urope
##øpere
##steori
##▁elevens
##▁drømt
##kjennelsen
##▁samhandle
##▁klor
##▁setet
##▁ødelegg
##▁7-
##▁synke
##less
##runden
##▁anime
##▁moses
##▁spilleautomat
##ils
##▁kretser
##09
##bers
##stoffene
##▁ekspertise
##%,
##sklær
##strup
##▁grammat
##keeper
##▁plikten
##prosesser
##▁tt
##fors
##▁herred
##▁meldingene
##råten
##▁planla
##▁terskel
##▁palestina
##▁innfall
##▁simpelt
##▁elitesingles
##▁sååå
##▁tropp
##yout
##▁feder
##steinen
##▁slekten
##▁administrativt
##▁erfare
##november
##▁prestere
##▁hok
##▁vipps
##▁barner
##▁korrid
##▁begivenhet
##▁db
##vaks
##▁stro
##▁chall
##bergs
##▁fles
##▁kofferten
##▁fæ
##▁bød
##avhengighet
##alternativer
##▁2003,
##▁grafiske
##aper
##▁ekk
##ulært
##▁fora
##▁odel
##▁glidel
##▁svinge
##▁opprørt
##▁forbeholdt
##sboliger
##▁bened
##▁baseres
##▁toppløs
##takter
##filosof
##▁dekkene
##▁regninger
##▁seoghør
##▁forstyrre
##▁høyly
##iki
##dering
##▁amanda
##▁østland
##▁ettertrakt
##ggen
##▁ate
##▁polsk
##▁trangt
##▁oppstand
##▁rekreasjon
##▁semifinalen
##stock
##▁misn
##▁kirka
##ituert
##▁verkstedet
##▁hoder
##▁posen
##▁toten
##▁tårene
##▁realisert
##situasjonen
##yrket
##holdere
##▁transform
##▁akseptabelt
##▁glø
##ammens
##▁sensitiv
##▁organisatoriske
##råde
##▁1/3
##asier
##▁biologi
##▁identisk
##▁innkalles
##▁soul
##▁borgen
##▁inntaket
##num
##▁pac
##▁maur
##▁glatte
##▁selgere
##▁drømmene
##▁tredjeparter
##ederlag
##▁satan
##utredning
##▁uforglem
##▁uskyldige
##▁nederste
##pike
##▁peru
##blin
##▁tilsetting
##▁hore
##▁1978
##▁årsregnskap
##denes
##▁uttrykte
##▁fremhever
##▁enkeltvedtak
##▁omstendighetene
##øret
##▁filene
##▁mynter
##▁skyss
##▁utvel
##▁merkel
##▁nederlandske
##tror
##▁educ
##strakte
##▁hentai
##▁overbevisende
##▁gammeldags
##▁eggene
##▁silver
##▁forstør
##aterer
##▁dennis
##▁karoline
##▁ayl
##▁helsefremmende
##▁holt
##▁erstatnings
##▁droppet
##▁parkere
##▁gummi
##▁oppsl
##▁mercedes
##sfordeling
##▁aldersgrense
##▁britt
##▁smell
##▁titte
##telefon
##▁brian
##▁sakkyndige
##▁sosialhjelp
##yon
##▁akv
##sglede
##▁sådan
##relev
##asjene
##▁lovene
##▁overskrift
##▁skjønnheten
##▁safe
##▁uføret
##kostninger
##▁aga
##roner
##▁synn
##▁leies
##▁harris
##▁control
##▁fotografere
##▁blanke
##▁malerier
##lines
##▁vikt
##▁kveldene
##▁årsmelding
##▁morgendagens
##▁maleri
##▁alger
##▁ergonom
##▁slanger
##▁unnskyl
##▁spesialisering
##rn
##▁heart
##▁kontingent
##▁krå
##2018
##boe
##▁volds
##▁spesialpedagog
##bland
##fradrag
##▁kartleggingen
##▁harmoni
##▁pumper
##belastning
##index
##kirur
##▁assosiasjoner
##▁oversv
##sjob
##▁alles
##▁avtalte
##endene
##▁ishockey
##▁tilbrakt
##amo
##▁feiler
##▁finish
##▁nasjonen
##▁pågått
##▁tyveri
##sykt
##▁syner
##▁muslimsk
##brua
##▁kasse
##▁spises
##skul
##▁dåpen
##▁rammeverk
##▁ice
##elast
##▁booket
##▁margrethe
##▁fashion
##▁gudbrand
##▁eventyret
##▁russlands
##▁tilbakebet
##lei
##▁reales
##▁landsdekkende
##▁hart
##stallet
##økonomisk
##▁published
##sfunksjoner
##edalen
##▁kognitiv
##▁ferskvann
##▁idrettsanlegg
##ches
##▁skaff
##selgeren
##deig
##▁vor
##▁kennel
##▁mb
##lutning
##▁avlyst
##sgrunnlag
##▁vektlagt
##▁inspirerer
##▁shell
##årsaken
##▁grensa
##utstillingen
##▁2-0
##https
##▁ferge
##▁markedsførings
##tish
##▁oppsummerer
##▁transportsentre
##▁bedret
##▁opprettholdt
##bygge
##▁cock
##▁tolket
##▁fauske
##▁valley
##studentene
##imene
##roen
##▁two
##metoden
##pnede
##▁druk
##jobber
##▁balansere
##▁håndverks
##▁rasmussen
##▁usannsynlig
##ovic
##ringet
##▁vendt
##06
##▁pbl
##▁1979
##▁andrew
##▁plukker
##07.
##▁name
##fester
##▁lovte
##elovens
##▁ernærings
##▁spektakulære
##edire
##▁sorgen
##▁forside
##▁statnett
##▁utformes
##smateriale
##▁tilførsel
##▁slur
##▁partikler
##▁statsbygg
##▁kunstgress
##▁kent
##▁lytt
##adresser
##▁pred
##▁strever
##▁technology
##nast
##▁thaimassasje
##oksen
##▁brow
##▁lansere
##▁visjoner
##▁nøyaktighet
##amb
##otten
##▁kastes
##iano
##▁tiende
##▁dominert
##▁mottakere
##▁hier
##▁interessenter
##leser
##rekning
##▁avtales
##▁plakater
##kurset
##skillig
##▁lød
##egjen
##▁sissel
##▁minib
##.-
##▁sap
##sutdan
##stillende
##▁diagnoser
##mans
##spoeng
##▁negler
##▁merknad
##interess
##▁ogsa
##▁eksklusiv
##▁dybden
##▁fagbrev
##▁demonstrasjoner
##▁grøt
##lesias
##sfeng
##sender
##alistene
##▁contact
##▁presteg
##▁bekjentskap
##▁165
##▁ketil
##▁etterkommere
##svenn
##▁bomber
##få
##agende
##▁vaskes
##▁belønnet
##▁resultert
##▁trusselen
##▁tenne
##▁rbk
[...]
